<unk>	0
<s>	0
</s>	0
.	-3.0148
▁the	-3.02816
,	-3.26297
▁of	-3.62993
▁a	-3.74955
▁and	-3.84481
▁to	-3.96216
▁is	-4.04172
▁in	-4.07785
s	-4.27575
▁for	-4.74085
-	-4.92074
▁or	-4.94785
▁are	-5.01962
▁that	-5.05774
▁(	-5.11317
▁it	-5.12987
▁as	-5.16129
▁you	-5.2407
▁on	-5.31865
▁	-5.32976
▁with	-5.33985
▁an	-5.44355
▁from	-5.46123
)	-5.48074
▁by	-5.50713
▁can	-5.52778
'	-5.53654
▁your	-5.53801
▁be	-5.56194
:	-5.71324
▁this	-5.80003
▁1	-5.82944
▁at	-5.91267
▁2	-5.95339
▁have	-6.02576
▁which	-6.0846
▁not	-6.11775
▁was	-6.18567
▁if	-6.18822
▁one	-6.22918
▁will	-6.26508
▁also	-6.27701
▁more	-6.30893
).	-6.33533
▁they	-6.35358
▁3	-6.35635
▁most	-6.35918
▁other	-6.37705
▁has	-6.40246
▁used	-6.41932
▁per	-6.43057
▁may	-6.43432
▁but	-6.43892
▁average	-6.47053
▁about	-6.48063
▁when	-6.4811
’	-6.50357
t	-6.51093
▁cost	-6.52678
▁name	-6.53845
▁than	-6.54717
▁all	-6.56644
▁i	-6.65284
▁what	-6.6542
▁up	-6.72805
▁there	-6.7374
▁some	-6.74691
/	-6.75121
▁their	-6.75593
▁body	-6.78158
▁into	-6.78387
▁blood	-6.78661
▁how	-6.8126
▁between	-6.81439
▁two	-6.81623
ing	-6.82411
▁its	-6.83461
;	-6.85337
▁first	-6.87058
▁4	-6.87884
▁time	-6.89212
▁use	-6.91591
d	-6.9233
▁such	-6.92891
a	-6.93266
▁water	-6.93418
▁called	-6.94012
▁years	-6.95345
▁these	-6.95345
▁do	-6.96046
▁year	-6.96073
▁many	-6.96297
ed	-6.97072
▁people	-6.99319
▁so	-7.05367
▁system	-7.06808
▁only	-7.08474
),	-7.10723
▁out	-7.11493
▁over	-7.12736
▁new	-7.12892
e	-7.13138
▁after	-7.16223
▁who	-7.16252
▁make	-7.18611
▁cells	-7.18666
▁any	-7.19074
▁like	-7.20533
▁salary	-7.20835
▁known	-7.23736
▁form	-7.23755
▁each	-7.25534
▁usually	-7.26029
▁found	-7.2667
▁common	-7.27256
▁get	-7.27942
▁type	-7.28835
c	-7.29077
▁5	-7.30288
▁long	-7.30457
▁no	-7.3048
▁we	-7.30528
▁high	-7.31602
▁where	-7.34073
▁much	-7.34207
▁then	-7.34537
▁through	-7.35014
▁made	-7.35541
▁disease	-7.3623
▁been	-7.36405
▁should	-7.36508
▁day	-7.36675
▁food	-7.36797
▁part	-7.36998
▁often	-7.37705
▁different	-7.38443
▁states	-7.39059
▁days	-7.40462
▁does	-7.41378
▁while	-7.41734
▁around	-7.42593
▁because	-7.42835
▁well	-7.43084
▁take	-7.43299
▁number	-7.43368
▁10	-7.43593
▁need	-7.44176
▁very	-7.44266
▁he	-7.45735
▁were	-7.48023
re	-7.48028
▁cell	-7.49904
▁temperature	-7.50449
▁include	-7.50786
▁small	-7.50894
▁them	-7.51349
▁...	-7.51815
▁just	-7.52443
▁cause	-7.53319
▁work	-7.53385
▁his	-7.54459
▁three	-7.55187
▁meaning	-7.55501
▁example	-7.5646
▁range	-7.56752
▁during	-7.56867
▁costs	-7.57036
▁world	-7.57489
▁both	-7.58085
▁state	-7.58495
▁minutes	-7.59742
or	-7.60592
▁hours	-7.60949
▁home	-7.60956
▁pay	-7.61049
n	-7.61055
▁would	-7.61337
y	-7.61544
▁heart	-7.61584
▁before	-7.62452
▁skin	-7.62886
▁less	-7.63214
▁see	-7.63233
▁our	-7.63308
▁6	-7.64069
▁area	-7.64118
▁person	-7.64465
▁united	-7.64605
▁same	-7.65655
▁age	-7.66387
▁however	-7.66388
th	-7.67565
f	-7.68095
ly	-7.68354
▁best	-7.70839
er	-7.70957
m	-7.71074
▁types	-7.71737
▁process	-7.72501
▁energy	-7.72586
▁large	-7.72719
▁place	-7.73135
in	-7.73858
o	-7.74189
▁information	-7.74574
▁“	-7.74984
▁muscle	-7.75444
▁c	-7.75644
▁within	-7.75754
▁help	-7.76755
▁under	-7.76793
▁square	-7.78087
i	-7.78236
▁including	-7.79032
▁symptoms	-7.79061
▁u	-7.79221
the	-7.79301
▁good	-7.79418
▁means	-7.79495
k	-7.80398
▁amount	-7.81248
▁according	-7.81535
▁my	-7.81613
▁rate	-7.81659
▁important	-7.82139
▁pain	-7.82634
▁way	-7.83735
▁group	-7.84234
r	-7.84535
▁using	-7.84713
▁even	-7.84931
▁b	-7.85886
▁health	-7.86565
▁back	-7.86784
▁test	-7.8738
▁total	-7.88125
▁hour	-7.88718
▁plant	-7.88722
▁down	-7.88871
g	-7.89018
▁percent	-7.89181
▁–	-7.89837
▁being	-7.91251
▁life	-7.91263
▁term	-7.91378
▁another	-7.91639
▁depending	-7.92389
▁side	-7.92541
▁had	-7.93062
▁-	-7.93185
▁foot	-7.93375
▁normal	-7.93509
▁located	-7.93917
▁dna	-7.94209
▁top	-7.94274
▁those	-7.9434
▁must	-7.94425
▁low	-7.94793
▁below	-7.95034
▁species	-7.95418
▁price	-7.95571
▁until	-7.95758
▁definition	-7.96018
▁size	-7.96311
▁20	-7.96313
▁find	-7.96405
▁level	-7.96687
▁caused	-7.99162
▁right	-7.99537
▁company	-7.99929
▁'	-7.99982
▁air	-8.00627
▁feet	-8.0111
▁american	-8.01334
▁based	-8.01363
▁degrees	-8.01588
▁job	-8.0163
▁baby	-8.02177
▁months	-8.02431
▁period	-8.03141
▁s	-8.03425
▁four	-8.03974
▁7	-8.04007
▁white	-8.04169
▁lower	-8.04354
▁human	-8.04364
▁plants	-8.04571
▁oil	-8.04583
▁every	-8.04648
▁brain	-8.04853
▁red	-8.05091
▁15	-8.05283
l	-8.05346
▁bacteria	-8.05384
▁typically	-8.05406
▁8	-8.05697
”	-8.06026
▁infection	-8.06709
▁f	-8.06949
▁go	-8.07107
▁non	-8.07251
▁family	-8.0726
▁causes	-8.07401
▁medical	-8.07501
▁english	-8.07826
▁last	-8.09039
▁word	-8.09174
▁want	-8.09277
es	-8.09919
▁weeks	-8.09978
▁city	-8.1022
▁protein	-8.11089
▁north	-8.11465
▁earth	-8.11856
▁tissue	-8.12006
▁several	-8.12173
▁12	-8.12235
▁foods	-8.1279
▁set	-8.12793
▁old	-8.13057
▁south	-8.13073
▁e	-8.1346
▁heat	-8.1392
▁30	-8.1432
▁degree	-8.14348
▁full	-8.14814
▁here	-8.14832
▁sugar	-8.14864
▁since	-8.1502
▁generally	-8.15107
▁now	-8.15923
▁without	-8.16004
▁add	-8.16477
▁annual	-8.16781
▁us	-8.17008
▁data	-8.17356
▁few	-8.17357
al	-8.17819
▁least	-8.17923
▁business	-8.18143
▁don	-8.18708
2	-8.19067
▁care	-8.19351
▁could	-8.19794
▁service	-8.19869
▁chemical	-8.20384
▁month	-8.20501
▁answer	-8.20719
▁due	-8.2079
!	-8.21181
▁treatment	-8.2129
▁acid	-8.2174
▁higher	-8.2185
▁surface	-8.22121
▁single	-8.22492
▁end	-8.22515
▁experience	-8.22515
▁main	-8.22739
▁above	-8.22754
▁tax	-8.22814
▁free	-8.22927
ll	-8.23052
▁off	-8.23138
▁become	-8.23331
▁re	-8.23336
▁general	-8.23538
to	-8.23608
▁her	-8.23995
▁sometimes	-8.24254
▁major	-8.24786
▁second	-8.25428
▁million	-8.25517
▁know	-8.25704
▁function	-8.25734
▁weight	-8.25941
▁start	-8.26115
▁pressure	-8.26126
▁live	-8.26274
▁keep	-8.26925
com	-8.27512
▁school	-8.28624
▁commonly	-8.28694
▁national	-8.2871
▁products	-8.29089
▁change	-8.29599
▁click	-8.29651
▁light	-8.29882
▁specific	-8.30022
▁order	-8.30647
?	-8.30729
▁levels	-8.30961
▁great	-8.31571
x	-8.31801
▁source	-8.31836
▁although	-8.32288
p	-8.32392
▁eggs	-8.32398
▁either	-8.32629
▁certain	-8.33108
▁available	-8.33354
▁children	-8.33973
▁natural	-8.34701
▁color	-8.34832
▁meat	-8.34926
▁car	-8.35388
▁given	-8.35555
▁early	-8.35762
▁result	-8.36184
b	-8.36236
▁parts	-8.36445
▁condition	-8.36656
h	-8.3715
▁d	-8.37516
▁contains	-8.37889
▁m	-8.37926
▁oxygen	-8.38035
▁fat	-8.38379
▁--	-8.38417
▁muscles	-8.3853
▁considered	-8.38981
▁vary	-8.39101
▁own	-8.39192
▁once	-8.3925
▁t	-8.39332
▁gas	-8.3936
▁she	-8.39661
▁similar	-8.39978
▁oven	-8.39981
▁control	-8.39997
▁location	-8.40313
▁still	-8.40372
▁check	-8.40468
▁largest	-8.40695
▁little	-8.41223
▁power	-8.41601
▁following	-8.41892
▁language	-8.41996
▁sea	-8.42264
▁income	-8.43003
▁point	-8.43031
▁conditions	-8.431
▁&	-8.4322
ic	-8.43661
▁forms	-8.43847
▁credit	-8.44105
▁might	-8.44158
▁too	-8.44272
▁times	-8.44322
▁women	-8.44386
▁increase	-8.44446
▁list	-8.44624
▁provide	-8.44663
▁carbon	-8.44684
▁child	-8.45352
▁mean	-8.45365
▁structure	-8.45442
ve	-8.45522
▁material	-8.45546
▁cancer	-8.45549
▁five	-8.45659
▁animals	-8.46037
▁areas	-8.46134
▁100	-8.46262
▁government	-8.46584
▁popular	-8.46663
▁miles	-8.46877
▁act	-8.46996
▁occur	-8.4736
▁approximately	-8.47439
▁country	-8.47492
▁produced	-8.47696
▁produce	-8.47747
▁liver	-8.48118
▁nerve	-8.48153
▁standard	-8.48168
▁occurs	-8.48254
▁program	-8.48504
▁along	-8.4852
▁week	-8.48661
▁fee	-8.48736
▁x	-8.48824
▁report	-8.49094
▁salaries	-8.49271
▁9	-8.49285
▁project	-8.49298
▁takes	-8.49392
▁living	-8.49468
▁short	-8.5001
▁together	-8.50161
▁making	-8.50222
▁central	-8.5054
▁variety	-8.5062
▁vitamin	-8.50714
▁median	-8.50926
▁house	-8.50986
▁mg	-8.51139
▁related	-8.51252
▁open	-8.5147
▁—	-8.51695
▁contain	-8.51746
▁region	-8.51805
▁insurance	-8.51869
▁fish	-8.52515
▁code	-8.52668
▁inches	-8.52776
▁come	-8.5293
▁look	-8.53223
▁50	-8.53343
▁half	-8.53357
▁black	-8.53367
▁law	-8.53799
▁names	-8.54159
▁left	-8.54468
3	-8.54613
▁basic	-8.54773
▁salt	-8.55222
▁doctor	-8.55553
(	-8.56045
▁bone	-8.56272
▁n	-8.56474
▁associated	-8.56488
▁services	-8.56551
an	-8.56775
▁cook	-8.56837
▁base	-8.57152
▁america	-8.57413
▁history	-8.57653
us	-8.57921
▁[	-8.58072
4	-8.5825
▁various	-8.58258
▁give	-8.58447
▁origin	-8.5856
▁makes	-8.58572
▁comes	-8.58623
▁green	-8.58692
▁chicken	-8.59009
▁eye	-8.59218
▁de	-8.59482
▁eat	-8.59637
▁unit	-8.60261
▁rock	-8.60578
▁grow	-8.60617
▁product	-8.61112
▁labor	-8.61306
▁18	-8.61524
▁animal	-8.61527
on	-8.61658
▁money	-8.61711
▁me	-8.61917
▁island	-8.61996
▁case	-8.62032
▁charge	-8.62042
▁uses	-8.62044
▁put	-8.62057
▁complete	-8.62143
▁required	-8.62302
▁includes	-8.62434
▁run	-8.62839
▁dry	-8.62867
▁remove	-8.62896
▁problems	-8.63232
▁value	-8.6331
▁growth	-8.63621
▁longer	-8.64082
▁though	-8.64087
▁cases	-8.64094
▁risk	-8.64427
▁especially	-8.6464
▁1.	-8.64805
▁depends	-8.65142
▁treat	-8.65299
▁present	-8.65325
▁line	-8.65478
▁/	-8.65493
▁cold	-8.65602
▁hair	-8.65807
▁effects	-8.6654
▁production	-8.66667
▁social	-8.66745
▁g	-8.66792
▁account	-8.66848
▁length	-8.66931
▁highest	-8.6697
▁center	-8.67029
▁disorder	-8.67306
▁local	-8.67322
▁having	-8.67353
▁land	-8.6739
▁=	-8.67418
▁show	-8.67591
▁layer	-8.67603
and	-8.67889
▁dog	-8.67898
▁un	-8.68012
▁factors	-8.68066
▁physical	-8.6813
▁paid	-8.68186
▁individual	-8.68281
▁materials	-8.68672
▁war	-8.68863
▁patients	-8.6892
▁:	-8.69178
▁next	-8.69707
as	-8.70173
▁cover	-8.7069
▁better	-8.70714
▁infections	-8.70978
▁simple	-8.71296
it	-8.71298
▁tree	-8.7138
▁loss	-8.71491
▁whole	-8.71644
▁head	-8.71727
▁population	-8.71764
is	-8.71987
▁25	-8.72013
▁field	-8.72027
1	-8.72076
▁p	-8.72112
▁current	-8.72199
▁computer	-8.7226
▁benefits	-8.72486
▁daily	-8.72505
▁diseases	-8.72733
▁pan	-8.72825
▁16	-8.72878
▁sure	-8.72917
▁always	-8.72988
▁earn	-8.73022
▁40	-8.73125
▁soil	-8.73238
▁done	-8.73487
▁born	-8.73673
▁formed	-8.73894
▁typical	-8.74094
▁plan	-8.74332
▁calories	-8.74402
▁diet	-8.74661
▁things	-8.74871
▁whether	-8.74922
▁able	-8.75159
▁greek	-8.75173
▁page	-8.75223
▁room	-8.75368
▁primary	-8.75606
▁six	-8.75656
▁fees	-8.75868
▁education	-8.76284
▁file	-8.76389
▁urine	-8.76419
▁o	-8.76423
▁inside	-8.76425
▁lot	-8.76668
▁$	-8.76687
▁today	-8.76694
▁west	-8.76706
▁middle	-8.76733
▁enough	-8.76879
▁anywhere	-8.76969
▁river	-8.77235
▁near	-8.77235
▁addition	-8.77241
▁cooking	-8.77494
▁wall	-8.77773
▁men	-8.77802
▁additional	-8.7783
▁hard	-8.77912
▁study	-8.77974
▁milk	-8.78169
▁glucose	-8.78313
▁others	-8.78577
▁results	-8.78951
▁minimum	-8.79007
▁pre	-8.79048
▁changes	-8.79152
▁move	-8.79199
▁stomach	-8.79529
▁damage	-8.79602
like	-8.79637
▁hot	-8.79654
▁turn	-8.79737
▁university	-8.79761
▁against	-8.79773
▁movement	-8.79847
▁among	-8.80074
▁actually	-8.80243
▁something	-8.8026
▁east	-8.80277
▁medium	-8.80277
▁ground	-8.80335
▁defined	-8.80351
▁research	-8.80436
▁public	-8.80449
▁wide	-8.80534
▁upper	-8.80559
▁sun	-8.80613
▁french	-8.80744
en	-8.80751
▁membrane	-8.8076
▁possible	-8.80796
▁14	-8.80807
▁space	-8.80816
▁co	-8.80855
▁genetic	-8.81058
▁class	-8.81099
▁fluid	-8.81145
▁drug	-8.81523
▁working	-8.81555
▁healthy	-8.8158
▁hormone	-8.81661
▁proteins	-8.818
v	-8.81976
▁organisms	-8.82299
▁molecules	-8.82398
▁fact	-8.82411
▁earned	-8.82752
▁century	-8.82776
▁throughout	-8.82819
▁gene	-8.82983
▁site	-8.83093
▁roast	-8.83416
▁24	-8.83649
▁referred	-8.83864
▁iron	-8.83903
▁building	-8.84003
▁think	-8.84036
▁provides	-8.84042
▁calcium	-8.8407
▁refers	-8.84077
▁away	-8.84111
▁quality	-8.84186
▁countries	-8.8425
▁fiber	-8.84336
▁h	-8.84432
▁step	-8.84493
ers	-8.84532
°	-8.8457
▁man	-8.84739
▁egg	-8.84862
▁humans	-8.85087
▁systems	-8.85142
▁date	-8.85253
—	-8.85344
▁require	-8.85407
▁60	-8.8553
▁real	-8.85603
▁cut	-8.85627
▁let	-8.85777
▁almost	-8.85923
▁office	-8.85923
▁yes	-8.86169
▁words	-8.86217
w	-8.86393
▁development	-8.865
▁terms	-8.86621
▁later	-8.86798
▁hand	-8.86906
▁thyroid	-8.87052
▁support	-8.87101
▁gland	-8.87227
▁college	-8.87371
▁contact	-8.87566
▁virus	-8.87723
▁organs	-8.87972
▁larger	-8.88201
▁create	-8.88243
▁needs	-8.8827
▁km	-8.88275
▁leaves	-8.88357
▁california	-8.88375
▁why	-8.88399
▁role	-8.88756
▁latin	-8.88959
▁internal	-8.898
▁international	-8.89894
▁students	-8.90389
▁installation	-8.90469
▁useful	-8.90696
able	-8.90853
▁county	-8.90873
co	-8.90894
▁surgery	-8.90981
▁likely	-8.91033
▁return	-8.91133
▁difference	-8.91269
▁blue	-8.91304
▁inflammation	-8.91574
▁medicine	-8.91849
▁ranges	-8.91919
▁said	-8.92038
▁effect	-8.92526
▁canada	-8.92605
▁rest	-8.92671
▁helps	-8.9276
▁australia	-8.92807
▁learn	-8.9299
▁call	-8.92992
▁going	-8.93041
▁tissues	-8.93148
▁did	-8.93418
▁wage	-8.93435
▁course	-8.93479
man	-8.93546
▁immune	-8.93592
▁etc	-8.93673
▁particular	-8.93736
▁kidney	-8.93781
▁female	-8.93799
▁ago	-8.93816
▁nervous	-8.94047
▁receive	-8.94068
▁training	-8.94414
▁view	-8.94524
▁consists	-8.94675
▁+	-8.9504
▁prices	-8.95228
▁across	-8.95772
▁temperatures	-8.95937
▁lead	-8.96076
▁president	-8.96087
▁derived	-8.96126
▁needed	-8.96159
▁federal	-8.96183
▁maximum	-8.96438
▁far	-8.96556
▁vessels	-8.9657
▁property	-8.96586
▁method	-8.96708
▁application	-8.96915
▁complex	-8.96966
▁season	-8.97041
▁prevent	-8.9722
▁management	-8.97555
▁brown	-8.97561
▁reaction	-8.97591
▁mouth	-8.97742
▁reduce	-8.97887
u	-8.98021
▁affect	-8.9806
▁severe	-8.9816
▁deep	-8.98169
▁noun	-8.9846
▁joint	-8.98465
▁seeds	-8.98484
▁liquid	-8.98874
▁flow	-8.98939
▁rare	-8.99023
▁industry	-8.99177
▁europe	-8.99223
▁choose	-8.9929
▁key	-8.99352
▁itself	-8.99621
▁store	-8.99662
▁adults	-8.99758
▁17	-9.00123
▁smaller	-9.00171
▁acids	-9.00261
▁simply	-9.00544
▁york	-9.0057
▁professional	-9.00627
▁allow	-9.00742
▁say	-9.00761
▁works	-9.00764
▁male	-9.00769
▁determine	-9.00901
▁death	-9.01109
6	-9.01229
▁elements	-9.01252
▁11	-9.0137
▁africa	-9.01475
▁close	-9.01487
·	-9.0149
▁rna	-9.01714
▁concrete	-9.0175
▁taken	-9.01753
▁card	-9.01753
▁someone	-9.01845
▁metal	-9.01923
▁rates	-9.02028
▁taking	-9.02033
▁cycle	-9.02119
▁functions	-9.02147
▁spread	-9.02294
▁lungs	-9.02561
▁$1	-9.02654
▁special	-9.02699
▁third	-9.02782
▁network	-9.02789
▁outside	-9.02822
▁share	-9.03152
▁yellow	-9.03238
▁market	-9.033
▁position	-9.03305
▁alcohol	-9.03337
▁birth	-9.03472
▁ocean	-9.03498
▁l	-9.03561
▁k	-9.03579
▁easy	-9.04058
▁directly	-9.04228
▁grams	-9.04267
▁cannot	-9.04335
▁traditional	-9.04374
▁direct	-9.04686
▁apply	-9.04823
▁starting	-9.04863
▁kind	-9.04918
na	-9.04932
▁activity	-9.04962
▁composed	-9.05131
▁problem	-9.0521
▁cooked	-9.05379
▁height	-9.05385
▁read	-9.05469
▁molecule	-9.05474
▁sources	-9.05507
▁table	-9.05793
▁members	-9.05832
▁post	-9.05886
▁mass	-9.06002
▁series	-9.06024
▁created	-9.06042
▁glands	-9.0605
▁develop	-9.06093
▁play	-9.06482
▁expect	-9.06491
time	-9.06495
▁doesn	-9.06951
▁estimate	-9.06985
▁measure	-9.07425
▁added	-9.07642
▁therapy	-9.07667
▁essential	-9.07817
▁select	-9.07909
▁13	-9.07948
▁really	-9.08127
▁cholesterol	-9.08148
▁normally	-9.0826
▁fever	-9.0828
▁original	-9.08401
▁online	-9.08412
▁vegetables	-9.08524
5	-9.08602
▁nurse	-9.08728
▁fruit	-9.08761
▁big	-9.08901
▁groups	-9.08977
▁jobs	-9.09462
▁adult	-9.09669
▁sign	-9.0985
▁seen	-9.09868
▁r	-9.09986
▁minerals	-9.10017
le	-9.10096
▁northern	-9.10099
▁travel	-9.10177
▁therefore	-9.10192
▁enter	-9.10217
▁responsible	-9.10251
▁trees	-9.10315
▁active	-9.1052
▁substance	-9.10871
8	-9.10945
▁tract	-9.11147
▁native	-9.11166
▁dose	-9.11186
▁young	-9.11322
▁ancient	-9.11406
▁pork	-9.11585
▁probably	-9.11595
up	-9.11617
▁$2	-9.1177
▁environment	-9.11876
9	-9.12076
▁varies	-9.12102
▁regular	-9.12158
▁bones	-9.12529
▁modern	-9.12555
▁india	-9.12766
▁companies	-9.13007
▁financial	-9.13087
▁named	-9.13226
▁southern	-9.13289
▁court	-9.13395
▁syndrome	-9.1344
▁note	-9.13464
ra	-9.13614
▁security	-9.13958
▁carry	-9.13967
▁easily	-9.14106
▁bottom	-9.14194
▁contract	-9.14272
▁patient	-9.14334
▁feel	-9.14355
▁weather	-9.14358
▁increased	-9.14435
▁hourly	-9.14436
▁wood	-9.14502
▁shape	-9.14731
▁legal	-9.1476
▁speed	-9.14786
z	-9.14877
▁section	-9.14879
▁instead	-9.15052
▁reported	-9.15075
▁dogs	-9.15125
▁rather	-9.15166
▁pregnancy	-9.15176
▁device	-9.15446
▁strong	-9.15589
▁built	-9.1582
▁personal	-9.15965
year	-9.16122
▁pounds	-9.16244
▁stay	-9.16315
▁tests	-9.16389
st	-9.16597
▁german	-9.16928
▁try	-9.17046
▁allows	-9.17057
▁fresh	-9.17166
▁western	-9.17238
▁offer	-9.17327
ism	-9.17377
▁examples	-9.17419
▁science	-9.17552
▁late	-9.17624
▁upon	-9.17651
▁hormones	-9.17671
▁ways	-9.17744
▁spinal	-9.18014
▁texas	-9.18032
te	-9.18335
of	-9.18459
▁organic	-9.18699
ton	-9.18813
▁21	-9.18888
▁‘	-9.18899
▁nutrients	-9.19093
▁ability	-9.1918
▁response	-9.19193
▁serious	-9.19193
▁beef	-9.19276
▁stone	-9.19381
▁requirements	-9.19497
▁plus	-9.19585
▁access	-9.19593
▁front	-9.19658
▁cup	-9.19902
▁widely	-9.19986
▁injury	-9.20078
▁developed	-9.20098
▁drugs	-9.20198
▁older	-9.20669
▁never	-9.2077
▁extra	-9.20817
ia	-9.20976
▁safe	-9.21017
▁written	-9.21146
▁music	-9.2117
▁design	-9.21282
▁again	-9.21309
▁bank	-9.21422
▁necessary	-9.21475
▁v	-9.21676
▁beans	-9.21684
▁shows	-9.21742
▁phone	-9.21784
▁diabetes	-9.21812
▁double	-9.21914
▁am	-9.21916
ness	-9.21917
▁night	-9.21946
▁solution	-9.22081
▁rights	-9.22134
▁transfer	-9.22385
▁expensive	-9.22478
▁appear	-9.22498
▁eating	-9.22517
▁dioxide	-9.22619
▁warm	-9.22675
▁processes	-9.22743
▁install	-9.2275
▁nucleus	-9.22863
▁action	-9.23013
▁rocks	-9.23098
▁clear	-9.23124
▁2015	-9.23163
▁mineral	-9.23245
▁neck	-9.23273
▁became	-9.23309
▁element	-9.23378
▁sound	-9.23378
▁soft	-9.23453
▁electrical	-9.2353
▁amino	-9.23547
▁root	-9.2357
▁organization	-9.23571
▁programs	-9.2358
▁motor	-9.23687
▁records	-9.23724
▁content	-9.2374
▁member	-9.23754
▁china	-9.23782
▁reach	-9.23915
▁chronic	-9.23923
▁thus	-9.23976
▁begin	-9.2412
▁ira	-9.24131
▁multiple	-9.24225
▁19	-9.24246
▁symbol	-9.24372
▁windows	-9.24382
▁sodium	-9.24467
▁matter	-9.24485
▁getting	-9.2449
▁organism	-9.24505
▁search	-9.24527
▁cat	-9.24597
▁community	-9.24599
▁practice	-9.24761
▁tuition	-9.24784
▁growing	-9.24976
▁floor	-9.25032
▁nursing	-9.25295
▁$3	-9.25333
▁equal	-9.25341
▁disorders	-9.25385
▁rich	-9.25517
▁asia	-9.25694
▁art	-9.25717
▁fast	-9.25777
▁dark	-9.25893
▁brand	-9.25907
▁paper	-9.25918
▁covered	-9.25974
▁expected	-9.26024
▁medication	-9.26072
▁leave	-9.26152
▁recommended	-9.26153
▁san	-9.26307
▁amounts	-9.26308
▁requires	-9.26428
▁substances	-9.2653
▁carbohydrates	-9.26558
▁score	-9.26596
▁pound	-9.26737
▁fall	-9.26826
▁properties	-9.26833
▁force	-9.26887
▁compared	-9.27007
▁units	-9.27226
▁$100	-9.27401
ch	-9.27537
▁board	-9.2764
▁primarily	-9.27867
▁anti	-9.27901
▁town	-9.27935
▁islands	-9.28105
also	-9.28134
▁coast	-9.28218
▁article	-9.28228
▁figure	-9.28228
▁buy	-9.28231
▁true	-9.28298
▁thing	-9.28358
▁private	-9.28461
▁past	-9.28547
ma	-9.28673
no	-9.28699
▁him	-9.28835
▁combination	-9.28835
▁designed	-9.28878
▁effective	-9.28903
▁slightly	-9.29128
▁released	-9.29362
▁book	-9.29621
▁arthritis	-9.29641
▁web	-9.29672
j	-9.2968
▁limited	-9.29766
▁star	-9.2985
▁website	-9.29854
▁minute	-9.30088
▁distance	-9.30129
▁2012	-9.30147
▁cord	-9.30178
▁sub	-9.30189
▁break	-9.30195
▁involved	-9.30202
▁arteries	-9.30334
ca	-9.30365
▁potential	-9.30374
▁unique	-9.30569
▁statistics	-9.30785
▁pass	-9.30983
▁compound	-9.3103
▁ft	-9.31056
▁john	-9.31241
▁model	-9.31319
▁question	-9.31432
▁bacterial	-9.31485
▁culture	-9.3175
▁lowest	-9.31758
▁hold	-9.31883
▁divided	-9.31926
▁limit	-9.32158
▁°	-9.32161
▁net	-9.32189
▁climate	-9.32231
▁july	-9.32265
ta	-9.32397
▁map	-9.32398
▁dental	-9.32423
▁individuals	-9.32428
▁entire	-9.325
▁interest	-9.32546
▁mountain	-9.3262
▁highly	-9.3273
7	-9.32775
▁taste	-9.32782
▁organ	-9.32843
▁supply	-9.32926
▁hydrogen	-9.32965
▁video	-9.32986
▁vitamins	-9.32986
▁$50	-9.33
▁seed	-9.33025
▁eyes	-9.33118
▁build	-9.33155
▁vehicle	-9.33189
▁please	-9.33253
–	-9.33424
▁british	-9.33476
▁greater	-9.33519
▁intestine	-9.33603
▁$10	-9.33668
▁balance	-9.33947
▁features	-9.33998
]	-9.34033
▁refrigerator	-9.34055
▁procedure	-9.3413
▁tell	-9.34141
▁mainly	-9.34223
▁image	-9.34242
▁cheese	-9.34289
▁$5	-9.34598
▁perform	-9.34661
▁plate	-9.34771
▁department	-9.34855
ity	-9.34943
um	-9.34967
▁summer	-9.35054
▁digestive	-9.35171
day	-9.35176
▁bring	-9.35308
▁mind	-9.35341
▁fuel	-9.35395
▁bad	-9.35425
▁visit	-9.35489
▁bond	-9.35499
▁game	-9.35513
▁cm	-9.35544
▁listed	-9.35579
▁capital	-9.3568
▁portion	-9.35698
▁0	-9.35782
▁estimated	-9.3581
▁lymph	-9.35831
▁nature	-9.35846
▁gives	-9.3589
based	-9.35904
▁compounds	-9.35996
▁sales	-9.36236
▁career	-9.36266
▁software	-9.36272
di	-9.36305
▁purpose	-9.36326
▁germany	-9.36374
▁january	-9.36518
▁included	-9.36542
▁nearly	-9.36611
▁version	-9.36637
▁mixture	-9.36656
▁signs	-9.36807
▁respiratory	-9.36833
▁airport	-9.36852
▁follow	-9.36863
▁already	-9.36985
▁seven	-9.37065
▁face	-9.37134
▁love	-9.37147
▁reason	-9.37287
▁naturally	-9.37295
▁teeth	-9.37439
▁sweet	-9.37447
▁april	-9.37458
▁box	-9.37648
▁structures	-9.37674
▁solid	-9.37692
▁sense	-9.37715
▁1/2	-9.37754
▁thin	-9.38046
▁exercise	-9.38076
▁license	-9.38179
▁enzyme	-9.3826
▁butter	-9.38267
▁produces	-9.38367
▁thick	-9.38633
▁drive	-9.38665
▁abuse	-9.38683
▁bachelor	-9.38707
▁basis	-9.38821
▁looking	-9.38831
▁commercial	-9.38847
▁quickly	-9.38922
▁mexico	-9.3895
▁shown	-9.39246
▁october	-9.39273
▁mostly	-9.39315
▁via	-9.39457
▁mid	-9.39513
0	-9.39541
▁object	-9.39574
▁factor	-9.39626
▁record	-9.39684
for	-9.39741
▁chain	-9.3982
▁release	-9.39967
▁quite	-9.40236
▁45	-9.4043
▁park	-9.4045
▁corn	-9.40466
▁civil	-9.40503
▁indian	-9.40545
▁self	-9.40668
▁mi	-9.40746
▁eastern	-9.40784
▁construction	-9.40819
▁affects	-9.40889
▁thought	-9.40988
la	-9.41
▁france	-9.41048
▁refer	-9.41071
ation	-9.41171
▁90	-9.41198
▁gold	-9.41362
▁save	-9.41437
▁genes	-9.41442
▁volume	-9.41545
▁employee	-9.41559
▁solar	-9.41579
▁title	-9.41726
▁viruses	-9.41743
▁increases	-9.41771
▁kingdom	-9.41777
▁association	-9.41898
▁flat	-9.41993
▁baking	-9.42046
▁hepatitis	-9.42116
▁further	-9.42167
▁agent	-9.42193
▁clean	-9.42233
▁rice	-9.42283
ist	-9.42315
▁worth	-9.42331
▁bake	-9.42354
▁style	-9.42356
▁famous	-9.42421
▁says	-9.42467
▁separate	-9.42563
one	-9.42744
▁causing	-9.42761
▁nerves	-9.42767
▁won	-9.42825
▁completely	-9.42901
▁stored	-9.42917
://	-9.42984
▁subject	-9.43029
▁ear	-9.43046
▁exchange	-9.43065
▁atoms	-9.43156
▁wild	-9.43282
▁currently	-9.43297
▁party	-9.43335
ion	-9.43563
▁england	-9.43576
▁guide	-9.43696
▁technology	-9.43698
▁monthly	-9.43731
▁overall	-9.43777
▁spanish	-9.43861
▁la	-9.43872
▁vaccine	-9.43903
▁joints	-9.43912
▁enzymes	-9.43912
▁containing	-9.43977
▁points	-9.43987
ar	-9.43988
▁fire	-9.44007
▁options	-9.44026
▁option	-9.44077
▁bill	-9.44104
▁smooth	-9.44158
▁payment	-9.44275
▁pepper	-9.44341
▁policy	-9.44364
▁characterized	-9.4439
▁flowers	-9.444
▁bar	-9.44414
▁team	-9.44472
▁theory	-9.44515
▁numbers	-9.44582
▁turkey	-9.44664
ry	-9.44724
▁offers	-9.44786
de	-9.4484
▁al	-9.44866
▁began	-9.44902
▁genus	-9.44941
▁loan	-9.4495
▁provided	-9.44958
rs	-9.45089
▁bit	-9.45142
▁regions	-9.45144
▁majority	-9.45219
ine	-9.45255
▁currency	-9.45317
▁mix	-9.45354
▁employees	-9.45664
▁june	-9.45753
▁significant	-9.45905
▁song	-9.45907
▁address	-9.46073
▁moving	-9.46105
▁formula	-9.46105
▁sleep	-9.46122
▁80	-9.46162
▁dollars	-9.46204
▁70	-9.46369
▁drink	-9.46427
▁stop	-9.46511
▁registered	-9.46589
▁mother	-9.46718
▁purchase	-9.46749
▁god	-9.46776
▁glass	-9.4686
▁st	-9.46919
see	-9.46958
▁florida	-9.46967
▁spend	-9.47056
▁relatively	-9.47215
▁describe	-9.4733
▁w	-9.47341
▁union	-9.47351
▁repair	-9.47449
▁chest	-9.47458
▁woman	-9.47502
▁characteristics	-9.47514
ie	-9.47686
▁king	-9.47734
▁fruits	-9.47754
▁raw	-9.47829
▁activities	-9.48201
el	-9.48356
▁winter	-9.48393
▁congress	-9.48393
▁kidneys	-9.48468
▁atmosphere	-9.48492
term	-9.48518
▁applied	-9.48536
at	-9.48662
▁ice	-9.48687
▁photo	-9.48787
):	-9.48918
▁link	-9.48923
▁leg	-9.49048
▁throat	-9.49093
▁came	-9.49106
▁avoid	-9.49114
▁popularity	-9.49272
▁beginning	-9.49371
▁pool	-9.49411
▁student	-9.49415
▁protect	-9.49446
▁originally	-9.49569
▁sold	-9.49683
▁ten	-9.49697
▁walls	-9.49856
▁clinical	-9.49895
▁scale	-9.49948
ian	-9.49964
▁surname	-9.49973
▁manager	-9.50023
▁consider	-9.50039
▁idea	-9.50062
▁ever	-9.50304
▁infected	-9.50324
ling	-9.50411
▁negative	-9.50428
▁goes	-9.50472
▁begins	-9.50494
▁positive	-9.50579
▁fahrenheit	-9.50728
▁tall	-9.50772
▁potassium	-9.50881
▁recent	-9.50968
▁$20	-9.51077
▁window	-9.51154
▁crust	-9.51234
▁official	-9.51309
ne	-9.5132
▁difficult	-9.51521
▁film	-9.51538
▁billion	-9.51687
▁colors	-9.51716
▁stage	-9.51763
if	-9.5184
▁tend	-9.51959
▁lake	-9.52031
▁ph	-9.52067
▁cavity	-9.52155
▁actual	-9.52251
▁spring	-9.52279
▁mild	-9.52347
▁sauce	-9.5242
▁illness	-9.52572
▁pet	-9.52577
▁wind	-9.52658
▁j	-9.52668
▁fungi	-9.52798
▁35	-9.52823
ate	-9.52937
▁planet	-9.53094
▁outer	-9.53107
▁ingredients	-9.53213
▁waste	-9.53219
▁fibers	-9.53231
+	-9.53408
▁particularly	-9.53552
▁workers	-9.53727
▁understand	-9.53799
▁girl	-9.53819
▁(1	-9.54138
▁started	-9.54175
▁zip	-9.54263
▁artery	-9.54276
▁horse	-9.54355
▁lines	-9.54447
▁master	-9.5456
▁presence	-9.54583
▁pro	-9.54607
▁languages	-9.54633
▁tropical	-9.5465
▁continue	-9.54653
▁received	-9.54706
▁plastic	-9.54818
▁2014	-9.5493
▁march	-9.55076
▁hospital	-9.55226
▁tea	-9.55226
▁prior	-9.55228
▁200	-9.55279
▁involves	-9.55281
▁roughly	-9.55312
▁inner	-9.55396
▁electricity	-9.55634
▁replacement	-9.55657
▁expenses	-9.55687
am	-9.55729
▁images	-9.55879
▁protection	-9.55932
▁equipment	-9.56054
▁bonds	-9.56065
▁http	-9.56079
▁affected	-9.56159
▁survey	-9.56169
▁foreign	-9.56301
▁schools	-9.56317
▁testing	-9.56519
▁running	-9.56605
▁maintain	-9.5667
▁slow	-9.56845
▁internet	-9.56845
▁28	-9.56869
▁flavor	-9.56933
▁wine	-9.56943
▁electric	-9.56947
▁storage	-9.56987
▁european	-9.56997
▁zone	-9.57089
me	-9.57139
▁$30	-9.57203
▁text	-9.57318
▁strength	-9.57342
▁bureau	-9.57351
▁eight	-9.57364
▁rise	-9.57373
▁swelling	-9.57384
▁august	-9.57413
▁neurons	-9.57539
▁port	-9.57708
▁parents	-9.57762
▁potatoes	-9.57779
▁$4	-9.5784
▁places	-9.57905
▁description	-9.57905
▁$15	-9.57951
_	-9.58022
▁final	-9.58047
▁italian	-9.58317
▁reactions	-9.58338
▁stock	-9.58397
▁feed	-9.58704
▁sand	-9.58712
▁medications	-9.58835
▁oldest	-9.5886
▁layers	-9.59017
▁cool	-9.59079
▁september	-9.59085
▁depend	-9.5911
▁grill	-9.59167
▁legs	-9.59188
▁studies	-9.59412
10	-9.59414
▁fine	-9.59467
▁dish	-9.59653
▁serve	-9.59666
▁analysis	-9.5969
age	-9.59981
less	-9.60134
▁500	-9.60354
▁african	-9.60363
▁established	-9.60368
▁status	-9.60413
▁percentage	-9.60544
▁stress	-9.60614
▁juice	-9.60633
▁installed	-9.60738
▁values	-9.60748
▁component	-9.60775
▁reference	-9.60889
▁behind	-9.61035
▁steps	-9.61185
▁whose	-9.61277
▁girls	-9.61314
▁transport	-9.61456
▁knee	-9.61466
▁claim	-9.61534
▁cross	-9.61535
▁uk	-9.61587
▁washington	-9.61742
▁performance	-9.61836
dl	-9.62049
▁document	-9.6218
▁behavior	-9.62264
▁frequency	-9.62308
▁radiation	-9.6232
ment	-9.62336
▁described	-9.62361
▁benefit	-9.62386
▁assistant	-9.62411
▁piece	-9.62441
▁estate	-9.62544
▁host	-9.62559
▁mountains	-9.62609
▁lung	-9.62626
▁performed	-9.62749
▁branch	-9.62876
▁frequently	-9.62992
▁fatty	-9.63027
▁powder	-9.63095
by	-9.6312
▁anything	-9.63218
▁nose	-9.63323
▁sex	-9.63341
▁components	-9.63417
▁items	-9.63466
▁properly	-9.6349
12	-9.63552
▁constitution	-9.63567
▁desert	-9.63589
▁father	-9.63605
do	-9.63751
▁serving	-9.63822
▁rule	-9.63827
▁mail	-9.63835
▁future	-9.63892
ro	-9.63892
▁passed	-9.64094
▁distribution	-9.64137
▁ask	-9.64206
▁leading	-9.64239
▁passport	-9.64249
▁starts	-9.64289
▁email	-9.64292
▁screen	-9.64299
▁attached	-9.64303
▁rain	-9.64308
▁press	-9.6435
▁bay	-9.64361
▁respiration	-9.64426
▁count	-9.64565
▁valve	-9.64598
▁cities	-9.64622
▁lack	-9.64641
▁held	-9.64648
▁society	-9.64752
▁appearance	-9.64753
▁pacific	-9.64773
os	-9.64797
▁improve	-9.6484
▁flower	-9.64886
▁london	-9.64929
.00	-9.64962
pa	-9.64995
▁certified	-9.65063
▁veins	-9.6513
▁yet	-9.65167
▁band	-9.65277
▁flu	-9.65415
▁connective	-9.65419
▁got	-9.6544
▁formation	-9.6546
such	-9.65493
▁took	-9.65531
▁cellular	-9.65803
ized	-9.65904
▁irish	-9.65929
ol	-9.65948
▁*	-9.66043
▁chinese	-9.665
▁becomes	-9.66592
▁details	-9.66843
▁road	-9.66883
▁heavy	-9.66898
▁bread	-9.66919
▁taxes	-9.66934
▁safety	-9.6705
▁spine	-9.67127
▁birds	-9.67154
▁attack	-9.67233
ous	-9.6727
▁roth	-9.67276
▁story	-9.67317
▁republic	-9.67342
▁bladder	-9.67431
da	-9.675
▁2010	-9.67538
▁magnesium	-9.67703
▁inch	-9.67721
▁trade	-9.68124
▁cash	-9.6833
▁bowl	-9.68343
▁paint	-9.68418
▁viral	-9.6842
▁italy	-9.68448
▁proper	-9.68528
▁roof	-9.68675
▁core	-9.68797
▁believe	-9.68802
▁meet	-9.68944
▁classified	-9.68962
▁roots	-9.69064
▁chart	-9.6912
▁character	-9.69239
▁specifically	-9.69261
▁y	-9.69294
▁depression	-9.69355
▁acute	-9.69388
▁arm	-9.6948
▁measured	-9.69521
▁abnormal	-9.69543
▁$25	-9.69613
▁urinary	-9.69726
▁fats	-9.69771
▁remember	-9.698
▁son	-9.69896
▁machine	-9.70024
▁insulin	-9.70062
▁grains	-9.70152
▁broken	-9.7018
▁excess	-9.70189
be	-9.70233
▁steel	-9.7027
▁round	-9.703
▁applications	-9.70307
▁knowledge	-9.70339
▁button	-9.70426
▁ring	-9.70574
▁copper	-9.70627
▁tooth	-9.70794
▁wedding	-9.70943
].	-9.70987
▁december	-9.71017
▁ca	-9.71073
▁paying	-9.71242
▁gets	-9.71371
▁votes	-9.71471
▁oral	-9.71531
▁direction	-9.71555
▁fully	-9.71785
▁resources	-9.71844
▁door	-9.71886
▁$500	-9.71941
▁engineering	-9.7203
▁garden	-9.72033
▁japan	-9.72105
▁steak	-9.72161
▁sheet	-9.7218
▁alone	-9.7219
▁choice	-9.72254
▁event	-9.72274
▁$200	-9.72384
▁budget	-9.724
▁entry	-9.72434
▁doing	-9.72696
▁nuclear	-9.727
▁·	-9.72784
▁dr	-9.72867
▁diameter	-9.7289
▁connect	-9.72929
▁copy	-9.72929
which	-9.72953
▁2013	-9.72962
▁rules	-9.73006
▁engine	-9.73084
▁mark	-9.73134
▁breed	-9.73174
▁appears	-9.7318
▁replace	-9.73192
▁initial	-9.73255
▁chemicals	-9.73302
▁followed	-9.73658
▁extremely	-9.73664
▁customer	-9.73732
▁letter	-9.73815
▁fixed	-9.73892
▁executive	-9.73896
▁block	-9.74072
tic	-9.74101
▁resulting	-9.74171
ˈ	-9.74204
▁user	-9.74275
▁laws	-9.74286
▁65	-9.74414
▁boys	-9.74449
▁unlike	-9.7447
▁division	-9.74579
▁annually	-9.74585
▁processing	-9.74752
▁writing	-9.74797
▁political	-9.74883
▁ratio	-9.7494
▁removed	-9.75063
▁10%	-9.7517
▁charges	-9.75583
▁employer	-9.75654
il	-9.75769
ex	-9.75825
▁existing	-9.7588
▁recorded	-9.75882
line	-9.75968
▁yourself	-9.75998
▁motion	-9.76023
▁bag	-9.76092
▁moon	-9.76239
▁sides	-9.76263
id	-9.76294
▁forest	-9.76315
foot	-9.76352
▁wave	-9.76376
son	-9.76495
▁station	-9.76578
▁22	-9.76605
40	-9.76609
▁50%	-9.76678
▁ready	-9.76729
▁abdominal	-9.76789
▁grass	-9.76853
▁files	-9.76856
▁kitchen	-9.76858
ally	-9.76883
30	-9.76984
▁pot	-9.77049
▁placed	-9.77057
▁equivalent	-9.77083
▁meal	-9.77115
▁stores	-9.77171
▁combined	-9.77177
▁breast	-9.77181
ley	-9.77196
▁driving	-9.77233
▁overview	-9.77262
li	-9.77274
▁measures	-9.77383
▁reasons	-9.77408
▁freezer	-9.77469
▁vision	-9.7753
▁sample	-9.77567
▁acts	-9.77638
▁hemoglobin	-9.77662
▁skills	-9.77666
▁exposure	-9.77787
▁grown	-9.77871
▁evidence	-9.7791
▁associate	-9.78028
mo	-9.78048
▁concentration	-9.78114
▁sequence	-9.78238
....	-9.78345
▁relative	-9.78367
ba	-9.78377
▁pink	-9.78388
▁global	-9.78565
▁battery	-9.78609
▁purposes	-9.78671
▁skeletal	-9.78731
▁themselves	-9.78741
▁bodies	-9.78764
▁impact	-9.78803
▁drop	-9.78805
▁send	-9.78881
▁na	-9.78891
▁salmon	-9.78902
▁covers	-9.79068
▁flour	-9.79132
▁adding	-9.7915
▁military	-9.79237
▁chromosomes	-9.79283
▁isn	-9.7938
▁300	-9.7939
per	-9.79542
▁variable	-9.79613
▁amendment	-9.79616
state	-9.79652
▁administration	-9.79679
▁introduction	-9.7968
▁waves	-9.79728
▁aid	-9.79797
▁independent	-9.7986
▁ensure	-9.79866
▁pieces	-9.79939
▁scientific	-9.79963
▁celsius	-9.80071
▁boy	-9.80243
▁garlic	-9.8026
shaped	-9.80277
con	-9.80321
▁external	-9.80605
▁couple	-9.80636
▁gain	-9.80642
▁tube	-9.80678
▁methods	-9.80743
▁runs	-9.80761
▁anxiety	-9.80768
▁digestion	-9.8083
▁biological	-9.80877
▁diarrhea	-9.80879
▁ages	-9.81063
▁mental	-9.81079
▁ii	-9.81138
▁shoulder	-9.81228
▁agreement	-9.81349
▁lives	-9.81365
▁remain	-9.81498
▁correct	-9.81503
▁calculate	-9.81583
▁mortgage	-9.81585
go	-9.81602
▁charged	-9.81603
▁pregnant	-9.81626
▁nation	-9.81662
▁cleaning	-9.81697
▁hands	-9.81791
▁pure	-9.81796
▁connected	-9.81799
▁november	-9.81799
▁edit	-9.81851
▁served	-9.81898
▁economic	-9.81995
▁intake	-9.82021
▁cats	-9.82059
▁di	-9.82146
ter	-9.8216
▁rash	-9.82162
▁represents	-9.82236
▁sell	-9.82261
▁apple	-9.82342
▁yeast	-9.82416
▁facts	-9.82418
et	-9.82628
▁reports	-9.8263
▁families	-9.82672
▁heating	-9.82685
▁flag	-9.82692
▁usa	-9.82805
▁tv	-9.8286
▁whereas	-9.82961
▁setting	-9.83054
▁deficiency	-9.83091
▁confidence	-9.83131
▁remains	-9.83227
▁treated	-9.83232
▁ham	-9.83353
▁tool	-9.83367
▁unless	-9.834
▁super	-9.83466
▁chromosome	-9.8355
▁everything	-9.83731
mm	-9.83781
▁lay	-9.83922
▁pancreas	-9.83926
▁roman	-9.84059
▁bird	-9.84067
land	-9.84127
▁reduced	-9.84156
▁$8	-9.84179
▁notice	-9.84215
▁atom	-9.84255
▁flight	-9.84266
▁surrounding	-9.84277
▁instance	-9.8428
▁failure	-9.84318
lo	-9.84323
▁phosphate	-9.84426
▁rating	-9.84451
▁menu	-9.84584
ka	-9.84611
▁kids	-9.84677
▁pronounced	-9.84733
▁particles	-9.84784
www	-9.84792
▁boil	-9.84811
▁rose	-9.84824
▁apart	-9.84893
*	-9.84952
▁founded	-9.8496
free	-9.84999
▁previous	-9.85034
▁meters	-9.85123
▁bile	-9.85184
▁dictionary	-9.85195
▁identify	-9.85219
▁beta	-9.85259
ite	-9.85291
▁marine	-9.85351
▁tiny	-9.85474
▁goods	-9.8551
va	-9.85554
▁bathroom	-9.85566
po	-9.85654
▁differences	-9.85724
▁parent	-9.85766
ga	-9.85801
▁tender	-9.85806
▁earnings	-9.85897
▁determined	-9.85957
▁calculator	-9.86072
ies	-9.86075
▁ideal	-9.86084
▁stem	-9.86089
▁metabolism	-9.86203
▁instructions	-9.86295
▁23	-9.86296
▁physician	-9.86308
▁beautiful	-9.86381
▁perfect	-9.86412
▁opening	-9.8645
▁focus	-9.86493
▁discovered	-9.86564
▁learning	-9.86596
▁nitrogen	-9.86637
▁february	-9.86647
▁pattern	-9.86648
▁tips	-9.8665
▁relationship	-9.86665
▁feature	-9.86726
▁indicate	-9.86742
▁japanese	-9.86753
▁mixed	-9.86761
00	-9.8679
▁category	-9.86889
▁kept	-9.86975
▁$1,000	-9.8702
se	-9.87053
▁plasma	-9.87055
ft	-9.87077
▁spain	-9.87092
▁carries	-9.87111
▁twice	-9.87151
▁orange	-9.87152
nd	-9.87222
▁introduced	-9.87316
not	-9.87388
▁player	-9.87469
ge	-9.8758
▁census	-9.8758
▁reading	-9.87659
▁multi	-9.87665
▁2011	-9.87762
▁minor	-9.87801
▁2000	-9.87922
▁review	-9.88164
▁kinds	-9.88241
ri	-9.88268
sa	-9.88435
▁thermometer	-9.88471
▁hebrew	-9.88551
▁fit	-9.88642
▁thousands	-9.88676
▁media	-9.88823
▁75	-9.88859
▁convert	-9.88871
▁$40	-9.88895
▁retirement	-9.88939
▁changed	-9.88953
▁coat	-9.88956
▁150	-9.88979
▁dead	-9.8898
▁wear	-9.88985
▁wages	-9.89085
▁breathing	-9.89107
▁employment	-9.89166
▁dairy	-9.89178
▁producing	-9.89202
▁lost	-9.89343
ad	-9.8943
▁mechanical	-9.89431
▁plays	-9.89451
▁gram	-9.89467
▁collection	-9.89525
▁$6	-9.89546
▁cream	-9.89564
q	-9.89584
▁1000	-9.89605
▁en	-9.89649
▁firm	-9.89672
▁$300	-9.89678
▁shell	-9.89686
▁australian	-9.89706
ur	-9.89742
▁females	-9.89769
▁psychology	-9.89795
▁immediately	-9.8993
▁package	-9.89985
▁looks	-9.89986
▁mm	-9.90057
▁con	-9.90058
▁grade	-9.90114
▁marketing	-9.90115
20	-9.90174
▁periods	-9.9022
▁soon	-9.90472
▁lining	-9.90473
▁cortex	-9.90718
▁ka	-9.90723
▁removal	-9.90728
▁tile	-9.90817
▁operating	-9.90823
▁devices	-9.90895
▁120	-9.90923
▁settings	-9.90965
▁$150	-9.90975
▁compare	-9.91005
▁driver	-9.91015
▁message	-9.91027
▁issues	-9.91067
▁micro	-9.91069
▁distinct	-9.91094
▁published	-9.91171
▁worked	-9.91185
▁driveway	-9.91195
▁memory	-9.91226
ti	-9.91262
from	-9.91277
▁falls	-9.91345
▁hip	-9.91353
▁atp	-9.91375
▁silver	-9.91477
▁bridge	-9.91536
▁males	-9.91625
▁mobile	-9.91625
▁virginia	-9.91777
▁questions	-9.91779
▁greatly	-9.91784
▁nodes	-9.91809
▁district	-9.91889
▁becoming	-9.91903
▁events	-9.91966
▁customers	-9.9199
▁exactly	-9.9202
▁varieties	-9.92086
▁maintenance	-9.92232
▁mammals	-9.92273
▁dietary	-9.92285
▁technician	-9.92367
▁faster	-9.92387
▁semi	-9.92431
▁golden	-9.92434
▁database	-9.92496
▁lose	-9.92589
▁vegetable	-9.92672
▁electrons	-9.92865
ty	-9.92891
▁frozen	-9.92904
▁approved	-9.92932
▁homes	-9.92935
▁pair	-9.9297
▁providing	-9.93204
ni	-9.93232
▁grows	-9.93232
▁fill	-9.93254
▁secondary	-9.93335
▁babies	-9.93393
▁except	-9.93459
▁broad	-9.93523
▁alternative	-9.93575
▁inter	-9.9363
▁coverage	-9.93711
▁tongue	-9.93796
▁domestic	-9.93797
▁exam	-9.93824
▁compensation	-9.93876
▁$7	-9.93897
▁tip	-9.93931
▁doctors	-9.9399
▁quick	-9.94019
ive	-9.9403
▁understanding	-9.9415
▁wheat	-9.94205
▁deal	-9.94257
▁household	-9.94344
▁app	-9.94498
▁phase	-9.94588
▁battle	-9.9464
▁google	-9.94661
▁decrease	-9.94669
▁cartilage	-9.94724
▁obtain	-9.94897
▁spoken	-9.949
ant	-9.94912
▁container	-9.94957
▁environmental	-9.94979
▁tools	-9.94995
▁powerful	-9.95226
▁plans	-9.95251
▁sale	-9.95261
▁tri	-9.95282
▁antibodies	-9.95324
▁accounts	-9.95334
▁starch	-9.95363
▁onto	-9.95505
▁bleeding	-9.95577
▁contagious	-9.95597
▁coffee	-9.95754
▁bio	-9.95776
▁agency	-9.95785
▁ranging	-9.95836
▁constant	-9.95846
▁hatch	-9.95846
▁picture	-9.95864
▁vote	-9.95872
▁describes	-9.96045
▁prescription	-9.96109
un	-9.96144
▁contribute	-9.96201
▁cardiac	-9.96209
▁facebook	-9.96216
▁foundation	-9.96229
▁industrial	-9.96268
▁occurring	-9.96276
▁happens	-9.96292
▁stands	-9.96304
▁talk	-9.96325
▁planning	-9.96339
▁specialized	-9.9637
▁influence	-9.96395
▁target	-9.96426
▁preheat	-9.96465
▁certification	-9.96564
ac	-9.96577
▁diagnosis	-9.96665
▁accounting	-9.9667
▁expression	-9.96702
▁wait	-9.9673
▁stand	-9.96805
80	-9.96906
▁olive	-9.97025
▁radio	-9.97043
▁26	-9.97052
▁biology	-9.97111
▁supplement	-9.97166
▁lies	-9.97175
▁pulmonary	-9.97195
▁density	-9.97319
▁algae	-9.97325
im	-9.97399
▁dis	-9.97451
▁owner	-9.97502
▁medicare	-9.97564
▁william	-9.97694
▁grain	-9.9777
▁corporation	-9.97773
▁colon	-9.97789
▁sensory	-9.97964
▁walk	-9.98014
▁z	-9.98164
▁investment	-9.98182
▁print	-9.98184
▁background	-9.98187
est	-9.98376
▁appropriate	-9.98391
▁recommend	-9.98431
▁sq	-9.98454
▁functional	-9.98486
▁irs	-9.98486
▁continental	-9.98557
▁permanent	-9.98631
▁forming	-9.98754
▁numerous	-9.98795
▁players	-9.98804
▁developing	-9.98811
▁giving	-9.98962
▁receptors	-9.9911
▁led	-9.99117
si	-9.99223
ting	-9.99233
▁earlier	-9.9925
▁gross	-9.99473
▁cough	-9.99548
▁phrase	-9.99564
▁sports	-9.99576
▁poor	-9.99581
▁composition	-9.99734
▁contrast	-9.99745
▁synthesis	-9.99779
▁dried	-9.99797
▁gases	-9.99803
▁fabric	-9.99805
▁prepared	-9.9986
▁sit	-9.99957
▁characteristic	-10.0003
▁consisting	-10.0004
▁feeling	-10.0009
▁concept	-10.0017
▁incubation	-10.0022
▁increasing	-10.0027
▁panel	-10.003
▁americans	-10.0035
den	-10.0046
▁leaf	-10.0047
▁officer	-10.005
▁cents	-10.0061
▁provider	-10.0061
▁issue	-10.0062
▁foil	-10.0072
▁touch	-10.0076
▁anterior	-10.0085
old	-10.0094
▁symptom	-10.0096
▁believed	-10.0096
he	-10.0102
▁transmission	-10.0125
▁write	-10.0126
$	-10.0135
▁nuts	-10.0137
▁yearly	-10.0147
▁delivery	-10.0152
pe	-10.0153
▁james	-10.0165
▁staff	-10.017
▁valley	-10.018
▁index	-10.0182
▁border	-10.0186
▁finish	-10.0189
▁allowed	-10.0198
▁mo	-10.0213
▁manufacturing	-10.0217
▁aluminum	-10.0223
▁soluble	-10.0225
▁scientists	-10.0244
▁resting	-10.0246
▁ribs	-10.0247
out	-10.0254
ha	-10.0262
▁trans	-10.0295
▁summary	-10.0299
▁opposite	-10.0302
▁treaty	-10.0303
▁represent	-10.0304
▁painful	-10.0308
▁estimates	-10.0318
▁ions	-10.0321
▁cytoplasm	-10.0325
▁advanced	-10.0326
▁arms	-10.033
▁recently	-10.0339
▁easier	-10.034
▁trust	-10.034
▁adjective	-10.0343
▁sent	-10.0343
▁autoimmune	-10.0343
▁stones	-10.0344
▁beach	-10.0348
▁users	-10.035
▁classes	-10.0351
ish	-10.0354
▁auto	-10.0363
▁photosynthesis	-10.0367
▁kg	-10.0372
▁drinking	-10.0374
my	-10.0381
▁hit	-10.0391
▁attention	-10.0397
▁dominant	-10.0405
men	-10.0407
▁(2	-10.0416
▁plates	-10.0421
▁completed	-10.0425
▁remaining	-10.0428
▁variant	-10.0431
▁exact	-10.0433
▁calculated	-10.0436
▁contraction	-10.0436
ce	-10.044
▁48	-10.045
▁tab	-10.0455
▁league	-10.0459
▁ireland	-10.0461
▁visible	-10.0463
▁chief	-10.0466
▁column	-10.0471
▁letters	-10.0475
▁controlled	-10.048
▁el	-10.0485
▁ex	-10.0486
▁agents	-10.0491
▁purchased	-10.0492
▁lamb	-10.0492
▁eventually	-10.0496
▁verb	-10.0497
ci	-10.0497
▁toxic	-10.0508
▁nutrition	-10.051
▁speech	-10.0511
▁ingredient	-10.0513
▁pump	-10.0514
▁died	-10.0516
▁nothing	-10.0517
▁muscular	-10.0519
▁split	-10.052
▁closely	-10.0524
▁nine	-10.0525
▁premium	-10.0532
▁creating	-10.0532
▁mile	-10.0534
▁moisture	-10.0541
▁signal	-10.0543
▁coal	-10.0546
▁licensed	-10.0554
▁2015.	-10.0557
rd	-10.0558
▁excellent	-10.0562
▁pa	-10.0568
▁abdomen	-10.0572
▁consist	-10.0588
▁scan	-10.059
▁street	-10.0594
so	-10.0599
ization	-10.06
ary	-10.0605
▁everyone	-10.0605
▁server	-10.0607
▁recipe	-10.0613
▁usage	-10.0614
▁cap	-10.0619
▁zealand	-10.0623
▁residents	-10.0623
▁infectious	-10.0626
▁hotel	-10.0627
▁capacity	-10.0627
▁item	-10.0638
▁supplements	-10.0638
▁laboratory	-10.0639
▁resistance	-10.0639
▁former	-10.0644
▁invented	-10.0645
▁reaches	-10.0648
▁goal	-10.065
▁contributions	-10.0651
▁metals	-10.0657
15	-10.0664
▁peak	-10.0668
▁32	-10.0669
▁eukaryotic	-10.0675
▁granite	-10.0678
▁limits	-10.068
▁morning	-10.0681
▁linked	-10.0683
▁tail	-10.0684
▁dependent	-10.0693
▁variation	-10.0695
▁anyone	-10.0705
▁fan	-10.072
▁$9	-10.072
▁contribution	-10.0727
▁width	-10.0731
▁canadian	-10.0733
▁vital	-10.0737
▁collagen	-10.0743
▁approach	-10.0744
bi	-10.0747
▁else	-10.075
▁magnetic	-10.0752
▁flows	-10.0759
▁pituitary	-10.0759
▁output	-10.076
▁exist	-10.077
▁engineer	-10.0772
▁beyond	-10.0774
▁ends	-10.0789
▁seconds	-10.079
-1	-10.08
60	-10.0801
▁measurement	-10.0807
▁toward	-10.081
▁situated	-10.0823
▁rent	-10.0828
▁seat	-10.0839
▁transmitted	-10.0853
▁renal	-10.0856
▁communication	-10.0857
▁controls	-10.0857
net	-10.086
▁fridge	-10.0867
▁400	-10.0868
▁forests	-10.0869
▁volcano	-10.0875
▁schedule	-10.089
▁$5,000	-10.09
▁wet	-10.0902
level	-10.0907
▁pc	-10.091
▁garage	-10.0914
▁burn	-10.0916
▁insects	-10.092
▁alaska	-10.0925
▁news	-10.0927
▁technique	-10.0929
▁linear	-10.0931
ja	-10.0933
90	-10.0936
▁retail	-10.0938
▁sexual	-10.0938
▁significantly	-10.0942
ium	-10.0944
▁refund	-10.0955
▁objects	-10.0958
▁antibiotics	-10.0966
▁(19	-10.0969
▁watch	-10.0974
▁chance	-10.0975
▁divide	-10.0979
▁neuron	-10.098
▁standards	-10.0988
▁wire	-10.0989
▁texture	-10.0993
▁supplies	-10.0996
▁contractor	-10.0997
ir	-10.1002
▁va	-10.1005
▁signals	-10.1006
▁played	-10.1009
▁penalty	-10.1012
▁teacher	-10.1013
▁habitat	-10.1013
▁army	-10.1013
this	-10.1014
▁structural	-10.1025
▁george	-10.1031
&	-10.1033
70	-10.104
▁bear	-10.104
▁academic	-10.1044
▁rib	-10.1051
end	-10.1053
▁lab	-10.1058
▁bright	-10.106
▁burning	-10.1064
▁georgia	-10.1067
pro	-10.107
▁ball	-10.1072
16	-10.1079
▁bowel	-10.1079
▁graduate	-10.1082
▁format	-10.1086
▁went	-10.1088
car	-10.1088
▁sites	-10.1089
▁dance	-10.1092
▁36	-10.1093
▁nations	-10.1093
▁cultural	-10.1105
▁forward	-10.1106
▁hope	-10.111
▁humidity	-10.1114
▁microsoft	-10.1117
▁mount	-10.1129
▁receives	-10.113
fi	-10.1132
▁vs	-10.1136
▁superior	-10.114
▁download	-10.1146
▁chloride	-10.1152
▁directions	-10.1154
▁giant	-10.1154
13	-10.1159
▁metabolic	-10.116
▁figures	-10.1161
▁forces	-10.1162
▁sugars	-10.1163
▁straight	-10.1174
▁connection	-10.1175
rich	-10.1176
▁vomiting	-10.1177
▁enjoy	-10.1186
▁dangerous	-10.1188
▁consumption	-10.1191
▁serves	-10.1192
but	-10.1205
ph	-10.1206
▁nausea	-10.1207
▁filing	-10.1218
▁spray	-10.122
▁procedures	-10.122
▁continent	-10.122
▁q	-10.1221
▁signed	-10.1223
▁drain	-10.1226
▁voice	-10.1226
▁rub	-10.1227
▁tumor	-10.1236
▁heal	-10.1241
▁extension	-10.1242
▁moderate	-10.1246
▁membranes	-10.1261
▁books	-10.1263
▁trip	-10.1267
▁prepare	-10.1273
mg	-10.1287
▁dollar	-10.1289
▁combine	-10.1293
▁branches	-10.1294
▁moves	-10.1297
▁operations	-10.1297
▁disc	-10.1306
▁track	-10.1311
▁vinegar	-10.1311
▁biggest	-10.1318
▁lived	-10.132
▁origins	-10.1331
▁processed	-10.1332
▁pairs	-10.1338
);	-10.1341
▁facility	-10.1347
▁advertisement	-10.1348
,000	-10.1354
▁strand	-10.1355
▁deposit	-10.1363
▁roasting	-10.1364
hour	-10.137
▁employed	-10.1371
▁peripheral	-10.1372
▁allergic	-10.1372
▁photos	-10.1373
▁carolina	-10.1374
▁russia	-10.1374
▁colleges	-10.1375
▁canal	-10.138
inch	-10.1388
▁lemon	-10.139
▁27	-10.1394
▁custom	-10.1397
▁weakness	-10.1404
▁offered	-10.1408
▁da	-10.1411
▁gray	-10.1412
▁britain	-10.142
▁friend	-10.1421
▁desired	-10.1423
▁electron	-10.1431
▁replaced	-10.1431
▁critical	-10.1437
▁centre	-10.1439
▁damaged	-10.1447
▁anemia	-10.1456
▁follows	-10.1458
▁th	-10.1463
▁transcription	-10.1465
▁therapist	-10.1467
▁spent	-10.1476
▁recognized	-10.148
▁payments	-10.1481
▁pulse	-10.149
▁exposed	-10.1493
▁originated	-10.1494
▁identified	-10.1494
▁commission	-10.1499
▁race	-10.1506
▁fatigue	-10.1506
▁steam	-10.1509
▁bc	-10.1513
▁(3	-10.1515
▁certificate	-10.1517
ating	-10.1527
▁coming	-10.1529
▁basically	-10.1529
▁collected	-10.1529
▁lava	-10.1532
▁mac	-10.1533
▁digital	-10.1535
▁ship	-10.1537
▁$60	-10.1538
▁otherwise	-10.1545
▁narrow	-10.1545
▁brought	-10.1553
▁cubic	-10.1555
▁bls	-10.1559
▁surgical	-10.1568
ted	-10.1577
▁director	-10.1586
▁professionals	-10.1588
▁bacterium	-10.1593
▁slowly	-10.1595
▁posterior	-10.1599
▁empire	-10.1603
▁spot	-10.1607
▁survive	-10.1607
▁comparison	-10.1616
▁nationwide	-10.162
▁trying	-10.1629
18	-10.1634
em	-10.1637
▁healing	-10.1646
▁zinc	-10.165
yl	-10.1653
▁2013,	-10.1653
▁$12	-10.1654
ə	-10.1673
▁cable	-10.1676
▁harmful	-10.1678
▁visual	-10.1681
▁mature	-10.1682
▁kilometers	-10.1683
▁volcanic	-10.1686
▁eligible	-10.1687
▁locations	-10.1694
called	-10.1696
▁happen	-10.1697
▁honey	-10.1708
▁police	-10.1722
▁carbohydrate	-10.1729
▁economy	-10.1733
▁author	-10.1743
▁territory	-10.1756
ster	-10.1762
▁cast	-10.1765
▁situation	-10.1767
▁iphone	-10.1774
▁fight	-10.178
▁ml	-10.1784
▁beats	-10.1785
▁endocrine	-10.1792
▁nor	-10.1792
▁covering	-10.1796
▁hearing	-10.1796
▁molecular	-10.1798
▁atlantic	-10.1806
▁bases	-10.1806
▁extreme	-10.1809
▁mutation	-10.1814
=	-10.1815
▁closed	-10.1821
▁fence	-10.1823
▁issued	-10.1826
▁prime	-10.1827
▁edge	-10.1827
▁meats	-10.1829
▁request	-10.1833
▁club	-10.184
▁display	-10.1841
▁operation	-10.1841
ko	-10.1844
▁worldwide	-10.1857
▁indicates	-10.186
▁pretty	-10.1862
▁raise	-10.1876
▁ad	-10.1882
about	-10.1884
▁define	-10.1889
▁soy	-10.1893
▁statement	-10.1894
▁treatments	-10.1895
▁yard	-10.1896
▁mitochondria	-10.1898
oc	-10.19
▁television	-10.1904
▁healthcare	-10.1906
▁detailed	-10.1906
▁electronic	-10.1912
▁decision	-10.1912
▁uterus	-10.1914
▁movements	-10.1921
▁friends	-10.1929
▁$75	-10.1935
▁shingles	-10.1942
▁bed	-10.1943
ial	-10.1945
▁surgeon	-10.1949
▁excessive	-10.1952
▁profit	-10.1953
▁gum	-10.1954
▁successful	-10.1962
▁agencies	-10.197
ya	-10.1973
▁350	-10.1976
▁carried	-10.198
▁ga	-10.199
ner	-10.1999
▁fair	-10.201
▁disability	-10.2012
50	-10.2013
ray	-10.2021
▁reached	-10.2022
ana	-10.2026
▁weigh	-10.2028
▁church	-10.2028
▁kill	-10.203
▁meanings	-10.2036
▁huge	-10.2041
▁fossil	-10.2045
▁tap	-10.2059
▁nurses	-10.2062
▁gift	-10.2063
▁dutch	-10.2065
▁recovery	-10.2069
paid	-10.207
▁raised	-10.2071
▁beer	-10.2072
ten	-10.2074
▁claims	-10.2089
▁criminal	-10.2094
▁menstrual	-10.2097
cm	-10.2097
▁domain	-10.2114
▁eaten	-10.2115
▁sperm	-10.2115
▁carpet	-10.2126
▁rapid	-10.2128
▁leader	-10.2131
▁leads	-10.2133
▁mri	-10.2147
▁personality	-10.216
-3	-10.2163
▁wikipedia	-10.2167
▁smell	-10.2173
▁$35	-10.2176
▁breath	-10.2177
▁towards	-10.2179
▁rarely	-10.2179
▁generation	-10.2181
▁breakdown	-10.2182
▁absorb	-10.219
,”	-10.2202
▁mediterranean	-10.2203
▁si	-10.2212
▁seems	-10.2213
▁adrenal	-10.2217
▁undergraduate	-10.2218
▁polar	-10.222
▁die	-10.2225
▁se	-10.2225
ier	-10.2225
mi	-10.2226
▁changing	-10.2229
▁vascular	-10.2236
▁receptor	-10.2237
▁accurate	-10.2238
▁%	-10.2238
▁fungus	-10.2243
▁dosage	-10.2243
▁visa	-10.2245
min	-10.2247
▁sedimentary	-10.225
▁stable	-10.2255
ee	-10.2256
▁cotton	-10.2257
▁married	-10.2258
▁demand	-10.2262
▁meter	-10.2263
pi	-10.2266
▁$2,000	-10.2266
ah	-10.2266
▁duct	-10.2272
▁command	-10.2278
▁purple	-10.228
▁experienced	-10.2282
▁percentile	-10.2284
▁capillaries	-10.2287
▁hiv	-10.2296
▁cow	-10.2302
ful	-10.2303
▁egypt	-10.2308
ke	-10.2317
▁interior	-10.2318
▁alpha	-10.2324
▁circle	-10.2324
▁absorption	-10.2325
▁cerebral	-10.233
▁grand	-10.2349
▁converted	-10.2353
▁historical	-10.2356
▁obtained	-10.2367
▁province	-10.2368
▁hi	-10.2371
▁perhaps	-10.2378
les	-10.238
▁conversion	-10.238
▁polymerase	-10.238
▁vein	-10.2389
▁preparation	-10.2393
▁facilities	-10.2402
▁ma	-10.2404
▁sounds	-10.2406
▁bloodstream	-10.2421
▁revenue	-10.2423
▁wish	-10.243
way	-10.2431
▁mono	-10.2435
▁postings	-10.2436
▁express	-10.2443
▁membership	-10.2446
▁fly	-10.2449
▁passes	-10.2453
▁pop	-10.2462
▁$10,000	-10.2463
19	-10.2464
▁fairly	-10.2468
▁synthetic	-10.2471
▁organelles	-10.2471
related	-10.2473
▁doses	-10.2475
▁depth	-10.2476
▁links	-10.2477
▁residential	-10.2481
▁insert	-10.2483
▁$400	-10.2485
▁filter	-10.249
▁absorbed	-10.2492
▁sunlight	-10.2497
bo	-10.2508
▁et	-10.2509
▁treating	-10.2509
▁inflammatory	-10.2511
sh	-10.2533
▁oxide	-10.2534
▁abundant	-10.2548
▁independence	-10.2551
▁inherited	-10.2552
ps	-10.2554
▁headache	-10.256
including	-10.2563
▁circuit	-10.2563
▁keeping	-10.2565
▁igneous	-10.2574
14	-10.2581
▁opened	-10.2586
▁decide	-10.2589
▁pull	-10.2597
▁load	-10.2615
▁lateral	-10.2617
▁generic	-10.2618
▁pneumonia	-10.2626
gi	-10.2626
▁liability	-10.2627
▁dishes	-10.2629
▁shop	-10.2629
▁courses	-10.2655
▁gallon	-10.2657
▁despite	-10.2665
▁250	-10.2666
▁games	-10.2667
▁attacks	-10.267
▁pick	-10.2678
▁amazon	-10.2679
▁thickness	-10.2681
▁daughter	-10.2681
▁authority	-10.2695
▁acre	-10.2698
▁respectively	-10.2699
can	-10.2703
▁lymphatic	-10.2705
▁tank	-10.2713
▁documents	-10.2714
red	-10.2721
ap	-10.2722
▁microwave	-10.2724
▁client	-10.2729
▁stream	-10.2732
▁potato	-10.2732
▁prefer	-10.2734
▁prescribed	-10.2735
▁yogurt	-10.2735
▁positions	-10.2738
▁ounces	-10.2739
▁meals	-10.2742
75	-10.2745
▁strain	-10.2747
▁31	-10.2754
dy	-10.2754
▁mexican	-10.2756
▁album	-10.2757
with	-10.2764
▁quarter	-10.2767
▁accepted	-10.2767
▁classification	-10.277
▁ni	-10.2778
▁regulate	-10.2778
▁projects	-10.2782
▁sore	-10.2782
▁employers	-10.2787
▁underlying	-10.2788
▁stars	-10.2789
▁er	-10.2794
▁pour	-10.2796
▁rheumatoid	-10.2799
▁asphalt	-10.2803
▁consumer	-10.2809
▁scottish	-10.281
▁frame	-10.281
lin	-10.2815
all	-10.2817
▁fun	-10.2821
▁possibly	-10.2836
▁rid	-10.2844
ance	-10.2847
▁chemistry	-10.2848
mer	-10.2851
▁snow	-10.2857
▁favorite	-10.2858
▁valid	-10.2859
ler	-10.2864
▁moved	-10.2867
▁carbs	-10.2874
▁$3,000	-10.2875
▁lb	-10.2876
▁oz	-10.2877
▁earning	-10.2879
▁principal	-10.2881
▁vessel	-10.2882
▁mar	-10.2883
ina	-10.2888
▁bi	-10.2889
known	-10.2899
▁senior	-10.2903
▁fourth	-10.2903
▁1,000	-10.2903
board	-10.2905
▁formal	-10.2905
▁rough	-10.291
▁movie	-10.2921
▁modified	-10.2923
▁sky	-10.2924
▁consume	-10.2936
▁filled	-10.2936
▁younger	-10.294
▁replication	-10.2942
▁answers	-10.2956
▁magma	-10.2958
▁par	-10.296
▁fields	-10.2967
▁era	-10.297
▁seem	-10.2973
▁detect	-10.2979
▁earns	-10.298
mp	-10.2981
▁volcanoes	-10.2991
▁allowing	-10.2991
▁path	-10.2995
▁te	-10.3001
▁sum	-10.3003
▁smallest	-10.3006
▁prominent	-10.3009
▁longest	-10.3012
5,000	-10.3016
▁hr	-10.3017
▁classic	-10.3022
▁ranked	-10.3025
fa	-10.3026
▁explain	-10.3032
▁rack	-10.3034
▁occupational	-10.3036
▁debt	-10.3041
▁categories	-10.3053
▁extended	-10.3061
▁spending	-10.3066
▁quartz	-10.3068
wood	-10.3072
▁brush	-10.3075
we	-10.3077
▁success	-10.3089
▁peace	-10.3091
▁intended	-10.3094
▁2008	-10.3095
▁lobe	-10.3096
▁stir	-10.3097
▁hawaii	-10.31
au	-10.3104
▁circulation	-10.3105
▁southeast	-10.3111
▁occasionally	-10.3114
▁hill	-10.3117
▁cheaper	-10.3122
▁belongs	-10.3123
▁feeding	-10.3135
ated	-10.3141
▁gel	-10.3142
▁homeowners	-10.3144
▁registration	-10.3144
95	-10.3146
▁technicians	-10.316
side	-10.3167
▁asked	-10.317
▁football	-10.317
▁teachers	-10.3175
▁greece	-10.319
neurotransmitter	-10.3194
▁somewhat	-10.3195
85	-10.3195
▁achieve	-10.3199
▁coronary	-10.32
▁context	-10.32
▁speaking	-10.3206
▁patent	-10.3211
▁regardless	-10.3215
▁returns	-10.3221
▁capable	-10.3224
▁massachusetts	-10.3226
▁rental	-10.3228
▁precipitation	-10.3234
▁profile	-10.3236
back	-10.3236
ring	-10.3241
▁nasal	-10.3245
org	-10.325
▁poly	-10.3251
▁angle	-10.3254
▁aren	-10.3258
35	-10.3264
▁peninsula	-10.3265
▁scores	-10.3265
▁separated	-10.3269
▁saturated	-10.3273
▁oils	-10.3274
▁assets	-10.3279
▁engineers	-10.3292
▁tumors	-10.3293
29	-10.3295
▁manage	-10.3297
▁los	-10.3298
▁lots	-10.3301
▁cattle	-10.3301
▁nest	-10.3303
▁train	-10.3324
▁speak	-10.3325
▁painting	-10.3335
▁prostate	-10.3337
▁barrier	-10.3345
▁voltage	-10.336
▁gluten	-10.3361
▁snake	-10.3364
▁paste	-10.337
▁mentioned	-10.3374
▁lbs	-10.3378
▁pine	-10.3378
▁arabic	-10.3381
▁shares	-10.3381
▁ra	-10.3382
▁holds	-10.3385
ul	-10.3386
▁village	-10.3391
▁regional	-10.3396
▁mutations	-10.34
▁emergency	-10.3405
▁29	-10.3405
▁monitor	-10.3409
▁plural	-10.3409
▁55	-10.3411
▁poisoning	-10.3417
,500	-10.3417
▁sizes	-10.3418
▁medicines	-10.3421
▁caffeine	-10.3421
▁hear	-10.3425
▁differ	-10.3428
vi	-10.3428
ab	-10.343
▁cutting	-10.3432
usually	-10.3432
▁hundred	-10.3433
▁counter	-10.3434
▁owners	-10.3443
▁ne	-10.3444
▁steaks	-10.3449
▁boundary	-10.3454
▁instrument	-10.3459
▁channel	-10.3463
▁flooring	-10.3466
▁sentence	-10.347
▁lasts	-10.3471
▁largely	-10.348
11	-10.3483
ae	-10.3485
▁nucleotides	-10.3488
▁unknown	-10.3488
▁poultry	-10.349
▁join	-10.3495
▁transportation	-10.3496
▁nutrient	-10.35
wa	-10.3504
32	-10.351
▁quantity	-10.3511
▁exists	-10.3515
▁wireless	-10.3518
▁removing	-10.3519
▁savings	-10.3523
▁welcome	-10.3527
▁familiar	-10.353
39	-10.3536
▁closer	-10.3542
▁terminal	-10.3543
▁lean	-10.3544
▁extract	-10.3545
▁hyper	-10.3546
▁shot	-10.3547
▁injection	-10.3547
che	-10.3555
▁cent	-10.3556
▁cars	-10.3559
▁stick	-10.3567
é	-10.3567
▁rapidly	-10.3569
▁wrong	-10.3569
▁attorney	-10.3575
▁orbit	-10.3581
▁intestinal	-10.3586
▁hundreds	-10.3592
▁unusual	-10.3592
you	-10.3596
▁manner	-10.3602
▁password	-10.3621
▁techniques	-10.3623
▁tear	-10.3625
▁(4	-10.363
▁frequent	-10.3633
▁bath	-10.3634
▁blocks	-10.3641
▁traditionally	-10.3643
za	-10.3643
▁literature	-10.3646
▁hence	-10.3648
▁palm	-10.3653
▁boiling	-10.3656
▁crown	-10.3656
off	-10.3662
▁leaving	-10.3662
▁urban	-10.3666
▁qualify	-10.3672
▁turning	-10.3673
▁finally	-10.3673
ator	-10.3673
her	-10.3677
▁$250	-10.368
▁prince	-10.3682
▁breaks	-10.3685
▁2009	-10.3687
▁stroke	-10.3691
▁helpful	-10.3691
▁2014,	-10.3694
▁centuries	-10.3696
▁breeds	-10.3701
▁institute	-10.3702
itis	-10.3702
▁mph	-10.3704
▁wa	-10.3706
▁coli	-10.3709
55	-10.371
▁moist	-10.371
▁secreted	-10.3716
▁relieve	-10.3721
▁withdrawal	-10.3724
▁deck	-10.3726
▁creates	-10.3733
▁patterns	-10.3735
65	-10.3737
▁switch	-10.3739
▁managers	-10.374
▁solutions	-10.3743
io	-10.3745
nt	-10.3745
▁mood	-10.3746
▁columbia	-10.3748
▁bonus	-10.3752
▁$18	-10.3752
▁robert	-10.3753
▁20%	-10.3755
▁walking	-10.3757
▁forensic	-10.3762
▁horses	-10.3763
▁mode	-10.3764
▁newest	-10.3766
▁soda	-10.377
▁reduction	-10.3777
▁injuries	-10.3779
▁ch	-10.3783
▁sets	-10.3785
▁buying	-10.3786
▁temp	-10.3786
▁usual	-10.3788
▁temperate	-10.3788
▁lu	-10.3789
▁match	-10.379
▁identity	-10.3796
▁saw	-10.3811
que	-10.3813
▁bell	-10.3825
▁rainfall	-10.3825
▁peas	-10.3832
▁codes	-10.3834
▁extent	-10.3842
▁handle	-10.3845
▁$80	-10.385
▁mucus	-10.385
▁marrow	-10.3855
▁spelling	-10.3872
▁$11	-10.3876
▁vinyl	-10.388
31	-10.3891
▁lawn	-10.3898
ms	-10.39
▁told	-10.3905
▁involve	-10.3906
▁100%	-10.392
▁ultrasound	-10.3926
that	-10.394
▁suggests	-10.3941
▁pin	-10.3951
▁tendons	-10.3952
▁selection	-10.3954
▁requirement	-10.3959
▁corporate	-10.3967
▁shorter	-10.3969
▁businesses	-10.3976
▁180	-10.3979
▁assistants	-10.3992
▁develops	-10.3992
ny	-10.4002
▁ip	-10.4004
▁route	-10.4005
▁1.5	-10.4007
▁syrup	-10.4012
▁plain	-10.4015
▁beauty	-10.4016
▁nutritional	-10.4018
▁protective	-10.4021
ize	-10.4026
▁reproduction	-10.4029
ham	-10.4029
▁examination	-10.403
▁chops	-10.4032
24	-10.4035
▁multiply	-10.4035
▁ion	-10.4038
▁atomic	-10.405
▁milligrams	-10.4053
ki	-10.4056
▁clay	-10.4056
▁intestines	-10.4056
type	-10.4058
▁measuring	-10.4059
▁label	-10.406
▁guidelines	-10.4065
▁advantage	-10.4066
▁gender	-10.4066
▁crime	-10.4067
more	-10.4082
▁pasta	-10.4095
hr	-10.41
▁worker	-10.4103
▁swollen	-10.4106
izing	-10.4112
▁senate	-10.4115
▁bound	-10.4117
34	-10.4121
▁regularly	-10.4123
▁russian	-10.4123
▁centers	-10.4126
▁$1,500	-10.4126
▁suggest	-10.4126
▁rivers	-10.4128
▁crystals	-10.4142
▁restaurant	-10.4143
▁greatest	-10.4145
▁averages	-10.4147
edit	-10.4148
▁religion	-10.4148
▁digest	-10.4152
▁showing	-10.4154
▁lo	-10.4156
▁(1)	-10.4158
▁(#	-10.4163
▁tiger	-10.4163
▁baked	-10.4163
▁phylum	-10.417
▁tablets	-10.4173
▁chicago	-10.4177
▁overtime	-10.4185
▁esophagus	-10.4187
▁ha	-10.4187
▁continuous	-10.4194
▁powers	-10.42
▁farm	-10.4201
▁loose	-10.4203
25	-10.4206
▁qualified	-10.4212
▁extend	-10.4216
▁technical	-10.4218
noun	-10.4219
▁mold	-10.4221
17	-10.4225
ron	-10.4226
ml	-10.4233
▁shower	-10.4234
▁im	-10.4235
▁crystal	-10.4238
▁holding	-10.4247
▁relief	-10.4247
▁vehicles	-10.4249
▁colour	-10.4251
▁dense	-10.4257
form	-10.4258
▁chocolate	-10.4259
▁shallow	-10.4259
▁(5	-10.4259
27	-10.426
▁grant	-10.4266
▁gallbladder	-10.4268
▁met	-10.4269
▁reducing	-10.4274
▁wound	-10.4281
▁$0.	-10.4283
▁actor	-10.4283
▁metres	-10.4284
▁zero	-10.429
▁reproductive	-10.4295
▁sick	-10.4308
▁funds	-10.4309
▁vi	-10.4313
▁2,000	-10.4319
chi	-10.4325
▁resource	-10.4327
cal	-10.4329
▁castle	-10.4334
ak	-10.4335
▁potentially	-10.4339
▁belong	-10.434
▁heard	-10.4341
▁arizona	-10.4342
▁thinking	-10.4347
▁bull	-10.4348
▁destination	-10.4348
▁min	-10.4356
▁council	-10.4356
▁stages	-10.4361
tri	-10.4363
▁didn	-10.4373
▁governor	-10.4379
-19	-10.438
▁puppy	-10.4382
▁notes	-10.4384
▁latest	-10.4387
▁basement	-10.4388
▁hemisphere	-10.4393
cl	-10.4393
▁cards	-10.4395
▁owned	-10.4412
▁fl	-10.4416
ent	-10.442
▁pages	-10.4424
▁encyclopedia	-10.4427
▁selected	-10.4428
▁contracts	-10.4436
▁mission	-10.4444
64	-10.4444
▁le	-10.4451
ns	-10.4453
field	-10.4453
▁onions	-10.4455
▁surfaces	-10.4456
▁berlin	-10.4458
▁belt	-10.4459
▁ohio	-10.4463
op	-10.4473
top	-10.4473
▁holiday	-10.4474
▁$19	-10.4475
▁defense	-10.4478
high	-10.4483
▁boundaries	-10.4485
▁organizations	-10.449
▁pictures	-10.4492
▁angeles	-10.4496
▁dust	-10.4498
▁wolf	-10.4498
▁onion	-10.451
▁adopted	-10.4511
▁previously	-10.4514
▁2011,	-10.4517
▁shaped	-10.4523
▁selling	-10.4526
▁deduction	-10.453
▁contained	-10.4531
▁attempt	-10.4533
▁dam	-10.4537
▁spectrum	-10.4543
▁bite	-10.4547
▁bean	-10.4561
▁wrap	-10.4561
▁automatically	-10.4562
▁essentially	-10.4566
▁sensitive	-10.4569
▁extends	-10.4581
▁shall	-10.4582
▁cups	-10.459
▁truck	-10.4592
▁roll	-10.4593
▁em	-10.4596
▁expressed	-10.4596
▁surrounded	-10.4597
▁wife	-10.4603
▁sort	-10.4611
▁para	-10.4613
▁urethra	-10.4613
▁affecting	-10.4613
▁royal	-10.4613
▁thousand	-10.4614
▁spirit	-10.4615
▁diagnose	-10.462
▁paris	-10.4628
▁officers	-10.4631
▁ventricle	-10.4636
▁plane	-10.4642
▁fermentation	-10.4644
▁colorado	-10.4644
ology	-10.4645
▁$14	-10.4646
▁ticket	-10.4646
▁cervical	-10.4647
▁respect	-10.4648
▁row	-10.4649
tion	-10.4651
▁mechanism	-10.4656
▁rises	-10.4661
use	-10.4662
▁aorta	-10.4662
58	-10.4663
▁applying	-10.4665
▁conduct	-10.4665
▁regulation	-10.4668
▁sheep	-10.4673
▁housing	-10.4676
▁administrative	-10.4676
▁tendon	-10.4677
▁annum	-10.4677
▁weak	-10.4679
▁kwh	-10.469
▁pennsylvania	-10.4698
▁vapor	-10.4699
▁decay	-10.4702
▁finger	-10.4714
▁optic	-10.4718
▁david	-10.4719
▁partial	-10.472
▁meant	-10.4721
▁southwest	-10.4723
▁freeze	-10.4724
▁sp	-10.4727
▁lift	-10.4728
▁(18	-10.4729
▁odor	-10.4731
▁ones	-10.4731
▁stretch	-10.4733
▁1/4	-10.4738
▁comments	-10.4741
hi	-10.4745
▁answered	-10.4746
▁banks	-10.4747
▁actions	-10.475
▁geographic	-10.475
▁involving	-10.4759
▁hire	-10.4761
▁deposits	-10.4766
▁thomas	-10.4781
2.	-10.4785
▁fluids	-10.4789
▁industries	-10.479
▁literally	-10.4796
▁trial	-10.4798
don	-10.48
▁finding	-10.4804
▁scotland	-10.4806
▁bus	-10.4811
▁trait	-10.4817
▁pigment	-10.4821
▁allele	-10.4822
▁manufactured	-10.4825
▁lupus	-10.4828
▁enters	-10.4831
▁interesting	-10.4834
▁vast	-10.4834
▁specialty	-10.4836
▁ko	-10.4841
▁ar	-10.4845
▁ta	-10.4845
▁goals	-10.4851
▁ideas	-10.4852
▁genome	-10.4856
21	-10.4865
▁anatomy	-10.4866
water	-10.4867
▁id	-10.4871
▁models	-10.4881
▁carrier	-10.4883
36	-10.4884
▁outlook	-10.4885
ber	-10.4885
▁wheel	-10.489
▁ligaments	-10.4893
cc	-10.4896
▁religious	-10.4899
▁researchers	-10.49
▁characters	-10.49
mon	-10.4901
▁default	-10.4902
▁cure	-10.4904
,400	-10.4905
▁charles	-10.4906
▁saliva	-10.4906
▁biome	-10.4909
96	-10.4912
▁plenty	-10.4916
▁mantle	-10.4921
▁wax	-10.4925
▁aircraft	-10.4931
▁nail	-10.4931
▁pole	-10.4934
▁2)	-10.4935
▁drivers	-10.4937
▁translation	-10.4939
▁register	-10.494
▁pe	-10.4942
▁manufacturer	-10.4942
▁elected	-10.4946
▁pi	-10.4949
▁ligament	-10.4949
▁periodic	-10.495
▁$16	-10.495
lu	-10.4956
▁skillet	-10.4959
▁weekly	-10.496
▁functioning	-10.496
▁airlines	-10.4963
▁ceiling	-10.4968
▁marked	-10.4969
▁shared	-10.4977
▁parties	-10.498
▁vet	-10.4983
▁joined	-10.4983
-2	-10.4984
▁sharing	-10.4986
ard	-10.4995
over	-10.4997
▁promote	-10.5003
sized	-10.5005
▁asian	-10.5006
▁drinks	-10.5011
▁cd	-10.5011
▁$13	-10.5012
▁duration	-10.5013
▁practical	-10.503
▁log	-10.5035
▁pricing	-10.5036
life	-10.5037
▁wrist	-10.504
▁protects	-10.5043
▁experts	-10.5044
▁catch	-10.5047
▁chi	-10.5048
▁coastal	-10.505
78	-10.5051
▁practices	-10.5052
▁ounce	-10.5054
▁chains	-10.5057
▁pharmacy	-10.5059
▁delta	-10.5063
▁oak	-10.5064
square	-10.5072
▁fitness	-10.5074
▁hole	-10.5081
gastrointestinal	-10.5082
▁recipes	-10.5085
▁committee	-10.5091
▁breaking	-10.51
iv	-10.5104
▁novel	-10.5105
▁pad	-10.5109
ria	-10.5115
▁protected	-10.5117
▁advice	-10.5118
46	-10.5119
▁geography	-10.512
ata	-10.5122
▁epithelial	-10.5124
▁iodine	-10.5125
kg	-10.5135
▁marriage	-10.5136
▁cultures	-10.514
pt	-10.5144
▁protocol	-10.5147
▁deer	-10.5153
▁receiving	-10.5153
▁fund	-10.5155
ula	-10.5155
▁jack	-10.5162
▁coconut	-10.5163
▁lease	-10.5165
▁cloud	-10.5169
▁antibiotic	-10.5171
▁epithelium	-10.5173
▁hall	-10.518
▁planets	-10.5181
▁nucleotide	-10.5185
▁stool	-10.5186
▁wash	-10.5187
▁francisco	-10.5202
ists	-10.5204
▁antibody	-10.5204
▁turns	-10.5205
▁inc	-10.5205
▁disney	-10.5206
▁rabbit	-10.5208
▁seal	-10.5209
vo	-10.521
▁finished	-10.5211
▁clothing	-10.5211
▁bottle	-10.5214
▁comprehensive	-10.5216
▁1980	-10.5224
bar	-10.5227
▁jersey	-10.5231
▁silicon	-10.5234
▁educational	-10.5241
▁1960	-10.5242
43	-10.5243
▁meeting	-10.5245
▁closing	-10.5245
▁mercury	-10.5247
▁herbs	-10.5249
▁sudden	-10.525
▁lime	-10.5252
▁citizens	-10.5252
▁installing	-10.5255
▁freedom	-10.5256
▁northwest	-10.5256
▁messages	-10.526
▁aspects	-10.5261
▁replacing	-10.5264
▁oregon	-10.5265
▁boat	-10.5265
▁finance	-10.5265
89	-10.5266
▁aerobic	-10.5266
▁confused	-10.5272
stone	-10.5274
▁consumers	-10.5275
▁specialist	-10.5277
mb	-10.528
▁emotional	-10.5281
▁traits	-10.5281
▁symbols	-10.5284
ze	-10.5286
▁win	-10.5294
ville	-10.53
▁dates	-10.53
▁ovulation	-10.53
▁beneath	-10.5303
▁chapter	-10.5311
▁gaelic	-10.5311
▁duties	-10.5313
▁antigen	-10.5314
▁mc	-10.5317
▁suitable	-10.5319
▁pension	-10.5323
▁standing	-10.5323
▁cal	-10.5325
▁limestone	-10.5338
▁millions	-10.5338
▁teaching	-10.5339
uk	-10.5344
▁connects	-10.5344
▁brazil	-10.5348
▁hospitals	-10.5349
▁spots	-10.535
▁michigan	-10.5353
▁fur	-10.5361
tin	-10.5364
98	-10.5365
▁gave	-10.5366
▁2013.	-10.5367
▁basin	-10.537
▁turned	-10.537
ip	-10.5373
▁sap	-10.5382
49	-10.5386
▁sa	-10.5386
ver	-10.5387
▁complications	-10.5387
▁generate	-10.5389
▁corner	-10.5392
▁$45	-10.5394
▁jo	-10.5396
▁agriculture	-10.5396
tu	-10.5399
▁zones	-10.5407
▁string	-10.5408
oma	-10.5408
▁cooling	-10.5414
▁lipids	-10.5415
▁entity	-10.5416
▁tubes	-10.5417
▁33	-10.5417
▁session	-10.5418
▁anaerobic	-10.5418
▁fewer	-10.5419
▁equator	-10.5421
▁recessive	-10.5432
▁variations	-10.5433
▁permit	-10.5434
▁dissolved	-10.5437
▁copies	-10.5451
45	-10.5452
down	-10.5456
hu	-10.5458
▁ok	-10.5459
▁consumed	-10.5463
23	-10.5467
▁illinois	-10.547
▁calls	-10.5472
▁160	-10.5473
▁sprinkle	-10.5474
▁push	-10.5477
▁pm	-10.5477
▁gradually	-10.5482
▁600	-10.5484
▁2007	-10.5485
▁collect	-10.5485
▁singer	-10.5487
der	-10.5487
▁fuels	-10.5493
▁flexible	-10.5495
▁reflex	-10.5498
low	-10.5498
▁pack	-10.5501
▁binding	-10.5502
▁wi	-10.5509
▁applies	-10.551
▁architecture	-10.551
38	-10.5511
▁slab	-10.5512
▁2004	-10.5517
▁breeding	-10.5521
▁sharp	-10.5526
▁update	-10.5527
▁efficient	-10.5534
▁1990	-10.5542
73	-10.5545
▁entirely	-10.5551
▁paul	-10.5551
▁expense	-10.5553
▁mis	-10.5555
qui	-10.5559
▁constipation	-10.556
▁stems	-10.5564
ct	-10.5566
▁rn	-10.5568
▁persons	-10.5569
▁bigger	-10.5576
▁ozone	-10.5581
led	-10.5582
▁determining	-10.5587
▁$50,000	-10.559
86	-10.5597
48	-10.56
▁somewhere	-10.5601
▁smoke	-10.5605
▁acquired	-10.5608
▁rod	-10.5611
▁polymer	-10.5613
▁fungal	-10.5618
▁ears	-10.5619
▁offering	-10.5624
▁herb	-10.5627
▁patio	-10.5636
▁officially	-10.5643
▁trunk	-10.5655
▁importance	-10.5661
lan	-10.5661
▁sections	-10.5666
kin	-10.5667
▁traffic	-10.5676
▁benign	-10.5679
.50	-10.568
▁equation	-10.5681
▁systemic	-10.5683
▁allergies	-10.5691
%	-10.5695
ise	-10.5698
▁cement	-10.5699
▁38	-10.5703
▁mini	-10.5704
▁eu	-10.5706
▁tomatoes	-10.5709
▁conventional	-10.5711
▁thermal	-10.5711
▁distributed	-10.5721
▁articles	-10.5728
72	-10.5734
▁gulf	-10.5742
▁nucleic	-10.5742
▁exception	-10.5746
97	-10.5746
▁diagnosed	-10.5747
▁prey	-10.5753
▁$600	-10.5755
▁1970	-10.5763
▁salts	-10.5764
▁flights	-10.5765
▁diamond	-10.5774
▁progress	-10.5778
▁asthma	-10.5786
▁sensation	-10.5789
”.	-10.5794
▁interested	-10.5794
▁composite	-10.5794
▁prevention	-10.5797
green	-10.5797
▁renaissance	-10.5798
▁immunity	-10.5798
▁segment	-10.5798
▁instant	-10.5799
▁duck	-10.5801
▁gallons	-10.5806
▁operate	-10.5806
▁os	-10.5812
▁temporary	-10.5813
▁extensive	-10.5814
▁creatinine	-10.5815
fe	-10.5816
▁colonies	-10.5819
om	-10.582
▁presented	-10.582
▁playing	-10.5821
▁representatives	-10.5825
▁closest	-10.5829
▁reserve	-10.5831
▁wrote	-10.5834
▁2012.	-10.5835
▁lactose	-10.5837
▁lists	-10.5839
▁hypothalamus	-10.5839
▁tick	-10.584
▁meningitis	-10.5844
▁vertical	-10.585
▁regarding	-10.5853
▁posted	-10.5856
▁span	-10.5863
▁2-3	-10.5863
▁diverse	-10.5875
▁ce	-10.5879
▁matrix	-10.588
▁pale	-10.5887
▁vice	-10.5888
▁clients	-10.5892
▁tough	-10.5896
▁difficulty	-10.5904
▁boston	-10.5906
▁announced	-10.5908
od	-10.5908
rate	-10.5909
▁ribosomes	-10.5911
▁blend	-10.5917
sis	-10.5926
▁covalent	-10.5938
▁justice	-10.594
▁spices	-10.5942
▁submit	-10.5942
▁beneficial	-10.5942
▁wanted	-10.5945
cha	-10.5948
▁swimming	-10.595
▁inspection	-10.5964
▁diagnostic	-10.5968
oid	-10.5969
▁uncommon	-10.5969
▁$20,000	-10.597
▁lord	-10.5971
ase	-10.5972
▁thigh	-10.5975
▁fingers	-10.5977
▁circulatory	-10.5984
▁pat	-10.5988
▁reverse	-10.599
▁itching	-10.5991
zo	-10.5998
▁$100,000	-10.5999
▁brick	-10.6
▁inferior	-10.6006
▁pollen	-10.6011
▁ash	-10.6011
▁policies	-10.602
▁ethnic	-10.6022
▁reduces	-10.6023
▁osteoarthritis	-10.6025
▁task	-10.6029
▁beat	-10.6038
▁gap	-10.6042
▁necessarily	-10.6052
▁agree	-10.6053
▁90%	-10.6055
,600	-10.6056
▁colored	-10.6058
▁browser	-10.6062
▁clinic	-10.6062
▁nice	-10.6064
▁flowering	-10.6065
▁juices	-10.6065
▁listing	-10.6065
▁£1	-10.6068
ger	-10.6072
▁alternate	-10.6073
▁72	-10.608
05	-10.6081
▁thoracic	-10.6081
▁adjust	-10.6088
▁37	-10.6089
▁henry	-10.6094
english	-10.6098
osis	-10.6099
▁arc	-10.6099
▁crab	-10.6106
▁distinctive	-10.6111
▁trauma	-10.612
▁cardiovascular	-10.612
▁indeed	-10.6121
▁van	-10.6125
▁kilometres	-10.6126
▁2.5	-10.6126
▁mr	-10.6136
▁cloth	-10.6136
▁landscape	-10.6143
▁lakes	-10.6143
▁michael	-10.6144
ho	-10.6145
▁0.	-10.6146
▁tension	-10.6146
▁ct	-10.6148
▁vaginal	-10.6149
▁]	-10.6151
▁rank	-10.6151
37	-10.6153
▁drops	-10.6155
▁resistant	-10.6157
▁lifetime	-10.6159
▁arts	-10.6159
▁folder	-10.6162
▁lifestyle	-10.617
▁mrna	-10.6173
22	-10.6174
▁buildings	-10.6174
33	-10.6177
▁input	-10.618
▁concerned	-10.6187
▁duty	-10.6193
▁85	-10.6194
▁icon	-10.6199
59	-10.6203
▁immigration	-10.6205
▁specified	-10.6211
▁aged	-10.6211
▁petroleum	-10.6217
▁ja	-10.622
▁artist	-10.622
.]	-10.6224
▁venus	-10.6227
▁crops	-10.6228
▁stated	-10.6229
ries	-10.6231
▁advance	-10.6234
,800	-10.6241
▁cognitive	-10.6244
▁cuisine	-10.6246
ii	-10.6248
gen	-10.6249
cy	-10.6251
▁maintaining	-10.6253
▁phosphorus	-10.6259
eg	-10.6259
▁$30,000	-10.626
3.	-10.6265
▁discharge	-10.6265
▁arctic	-10.627
▁occupation	-10.6275
lic	-10.6275
▁oceanic	-10.6276
▁passing	-10.6277
mar	-10.628
▁laser	-10.6281
pm	-10.6285
▁fraction	-10.6287
fish	-10.6305
▁institution	-10.631
ide	-10.6321
▁info	-10.6322
▁parallel	-10.6322
▁sat	-10.6332
▁contaminated	-10.6337
▁fundamental	-10.634
▁tin	-10.6343
▁lincoln	-10.6345
▁radioactive	-10.6345
▁loans	-10.6348
▁contents	-10.6349
▁queen	-10.6351
ng	-10.6354
▁toxins	-10.6358
▁ke	-10.6361
▁franchise	-10.6364
▁2014.	-10.6377
▁identification	-10.6388
▁fifth	-10.6389
▁sc	-10.639
▁practitioner	-10.6393
▁axis	-10.6395
▁coating	-10.6402
port	-10.6404
▁worms	-10.6407
▁interface	-10.641
▁funeral	-10.6415
▁tenderloin	-10.6415
▁lyme	-10.6416
▁34	-10.6418
▁capsule	-10.6421
▁secretion	-10.6421
▁vertebrae	-10.6429
▁exceed	-10.6434
▁lee	-10.6435
,700	-10.6436
ped	-10.644
▁sac	-10.6442
▁shock	-10.6443
▁bitter	-10.6446
▁houses	-10.6452
▁tobacco	-10.6459
▁allergy	-10.6459
▁remodel	-10.6459
how	-10.6461
▁bark	-10.6468
▁spleen	-10.647
66	-10.647
▁effort	-10.647
▁parking	-10.647
▁lymphocytes	-10.6473
▁caribbean	-10.6475
▁reality	-10.6476
▁grey	-10.6476
▁principles	-10.6484
▁inventory	-10.6489
▁respond	-10.6495
rn	-10.6498
▁filed	-10.65
▁impulses	-10.6503
sp	-10.6503
▁carbonate	-10.6509
▁routine	-10.6509
▁li	-10.6524
▁wales	-10.6527
99	-10.6527
▁concern	-10.6528
93	-10.653
▁metropolitan	-10.6532
▁professor	-10.6532
▁brief	-10.6532
▁acidic	-10.6533
▁helping	-10.6535
▁smoking	-10.6536
▁nearby	-10.654
▁award	-10.6542
▁democratic	-10.6543
ai	-10.6543
▁ionic	-10.6548
▁physicians	-10.655
84	-10.6554
ran	-10.6555
▁restaurants	-10.6555
47	-10.6555
▁freezing	-10.6557
▁shipping	-10.6558
▁represented	-10.6561
▁colony	-10.6562
▁earliest	-10.6563
▁ab	-10.6568
▁christian	-10.6573
▁fear	-10.6573
▁peel	-10.6574
▁diem	-10.6575
▁lipid	-10.6576
54	-10.6576
▁euro	-10.6576
some	-10.6577
▁(2)	-10.6577
soluble	-10.6578
▁varying	-10.6578
1,	-10.658
american	-10.6583
▁bipolar	-10.6586
▁frost	-10.6589
▁preferred	-10.6592
▁proposed	-10.6598
▁tells	-10.6601
▁absolute	-10.6609
▁cu	-10.661
▁hay	-10.6613
▁lawyer	-10.6622
▁rabbits	-10.6632
▁strands	-10.6633
▁cuts	-10.6636
▁conditioning	-10.6641
fat	-10.6646
born	-10.6653
▁cake	-10.6662
▁toilet	-10.6665
▁$17	-10.6665
▁dream	-10.667
▁discover	-10.6672
oh	-10.6675
▁severity	-10.6675
77	-10.6681
▁teaspoon	-10.6683
▁ba	-10.6688
▁po	-10.669
▁tomato	-10.6694
▁overnight	-10.6699
▁ˈ	-10.6702
▁complexity	-10.6702
▁tested	-10.6702
▁sink	-10.6703
▁calorie	-10.6703
▁goat	-10.671
▁institutions	-10.671
▁carrying	-10.6713
▁satellite	-10.6716
▁roles	-10.6718
▁#	-10.6719
▁situations	-10.6724
most	-10.6725
▁strategy	-10.6725
▁progressive	-10.6727
tro	-10.6727
▁determines	-10.6729
▁representative	-10.6729
▁delete	-10.6729
▁axon	-10.6731
▁hybrid	-10.6736
▁organized	-10.6737
ping	-10.6737
▁desire	-10.6738
▁cheap	-10.6743
▁transferred	-10.6743
▁occurred	-10.6745
▁updated	-10.6747
▁edible	-10.6748
ised	-10.6751
▁hotels	-10.6752
▁calendar	-10.6753
▁marijuana	-10.6753
▁screening	-10.6755
▁opportunity	-10.677
▁fibrous	-10.6771
▁snakes	-10.6774
▁tends	-10.6775
▁clearly	-10.6778
2,	-10.678
▁perennial	-10.6781
▁gently	-10.6781
68	-10.6782
▁spouse	-10.6784
▁parasites	-10.6787
▁convention	-10.6787
getty	-10.679
▁releases	-10.679
▁ed	-10.6791
fo	-10.6793
▁generated	-10.6798
▁noted	-10.6801
ox	-10.6803
▁efficiency	-10.6809
▁sweat	-10.6809
▁hindu	-10.6812
▁stiffness	-10.6816
▁yield	-10.6818
88	-10.6821
▁lid	-10.6822
language	-10.6841
▁continues	-10.6842
tr	-10.6844
79	-10.6846
▁benchmark	-10.6849
▁diagram	-10.685
ane	-10.6851
▁mine	-10.6851
▁honor	-10.6856
▁fork	-10.6863
well	-10.6863
▁pipe	-10.6865
▁chlorophyll	-10.6866
▁discomfort	-10.6866
▁prison	-10.6867
▁fix	-10.6868
rin	-10.687
▁$70	-10.6875
▁carefully	-10.6876
▁resort	-10.6879
▁northeast	-10.6879
42	-10.688
▁bulb	-10.6894
▁museum	-10.6895
▁imaging	-10.6895
▁observed	-10.6899
▁dizziness	-10.6901
▁identical	-10.6901
▁spice	-10.6902
▁appeared	-10.6906
▁lifespan	-10.6906
▁circumstances	-10.6906
▁curve	-10.691
▁relating	-10.6912
▁sulfur	-10.6913
▁universal	-10.6916
▁furniture	-10.6923
▁childhood	-10.6924
▁musical	-10.6924
ability	-10.6936
▁rome	-10.6939
▁stain	-10.6942
ure	-10.695
pre	-10.6952
ita	-10.696
▁proof	-10.6963
▁math	-10.6963
▁artificial	-10.6965
▁elevation	-10.6967
▁pie	-10.6968
▁neutral	-10.6968
▁aware	-10.697
▁loop	-10.6972
▁carrots	-10.6973
61	-10.6974
▁directed	-10.6975
▁breakfast	-10.6975
07	-10.6982
▁bought	-10.6985
▁appetite	-10.6987
▁greenhouse	-10.6988
▁airline	-10.699
▁harm	-10.699
▁transaction	-10.6991
▁vent	-10.6998
▁prevents	-10.7
▁cellulose	-10.7002
▁unable	-10.7003
▁decreased	-10.7007
▁2001	-10.701
▁ankle	-10.7012
▁2002	-10.7013
▁ducts	-10.7015
▁altitude	-10.7016
▁initially	-10.7022
▁yards	-10.7024
▁gi	-10.7026
▁false	-10.703
▁whatever	-10.7033
▁cancers	-10.7033
▁camera	-10.7033
▁telephone	-10.7039
▁bible	-10.7042
▁geographical	-10.7043
▁psychological	-10.7045
▁(6	-10.7045
▁gestation	-10.7048
non	-10.7051
▁assist	-10.7054
▁profession	-10.7062
▁sulfate	-10.7062
87	-10.7063
▁psychologist	-10.7065
idae	-10.7069
▁salmonella	-10.7074
▁worse	-10.7079
▁golf	-10.7079
▁metamorphic	-10.7079
▁creation	-10.708
▁communities	-10.7085
pp	-10.7091
▁arch	-10.7093
▁planting	-10.7094
▁intense	-10.7098
▁opposed	-10.7098
▁allowance	-10.7099
▁soul	-10.71
▁infants	-10.7101
▁settlement	-10.7102
▁nails	-10.7103
▁$22	-10.7106
▁revolution	-10.7108
▁su	-10.7109
▁trachea	-10.7113
▁rear	-10.7114
▁tweet	-10.7114
ey	-10.7115
▁salivary	-10.7115
▁shapes	-10.7116
▁elevated	-10.7116
▁salad	-10.7117
▁usd	-10.712
▁regulations	-10.7125
▁conference	-10.7126
▁microorganisms	-10.7127
cho	-10.7132
▁tasks	-10.7132
ku	-10.7134
▁parathyroid	-10.7138
▁serum	-10.7139
▁filling	-10.7148
▁omega	-10.715
ura	-10.7156
▁interaction	-10.7161
▁pelvic	-10.7161
▁mushrooms	-10.7171
▁sitting	-10.7174
▁hardware	-10.7174
▁boiled	-10.7175
▁assessment	-10.7176
▁laptop	-10.7179
▁deliver	-10.7185
▁].	-10.7189
▁crop	-10.7207
▁weighs	-10.7207
▁facial	-10.7207
▁assume	-10.721
▁tb	-10.7211
▁veterinary	-10.7214
▁acres	-10.7219
▁recover	-10.722
▁partner	-10.7223
▁excel	-10.7226
▁asset	-10.7227
▁bra	-10.7227
▁library	-10.7234
69	-10.7235
▁bears	-10.7236
▁discount	-10.7242
▁buyer	-10.7244
▁42	-10.7245
▁disk	-10.7249
▁absence	-10.725
▁maybe	-10.7261
▁cor	-10.7264
▁competitive	-10.7269
▁poison	-10.7271
▁draw	-10.7273
▁embryo	-10.7275
▁networks	-10.7275
28	-10.729
▁bacon	-10.7292
▁chosen	-10.7293
▁$4,000	-10.7293
▁barley	-10.7299
sy	-10.7312
57	-10.7313
▁5%	-10.7314
▁assistance	-10.7315
▁mary	-10.7321
▁fracture	-10.7324
▁discussion	-10.7329
▁trusted	-10.7333
▁thanks	-10.7337
▁tape	-10.7338
▁secure	-10.7339
▁rural	-10.7339
▁providers	-10.7343
▁kit	-10.7344
▁reaching	-10.7349
▁sim	-10.7352
3%	-10.7353
▁hardwood	-10.7359
ck	-10.7363
▁fda	-10.7363
▁sport	-10.7368
ella	-10.7368
▁sylls	-10.7372
bu	-10.7374
▁trouble	-10.7375
▁freshwater	-10.7376
▁fashion	-10.7376
house	-10.7377
▁draft	-10.738
▁utility	-10.7381
▁alkaline	-10.7381
▁assembly	-10.7382
▁singapore	-10.7382
▁pronunciation	-10.7383
▁tower	-10.7398
▁magazine	-10.7405
81	-10.7406
▁moment	-10.7408
▁gut	-10.741
▁skull	-10.7411
▁elbow	-10.7413
▁eukaryotes	-10.7418
91	-10.7419
▁decisions	-10.742
▁competition	-10.7423
ene	-10.7426
-5	-10.743
▁skill	-10.7431
▁vaccines	-10.7436
month	-10.7438
▁relevant	-10.7441
▁trace	-10.7443
▁sam	-10.7444
▁lightly	-10.7445
▁irritation	-10.7447
▁squash	-10.7447
▁140	-10.7448
▁arranged	-10.7455
jo	-10.7455
▁puppies	-10.7459
era	-10.746
▁preventing	-10.7462
▁supreme	-10.7465
▁illnesses	-10.7469
ius	-10.747
▁skeleton	-10.7471
made	-10.7473
▁lie	-10.7475
▁serotonin	-10.7477
▁ginger	-10.7477
▁aim	-10.7478
▁philosophy	-10.7478
ford	-10.7479
▁vertebrates	-10.748
▁twenty	-10.7495
▁principle	-10.7498
▁attach	-10.7502
tes	-10.7506
▁silk	-10.7507
tra	-10.751
▁(10	-10.751
▁ldl	-10.7514
▁seller	-10.7517
▁genetically	-10.7517
▁holes	-10.7519
▁thumb	-10.752
▁onset	-10.7521
▁$21	-10.7522
▁ordered	-10.7523
▁illegal	-10.7526
▁supports	-10.7528
▁gpa	-10.753
▁instruments	-10.753
they	-10.7532
,200	-10.7533
92	-10.7535
▁circular	-10.7538
▁boost	-10.754
▁cremation	-10.7544
inflammatory	-10.7544
▁hiring	-10.7544
▁mouse	-10.7552
▁dwarf	-10.7552
▁marble	-10.7556
su	-10.7561
▁epidermis	-10.7565
▁$24	-10.7571
▁trained	-10.7572
▁brother	-10.7573
▁rising	-10.7575
▁considering	-10.7582
▁immediate	-10.7582
9%	-10.7583
▁dragon	-10.7585
ative	-10.7586
▁classical	-10.7586
gov	-10.7588
click	-10.7588
▁bands	-10.7589
▁upload	-10.7593
▁strains	-10.7594
▁pen	-10.7595
▁ultimately	-10.7596
▁tablespoon	-10.7597
▁apartment	-10.7599
▁rs	-10.7601
▁max	-10.7605
▁indonesia	-10.7606
king	-10.7607
▁killed	-10.7609
▁indiana	-10.761
▁corresponding	-10.7614
▁jewelry	-10.7617
▁du	-10.762
▁$2,500	-10.762
▁25%	-10.762
▁0.5	-10.7622
▁graph	-10.7623
▁decades	-10.7624
▁2010,	-10.7624
▁plaque	-10.7629
▁camp	-10.7629
▁fishing	-10.7632
ery	-10.7637
▁reproduce	-10.764
▁rocky	-10.764
▁acting	-10.7641
▁$28	-10.7641
▁spinach	-10.7642
▁bind	-10.7644
▁md	-10.7644
▁everyday	-10.7647
56	-10.7648
▁insulation	-10.7649
-6	-10.765
▁bo	-10.7655
▁tar	-10.7659
▁talking	-10.766
▁survival	-10.766
▁expert	-10.7662
name	-10.7666
ot	-10.768
▁marks	-10.7683
▁transition	-10.7684
▁audio	-10.7685
▁adjacent	-10.7685
▁basketball	-10.7685
▁peppers	-10.769
▁heritage	-10.7691
▁saint	-10.7692
▁offices	-10.7692
▁anesthesia	-10.7694
▁coldest	-10.7695
▁vacuum	-10.7697
▁aids	-10.7698
▁brake	-10.7699
▁happy	-10.7699
▁sufficient	-10.7701
▁hired	-10.7705
▁continued	-10.7708
▁teams	-10.771
▁sector	-10.7714
ang	-10.7717
▁sentences	-10.772
-12	-10.7722
▁$800	-10.7723
▁effectively	-10.7724
▁ram	-10.7725
▁hydro	-10.7726
▁velocity	-10.7728
▁accept	-10.7733
▁platelets	-10.7736
▁decided	-10.7739
▁relation	-10.7745
62	-10.7746
cu	-10.7747
▁sunday	-10.7747
▁variables	-10.7749
▁mars	-10.7751
bound	-10.7752
▁reticulum	-10.7753
82	-10.7753
▁stronger	-10.7757
▁constitutional	-10.7759
▁pollution	-10.776
▁extraction	-10.7763
ities	-10.7764
▁indicated	-10.7765
uri	-10.7766
▁es	-10.7771
▁hollow	-10.7772
ji	-10.7773
▁chickens	-10.7775
cost	-10.7775
▁semester	-10.778
▁cage	-10.778
km	-10.7787
▁basal	-10.7788
▁studied	-10.7791
▁wool	-10.7793
▁error	-10.7796
▁environments	-10.78
▁fructose	-10.7803
▁1950	-10.7805
▁feminine	-10.7805
▁www	-10.7808
▁cramps	-10.7811
▁massage	-10.7824
▁seek	-10.7825
▁jaw	-10.7828
09	-10.7828
▁detail	-10.7829
▁ho	-10.7833
▁administered	-10.7833
▁bulk	-10.7835
▁belief	-10.7843
▁soup	-10.7844
▁gasoline	-10.7847
▁abbreviation	-10.7853
art	-10.7857
▁ulcers	-10.7857
▁evolved	-10.7858
▁chile	-10.7864
▁soap	-10.7865
02	-10.7866
ea	-10.7868
▁tight	-10.7869
▁framework	-10.7873
white	-10.7875
▁smart	-10.7875
▁800	-10.7883
▁brands	-10.7883
ile	-10.7888
▁dough	-10.7889
▁sin	-10.7893
▁/ˈ	-10.7896
▁martin	-10.7904
▁binds	-10.7911
41	-10.7911
▁physics	-10.7915
▁2016	-10.7917
ez	-10.792
▁travels	-10.7922
▁exclusive	-10.7926
▁vaccination	-10.7934
▁versions	-10.7938
star	-10.7946
▁resin	-10.7946
▁legumes	-10.7947
▁evaluate	-10.7953
▁tradition	-10.7954
▁wings	-10.7956
▁pets	-10.7957
▁46	-10.7961
▁payscale	-10.7964
83	-10.7965
▁2006	-10.797
▁sha	-10.797
▁reflect	-10.797
▁felt	-10.7973
▁resident	-10.7975
▁manual	-10.7977
▁gate	-10.7979
ada	-10.798
▁ontario	-10.798
▁3-4	-10.798
▁vagina	-10.7981
▁residency	-10.7986
▁fried	-10.7992
▁explains	-10.7994
▁secret	-10.7994
▁heater	-10.7996
▁slide	-10.7996
▁heated	-10.7997
▁strep	-10.7998
▁gone	-10.8005
▁scar	-10.8007
▁template	-10.801
▁leafy	-10.8016
▁breathe	-10.8022
▁enable	-10.8023
▁towns	-10.8025
▁acne	-10.8025
▁tour	-10.8026
ut	-10.8029
▁eruption	-10.8029
▁rings	-10.8031
▁jupiter	-10.8033
▁recommends	-10.8033
par	-10.8035
▁$15,000	-10.8043
▁decreases	-10.8045
▁aspect	-10.8046
▁shield	-10.8047
av	-10.8048
▁pharmacist	-10.8048
3,	-10.805
▁keeps	-10.805
▁estrogen	-10.8052
▁30%	-10.8056
▁netherlands	-10.8057
▁equals	-10.8057
▁gravel	-10.8057
▁legislation	-10.8063
▁10,000	-10.8067
▁comfortable	-10.8073
▁artists	-10.8075
head	-10.8075
▁relationships	-10.8078
▁johnson	-10.8079
▁performing	-10.8082
▁detected	-10.8085
ney	-10.8085
class	-10.8086
▁himself	-10.8089
▁grew	-10.8096
▁outdoor	-10.8101
▁microscopic	-10.8111
▁advantages	-10.8113
▁trigger	-10.8113
▁seizures	-10.8114
▁putting	-10.8119
▁attend	-10.812
▁delicious	-10.8121
▁java	-10.8122
▁entering	-10.8122
▁massive	-10.8124
▁deciduous	-10.8128
▁jump	-10.8133
▁jan	-10.8142
long	-10.8149
-10	-10.815
▁guinea	-10.8153
▁egyptian	-10.8154
▁underground	-10.8163
▁celtic	-10.8163
▁deductible	-10.8164
▁referr	-10.8166
▁explore	-10.8166
ship	-10.8166
▁valuable	-10.8166
▁tan	-10.8171
▁discovery	-10.8172
▁tons	-10.8175
▁cruise	-10.818
ob	-10.8186
▁oxidation	-10.8186
▁cycles	-10.8186
▁particle	-10.819
ification	-10.8191
▁conducted	-10.8192
▁latitude	-10.8198
▁malaria	-10.8199
▁averaged	-10.82
▁discuss	-10.8202
▁gravity	-10.8202
▁$65	-10.8204
▁entered	-10.8205
▁repeat	-10.8208
▁supporting	-10.8209
▁gun	-10.8222
▁nuclei	-10.8225
▁plug	-10.8225
▁rinse	-10.8225
▁machines	-10.8226
ible	-10.8226
▁sensor	-10.8227
tan	-10.8229
ju	-10.8234
▁explorer	-10.8237
▁doors	-10.8238
▁divorce	-10.8241
▁mining	-10.8242
sen	-10.8243
▁soviet	-10.8253
▁shelf	-10.8255
▁polish	-10.8261
▁shoes	-10.8274
▁regarded	-10.8276
▁1999	-10.8283
71	-10.8286
ola	-10.8287
▁pizza	-10.8297
▁truth	-10.8298
▁learners	-10.8298
▁baseball	-10.8299
set	-10.8308
▁intensity	-10.831
▁rainforest	-10.8312
▁nfl	-10.8312
▁chamber	-10.8318
▁populations	-10.8319
▁nile	-10.8321
▁influenza	-10.8327
▁exterior	-10.833
▁shopping	-10.833
5°	-10.8336
▁election	-10.8338
▁irregular	-10.8338
▁infant	-10.8339
▁redness	-10.8346
▁packages	-10.8347
ep	-10.8349
08	-10.8349
▁mon	-10.8352
,300	-10.8354
.”	-10.8358
▁trend	-10.836
▁extracted	-10.8371
▁shrimp	-10.8376
▁abstract	-10.8376
▁floors	-10.8378
▁usb	-10.8386
▁displayed	-10.8387
▁hypo	-10.8396
▁dinner	-10.8397
▁glycogen	-10.8403
4.	-10.8404
▁iii	-10.8407
air	-10.8411
▁deals	-10.8412
▁oceans	-10.8419
▁mustard	-10.8421
▁accompanied	-10.8423
▁literary	-10.8423
▁factory	-10.8424
▁ny	-10.8431
▁bags	-10.8431
▁concentrated	-10.8435
▁gelatin	-10.8435
▁stuff	-10.8436
▁$26	-10.844
▁confirm	-10.8446
,900	-10.8449
read	-10.8449
1,000	-10.845
▁saying	-10.845
▁amazing	-10.8456
▁ended	-10.8459
▁bonuses	-10.8461
▁establish	-10.8461
▁spiritual	-10.8462
gy	-10.8468
▁reporting	-10.8469
▁ur	-10.8469
▁ethanol	-10.8475
▁neuro	-10.8477
▁victoria	-10.8482
▁agricultural	-10.8483
▁widespread	-10.8483
▁fo	-10.8488
▁shift	-10.8498
▁junction	-10.8501
▁traveling	-10.8504
▁definitions	-10.8504
▁germ	-10.8505
▁cranial	-10.8513
▁sheets	-10.8516
▁39	-10.8518
▁manufacture	-10.852
2%	-10.8521
bra	-10.8521
▁distinguish	-10.8524
▁aside	-10.8529
▁isolated	-10.8533
76	-10.8536
▁therapists	-10.8537
ino	-10.8542
▁pathway	-10.8542
▁metric	-10.8545
▁tablet	-10.8547
▁reasonable	-10.8549
▁writer	-10.8549
▁manufacturers	-10.8551
.25	-10.8554
▁rotation	-10.8555
▁pathogens	-10.8558
▁adj	-10.8559
▁adds	-10.8559
▁crude	-10.8559
tor	-10.856
▁foam	-10.8561
▁taxable	-10.8562
1.	-10.8563
▁partially	-10.8563
▁seattle	-10.8564
44	-10.8565
▁tiles	-10.8567
zi	-10.8567
▁checks	-10.8568
▁comment	-10.8569
▁passage	-10.8578
▁stays	-10.858
▁experiment	-10.858
▁transplant	-10.858
▁inorganic	-10.8584
▁launch	-10.8588
▁80%	-10.859
▁whom	-10.859
▁communicate	-10.859
▁bur	-10.8594
▁responsibility	-10.8597
▁mucous	-10.8597
▁safely	-10.8601
▁spores	-10.861
▁poem	-10.8611
hand	-10.8611
.”.	-10.8614
▁usda	-10.8614
▁ownership	-10.8618
▁reform	-10.8619
▁hide	-10.862
▁diaphragm	-10.8621
▁quote	-10.8621
▁printer	-10.8622
▁clause	-10.8624
▁prokaryotic	-10.8624
▁sinus	-10.8625
▁accredited	-10.8627
▁headaches	-10.863
4%	-10.8631
▁tightly	-10.8636
▁spider	-10.8637
▁producer	-10.8638
sha	-10.8638
work	-10.8643
▁cancel	-10.8643
▁keyboard	-10.8647
▁universities	-10.8647
▁melting	-10.8648
source	-10.8648
▁correctly	-10.8651
4,	-10.8652
▁navy	-10.8653
▁atrium	-10.8654
▁substitute	-10.8655
▁valves	-10.8656
▁iv	-10.8658
▁electromagnetic	-10.8659
53	-10.8664
▁termed	-10.8664
▁houston	-10.8665
▁remote	-10.8667
▁urea	-10.8668
26	-10.8668
▁sausage	-10.8669
▁visitors	-10.867
▁lesson	-10.867
▁speakers	-10.8675
▁dorsal	-10.8675
▁dress	-10.8677
▁advertising	-10.8679
range	-10.8685
▁hen	-10.8686
▁chickenpox	-10.8688
▁episode	-10.8688
▁influenced	-10.8689
▁booster	-10.8692
▁consistent	-10.8695
pen	-10.8699
▁limb	-10.8701
▁checking	-10.8702
▁$55	-10.8706
▁pelvis	-10.8706
▁lens	-10.8707
▁ob	-10.871
▁eagle	-10.8711
51	-10.8712
▁dentist	-10.8712
▁certainly	-10.8716
▁views	-10.8723
▁medial	-10.8723
▁insect	-10.8729
▁ban	-10.8735
▁rh	-10.8738
▁diversity	-10.874
▁borders	-10.8745
▁ancestor	-10.8748
▁ending	-10.8756
ud	-10.876
▁itunes	-10.8761
▁arrangement	-10.877
▁designated	-10.8771
▁inserted	-10.8771
-20	-10.8779
point	-10.8782
▁poetry	-10.8782
tal	-10.8782
▁obvious	-10.8784
▁greens	-10.8784
▁peru	-10.8784
▁evolution	-10.8786
fer	-10.8786
▁opportunities	-10.8789
06	-10.8789
ker	-10.8792
▁constructed	-10.8794
ven	-10.8797
▁52	-10.88
▁$23	-10.8801
▁(2000	-10.8801
▁tech	-10.8802
▁worn	-10.8803
▁fibrosis	-10.8809
▁;	-10.8813
▁retina	-10.8814
▁slice	-10.8817
pl	-10.8817
ins	-10.882
▁2003	-10.8827
▁strongly	-10.8828
▁guarantee	-10.8837
▁za	-10.884
▁winds	-10.8843
▁dedicated	-10.8845
▁evaluation	-10.8854
▁sexually	-10.8854
ica	-10.8855
▁ride	-10.8858
▁seafood	-10.8859
5%	-10.8862
▁adenine	-10.8864
▁knowing	-10.8867
▁pays	-10.8873
tus	-10.8875
▁endoplasmic	-10.8879
▁planted	-10.8879
-18	-10.888
▁trim	-10.888
▁lender	-10.8884
▁maryland	-10.8886
▁del	-10.8887
▁affordable	-10.8887
▁expand	-10.8892
▁dallas	-10.8893
▁tag	-10.8894
ding	-10.8898
▁wildlife	-10.8901
▁rooms	-10.8901
▁bilirubin	-10.8907
oli	-10.8908
▁smith	-10.891
▁computers	-10.891
▁topic	-10.891
▁chloroplasts	-10.891
▁ordinary	-10.8916
0.	-10.892
▁arrival	-10.8921
cell	-10.8921
▁designs	-10.8921
▁secrete	-10.8922
▁leather	-10.8923
▁privacy	-10.8923
▁insoluble	-10.8925
▁choices	-10.8927
▁llc	-10.8928
▁considerably	-10.8928
▁concentrations	-10.8929
▁courts	-10.8934
▁globe	-10.8935
du	-10.8935
▁pdf	-10.8937
▁simmer	-10.8938
▁fasting	-10.8941
▁restore	-10.8948
▁asparagus	-10.8949
▁minister	-10.8949
▁enterprise	-10.8954
▁defines	-10.8959
▁journey	-10.8968
▁helped	-10.8969
▁expansion	-10.897
▁definitely	-10.8972
▁ahead	-10.8973
▁ver	-10.8973
▁integrated	-10.8975
▁secretary	-10.8977
▁improvement	-10.8978
▁diploma	-10.8982
▁stories	-10.8984
▁citizen	-10.8985
▁44	-10.8987
▁lock	-10.899
▁atmospheric	-10.8991
▁suggested	-10.8999
▁trademark	-10.9004
2,000	-10.9006
▁quantities	-10.9012
▁residence	-10.9012
▁endangered	-10.9019
▁panels	-10.9023
emia	-10.9028
▁journal	-10.9036
▁shade	-10.9038
dr	-10.9044
▁delivered	-10.9044
▁norway	-10.9055
▁shi	-10.9056
▁laid	-10.9057
ning	-10.9059
▁cad	-10.9063
$1	-10.9066
▁connecting	-10.9068
▁ease	-10.9068
▁belonging	-10.9072
▁recognize	-10.9072
▁lion	-10.9073
▁vietnam	-10.9076
▁array	-10.9078
▁capture	-10.908
▁assigned	-10.9082
▁tickets	-10.9083
▁450	-10.9086
▁edges	-10.9088
▁interact	-10.9091
pan	-10.9094
▁purchasing	-10.9097
▁monday	-10.9098
▁horizontal	-10.9101
▁radon	-10.9105
dis	-10.9108
▁sister	-10.9112
▁pitch	-10.9113
3,000	-10.9118
▁rubber	-10.9121
▁pl	-10.9123
▁ki	-10.9125
▁credits	-10.9125
▁kilowatt	-10.9126
▁combines	-10.9131
▁suffer	-10.9133
▁methane	-10.9135
▁grasslands	-10.9139
▁coral	-10.914
▁mate	-10.914
▁newborn	-10.9142
▁tuna	-10.9144
▁blog	-10.9148
▁spin	-10.9149
▁backbone	-10.915
ara	-10.9156
mail	-10.9157
▁distinguished	-10.9159
▁granted	-10.9162
▁drainage	-10.9163
▁$29	-10.9164
▁audit	-10.9169
▁1920	-10.9173
▁colorless	-10.9177
▁empty	-10.9179
▁fertile	-10.9183
▁invention	-10.9191
▁triglycerides	-10.9191
▁gout	-10.9193
▁$39	-10.9194
▁2011.	-10.9196
2)	-10.9198
▁markets	-10.92
▁pit	-10.9201
▁mor	-10.9201
1%	-10.9214
▁testosterone	-10.9215
war	-10.9218
▁bills	-10.9219
▁tuberculosis	-10.922
▁intelligence	-10.922
▁perspective	-10.9226
▁applicants	-10.9229
▁returned	-10.923
▁sole	-10.923
▁mythology	-10.9233
▁clot	-10.9234
ru	-10.9234
▁wants	-10.9236
▁3.5	-10.924
▁universe	-10.9241
▁careful	-10.9245
▁inflamed	-10.9248
▁merge	-10.9259
table	-10.926
▁confusion	-10.9262
▁$125	-10.9264
zz	-10.9264
▁experiences	-10.9268
▁shakespeare	-10.9275
▁phenomenon	-10.9277
▁plains	-10.9283
▁candida	-10.9284
▁broccoli	-10.9284
▁staphylococcus	-10.9284
▁(/ˈ	-10.9284
▁conditioner	-10.9287
ward	-10.9293
▁indicator	-10.9293
▁siding	-10.9294
▁voluntary	-10.9294
ical	-10.9295
▁herpes	-10.9297
▁ill	-10.9301
▁beverages	-10.9302
▁125	-10.9303
▁comfort	-10.9304
▁1%	-10.9308
▁ms	-10.9308
▁ammonia	-10.9313
▁tu	-10.9314
▁thread	-10.9314
▁defect	-10.9315
▁ranks	-10.9319
▁persian	-10.9323
▁assess	-10.9324
▁hpv	-10.9324
▁calculation	-10.933
▁epi	-10.933
▁ju	-10.9333
▁readily	-10.9335
▁compression	-10.9338
▁cha	-10.9339
▁songs	-10.934
aka	-10.934
▁apples	-10.9341
▁calling	-10.9343
▁predators	-10.9343
▁intermediate	-10.9344
▁1-2	-10.9348
▁49	-10.9349
▁missouri	-10.9349
▁technically	-10.935
▁unfortunately	-10.935
cent	-10.9353
▁alabama	-10.9357
▁complicated	-10.9357
▁triple	-10.9359
▁hawaiian	-10.9361
▁existence	-10.9364
▁sediment	-10.9367
▁multicellular	-10.9372
▁deviation	-10.9372
63	-10.9373
▁theatre	-10.9373
▁ya	-10.9373
▁lighter	-10.9374
▁surgeons	-10.938
▁adequate	-10.9381
▁nba	-10.9385
▁comprises	-10.9397
ong	-10.9399
▁lumbar	-10.9401
▁louis	-10.9402
100	-10.9402
▁sores	-10.9405
nia	-10.9412
▁simplest	-10.9412
▁repeated	-10.9414
▁styles	-10.9415
▁israel	-10.9419
▁psychologists	-10.9426
▁messenger	-10.9431
▁stamp	-10.9433
▁react	-10.9434
▁proportion	-10.9436
▁minnesota	-10.9437
▁leadership	-10.9438
▁practitioners	-10.9438
ware	-10.9441
▁falling	-10.9443
▁cinnamon	-10.9445
▁sch	-10.9445
▁bonded	-10.9446
▁renewal	-10.9447
ow	-10.9448
home	-10.9449
▁scheme	-10.9449
▁differs	-10.9458
carbon	-10.9459
▁academy	-10.946
nes	-10.946
▁cooler	-10.9462
▁130	-10.9466
▁thymine	-10.9467
▁entitled	-10.9468
▁(8	-10.9468
▁ro	-10.947
yn	-10.9473
▁gym	-10.9474
▁com	-10.9475
ade	-10.9476
▁tried	-10.9477
▁dopamine	-10.9482
▁overhead	-10.9483
▁formerly	-10.9483
▁measles	-10.9484
▁melt	-10.9485
rum	-10.9489
▁implant	-10.9489
▁forced	-10.9493
▁interview	-10.9494
▁destroy	-10.9496
▁none	-10.9496
▁ceramic	-10.9497
▁pancreatic	-10.9498
▁tattoo	-10.9501
03	-10.9502
ions	-10.9506
▁145	-10.9506
▁maple	-10.9509
▁needle	-10.9512
▁transmit	-10.9513
ole	-10.9514
▁belly	-10.9518
▁cabbage	-10.9519
▁tablespoons	-10.9521
▁40%	-10.9522
52	-10.9522
▁oxygenated	-10.9523
▁47474	-10.9526
6,	-10.9534
▁lip	-10.9535
▁burns	-10.9537
▁reviews	-10.9537
▁triangle	-10.9541
▁andrew	-10.9542
▁sal	-10.9546
▁rhythm	-10.9546
▁surrounds	-10.9549
▁derives	-10.955
sometimes	-10.9552
right	-10.9555
▁ipad	-10.9555
▁goddess	-10.9555
▁antioxidants	-10.9556
▁stability	-10.9557
▁norman	-10.9558
▁laying	-10.9559
▁$90	-10.956
especially	-10.956
▁15%	-10.9561
▁relations	-10.9563
▁mu	-10.9564
▁successfully	-10.9566
▁readers	-10.9567
▁vacation	-10.9571
▁las	-10.9574
▁chemically	-10.9575
▁glue	-10.9576
▁warts	-10.9578
▁protists	-10.9578
▁geo	-10.9579
▁$33	-10.9585
▁similarly	-10.9585
▁$27	-10.9587
▁metallic	-10.9589
▁uniform	-10.9591
mat	-10.9591
▁neither	-10.9594
200	-10.9595
ken	-10.9597
▁newly	-10.96
▁representation	-10.9604
▁contractions	-10.9606
▁fibre	-10.9607
▁criteria	-10.9608
▁desktop	-10.9623
grade	-10.9625
▁concepts	-10.9627
▁waiting	-10.963
▁genetics	-10.9632
▁historic	-10.9635
▁stimulates	-10.9635
▁claimed	-10.9636
ach	-10.9638
▁explanation	-10.9638
▁worry	-10.9646
▁jet	-10.9648
bit	-10.9648
ence	-10.9649
▁implants	-10.9649
▁pyramid	-10.965
▁prokaryotes	-10.9653
▁applicable	-10.9653
▁judge	-10.9655
▁cystic	-10.9656
▁evenly	-10.9658
▁parliament	-10.966
▁optimal	-10.9661
▁evening	-10.9662
94	-10.9662
▁patch	-10.9663
▁athletes	-10.9666
▁au	-10.9669
▁cereals	-10.967
▁dynamic	-10.9672
▁1998	-10.9673
▁constantly	-10.9673
▁reef	-10.9675
▁drywall	-10.9678
▁soak	-10.9678
▁passive	-10.9678
▁thumbs	-10.9679
gram	-10.9685
▁mainland	-10.9685
▁civilization	-10.9685
▁fastest	-10.9686
▁nephron	-10.9691
ros	-10.9691
▁dimensions	-10.9692
▁bonding	-10.9692
▁fa	-10.9694
▁($	-10.9698
united	-10.9701
▁$34	-10.9703
▁campaign	-10.9714
nu	-10.9716
amine	-10.9719
▁risks	-10.9719
▁mud	-10.9719
ris	-10.972
▁crack	-10.9721
▁kentucky	-10.9721
▁dividing	-10.9721
▁equity	-10.9724
▁flags	-10.9725
▁athletic	-10.9729
▁trading	-10.9729
▁signature	-10.9729
▁combustion	-10.9731
▁citrus	-10.9732
▁spasms	-10.9733
▁ky	-10.9735
▁iq	-10.9737
dia	-10.9742
▁saving	-10.9742
▁eczema	-10.9744
▁injured	-10.9746
4,000	-10.9749
▁drawn	-10.975
▁approval	-10.9751
▁sunshine	-10.9752
▁helix	-10.9756
▁automatic	-10.9759
▁choosing	-10.9759
▁ecosystem	-10.976
▁opt	-10.9763
med	-10.977
01	-10.9773
▁operates	-10.978
▁rail	-10.978
▁flying	-10.9782
▁2005	-10.9784
part	-10.9785
▁platform	-10.9786
▁louisiana	-10.979
ag	-10.9792
▁controlling	-10.9792
▁achieved	-10.9793
▁temporal	-10.9794
▁printing	-10.9796
▁configuration	-10.9797
▁furnace	-10.9799
▁2010.	-10.9802
▁workout	-10.9803
▁ridge	-10.9803
bb	-10.9807
light	-10.9808
▁99	-10.9809
▁bush	-10.981
▁campus	-10.9814
▁varied	-10.9815
are	-10.982
▁twelve	-10.982
▁truly	-10.9822
▁organelle	-10.9822
▁deeper	-10.9823
▁squamous	-10.9828
▁hills	-10.9829
▁christ	-10.9829
▁dehydration	-10.9836
▁legally	-10.9836
▁$1,200	-10.9837
▁1997	-10.9837
▁turtles	-10.9837
▁historically	-10.9838
▁brings	-10.984
mus	-10.9843
▁indigenous	-10.9846
style	-10.985
▁recording	-10.9851
▁metre	-10.9855
▁pokemon	-10.9859
▁sear	-10.9862
▁fatal	-10.9866
base	-10.9872
▁edition	-10.9874
▁scalp	-10.9874
▁sciences	-10.9874
▁rays	-10.9874
▁dc	-10.9878
▁adjusted	-10.9879
▁slight	-10.9881
▁patches	-10.9885
▁jewish	-10.9885
▁latter	-10.9891
▁hypertension	-10.9894
▁candidates	-10.9896
▁dirt	-10.9901
7%	-10.9905
▁bringing	-10.9906
dna	-10.9912
▁declaration	-10.9913
▁transported	-10.9918
▁vegetation	-10.9928
▁judgment	-10.9936
▁subspecies	-10.9936
▁obesity	-10.9944
▁berries	-10.9944
▁strip	-10.9947
▁parks	-10.9951
▁pumps	-10.9953
log	-10.9954
▁fed	-10.9954
▁indoor	-10.9955
▁700	-10.9956
ric	-10.9957
ima	-10.9957
▁autonomic	-10.9959
▁$41	-10.996
▁exit	-10.9967
▁familiarity	-10.9969
▁fi	-10.997
law	-10.9972
▁cyst	-10.9974
▁emperor	-10.9975
▁sweden	-10.9975
▁highway	-10.9977
▁lump	-10.9977
▁balanced	-10.9978
▁aquatic	-10.9979
▁destruction	-10.9982
ned	-10.9982
▁arise	-10.9984
positive	-10.9989
▁directors	-10.999
▁richard	-10.9991
▁blow	-10.9994
pound	-10.9996
▁easiest	-10.9998
▁uber	-10.9999
▁missing	-10.9999
box	-11.0001
▁95	-11.0001
▁orders	-11.0002
▁iceland	-11.0007
▁deserts	-11.0008
late	-11.001
aw	-11.0014
▁transform	-11.0016
▁blisters	-11.0018
cap	-11.0021
▁superficial	-11.0021
▁drawing	-11.0024
▁banana	-11.0026
▁alloy	-11.0026
▁hereditary	-11.0029
▁sits	-11.003
▁lesser	-11.0033
▁enlarged	-11.0033
▁checked	-11.0036
▁aging	-11.0038
gs	-11.0039
▁62	-11.004
▁nearest	-11.0041
▁$32	-11.0043
▁indirect	-11.0043
▁democracy	-11.0045
▁synthesized	-11.0049
▁fans	-11.0049
▁kansas	-11.0053
meter	-11.0053
▁enclosed	-11.0055
▁moral	-11.0056
▁fu	-11.0056
▁reliable	-11.0061
▁vector	-11.0064
74	-11.0064
▁bedroom	-11.0067
▁(7	-11.0068
▁hang	-11.0069
▁copyright	-11.0069
▁polymers	-11.0069
▁cone	-11.0072
▁analyst	-11.0073
▁aortic	-11.0077
▁chair	-11.0079
▁hypothyroidism	-11.008
▁enhance	-11.0093
▁evergreen	-11.0093
▁margin	-11.0095
▁mal	-11.0098
▁flesh	-11.01
▁showed	-11.01
▁sar	-11.0101
ball	-11.0102
▁graduates	-11.0105
▁hidden	-11.0108
▁destroyed	-11.011
▁climates	-11.011
▁bearing	-11.0111
yourself	-11.0113
▁scales	-11.0114
cut	-11.0115
▁horn	-11.0116
▁$25,000	-11.0116
▁$700	-11.0116
▁posts	-11.012
▁ran	-11.0121
▁possess	-11.0121
ik	-11.0122
▁watts	-11.0122
▁heads	-11.0125
▁pediatric	-11.0128
▁videos	-11.0129
▁dating	-11.013
▁oh	-11.013
▁tennessee	-11.0131
▁raising	-11.0132
▁passenger	-11.0137
▁fe	-11.0138
▁leukemia	-11.0139
▁cavities	-11.0139
▁$40,000	-11.0139
▁resolution	-11.0139
▁chlorine	-11.014
6,000	-11.014
ming	-11.0141
our	-11.0142
▁examine	-11.0142
▁licensing	-11.0142
rt	-11.0144
▁deduct	-11.0146
▁understood	-11.0147
▁$36	-11.0147
▁consuming	-11.0149
▁turtle	-11.0153
▁entertainment	-11.0155
▁dip	-11.0156
▁blocked	-11.0156
▁carriers	-11.0157
▁focuses	-11.0157
cp	-11.0158
▁sucrose	-11.0159
▁gastric	-11.0161
▁measurements	-11.0163
▁alcoholic	-11.0163
pr	-11.0165
▁alleles	-11.0166
▁pilot	-11.0167
▁bpm	-11.017
▁ri	-11.0171
ec	-11.0175
▁frank	-11.0181
▁launched	-11.0182
▁tourist	-11.0182
▁teach	-11.0182
▁samples	-11.0182
▁lesions	-11.0186
▁turmeric	-11.0187
▁miami	-11.0187
▁1996	-11.0188
▁peter	-11.019
nus	-11.0192
▁59	-11.0193
▁streptococcus	-11.0195
step	-11.0195
▁reptiles	-11.0197
▁wonderful	-11.0197
▁channels	-11.0198
▁fertilizer	-11.0203
average	-11.0211
▁poland	-11.0212
▁contacts	-11.0214
▁flash	-11.0216
▁script	-11.0217
▁connecticut	-11.0219
▁butterfly	-11.0219
▁pt	-11.0219
▁cultivated	-11.0219
▁assisted	-11.022
▁tone	-11.0224
ging	-11.0225
responsibilities	-11.0227
ero	-11.0235
▁continents	-11.0235
▁slavery	-11.024
▁contractors	-11.0243
▁germinate	-11.0246
▁mississippi	-11.0247
▁sh	-11.0253
9.	-11.0253
▁shells	-11.0255
▁defects	-11.0257
▁mill	-11.0264
▁tub	-11.0267
▁beaches	-11.0267
▁fetus	-11.0268
▁heartbeat	-11.0268
▁broth	-11.0273
▁mad	-11.0273
▁antioxidant	-11.0274
▁grape	-11.0276
ib	-11.028
▁64	-11.029
▁husband	-11.029
▁marginal	-11.0293
▁decade	-11.0297
▁priced	-11.0298
▁expectancy	-11.0299
▁joseph	-11.0301
▁virtually	-11.0303
▁accident	-11.0303
▁packaging	-11.0307
▁comprised	-11.0314
▁router	-11.0314
▁schizophrenia	-11.0315
▁monitoring	-11.032
▁worm	-11.0324
ini	-11.0325
▁ti	-11.033
▁attractive	-11.0331
▁habitats	-11.0339
▁medieval	-11.0339
▁wisconsin	-11.0339
cor	-11.0339
ious	-11.0341
▁compact	-11.0346
▁additionally	-11.0347
▁upwards	-11.035
▁clothes	-11.0352
ram	-11.0352
▁cape	-11.0352
ig	-11.0354
▁somatic	-11.036
▁tunnel	-11.0363
▁inflation	-11.0363
ira	-11.0367
▁sir	-11.0368
▁behavioral	-11.0371
▁subsequent	-11.0375
istic	-11.0375
▁macro	-11.0378
▁acronym	-11.0378
▁stimulus	-11.0379
▁erosion	-11.0379
▁warranty	-11.0381
▁hat	-11.0389
▁festival	-11.0397
▁candidate	-11.0398
▁incorporated	-11.04
▁rainforests	-11.0401
figure	-11.0402
▁numbness	-11.0404
▁$350	-11.0405
▁ku	-11.0406
▁boiler	-11.041
▁noble	-11.0419
▁ovaries	-11.042
▁assuming	-11.0422
▁random	-11.0423
▁guitar	-11.0426
▁conflict	-11.0427
▁char	-11.0433
.99	-11.0435
ls	-11.0436
▁microscope	-11.0436
▁offspring	-11.0437
▁separates	-11.0438
▁portuguese	-11.0438
▁stretching	-11.0439
▁arrive	-11.0444
▁eliminate	-11.0445
▁abbreviated	-11.0449
▁perfectly	-11.0451
▁whales	-11.0458
▁clock	-11.0462
▁admission	-11.0463
▁lights	-11.0464
▁moss	-11.0464
▁professors	-11.0466
▁nevada	-11.0469
▁dissolve	-11.0469
▁gu	-11.047
▁whale	-11.0471
▁cytosine	-11.0473
▁sight	-11.0473
▁itchy	-11.0475
▁leak	-11.0475
▁hurt	-11.0476
gas	-11.0479
▁325	-11.0479
▁seasons	-11.048
lon	-11.0484
▁aromatic	-11.0485
▁piano	-11.0486
▁consult	-11.0489
▁focused	-11.0491
▁terrestrial	-11.0493
threatening	-11.0494
des	-11.0497
▁harvest	-11.05
▁hydroxide	-11.0501
▁debris	-11.051
▁genre	-11.051
▁distinction	-11.051
▁mechanisms	-11.0511
▁turkish	-11.0513
▁supported	-11.0514
ung	-11.0519
▁uncovered	-11.052
▁birthday	-11.0524
▁dysfunction	-11.0524
del	-11.0525
▁portions	-11.0528
▁enables	-11.0529
▁underneath	-11.0534
▁friday	-11.0539
▁fault	-11.054
▁regulates	-11.0543
cia	-11.0544
▁scope	-11.0544
▁crisp	-11.0546
lie	-11.0547
▁stimulate	-11.0547
specific	-11.0549
▁grapes	-11.0549
▁£	-11.0554
▁synonyms	-11.0554
▁fragments	-11.0555
▁poisonous	-11.056
▁bites	-11.056
▁rye	-11.0561
▁extending	-11.0563
▁$31	-11.0565
▁implies	-11.0567
▁mixing	-11.0571
▁participate	-11.0574
ens	-11.0577
▁solvent	-11.058
new	-11.0583
▁technologies	-11.0584
▁silica	-11.0584
▁spaces	-11.0585
▁syll	-11.059
-4	-11.0592
▁pulp	-11.0597
6%	-11.0597
▁partners	-11.0603
▁learned	-11.0603
▁angina	-11.0606
gar	-11.0607
▁tire	-11.0607
▁atlanta	-11.0608
▁medulla	-11.0609
▁counties	-11.0611
▁hdl	-11.0613
▁pros	-11.0613
▁android	-11.0613
▁gall	-11.0613
▁tables	-11.0616
▁managing	-11.0617
▁preheated	-11.062
▁tx	-11.0621
▁shrub	-11.0621
▁[2	-11.0621
val	-11.0631
▁laminate	-11.0633
▁rust	-11.0633
▁autosomal	-11.0633
▁departure	-11.0633
▁chances	-11.0634
▁arrow	-11.0635
han	-11.0635
▁earthquake	-11.0638
▁canyon	-11.0639
▁56	-11.0643
▁virtual	-11.0644
▁bow	-11.0646
▁proven	-11.0646
▁translates	-11.065
▁edward	-11.065
▁bars	-11.0651
▁converts	-11.0651
▁43	-11.0651
▁decline	-11.0654
▁segments	-11.0655
▁adapted	-11.0657
▁leaders	-11.0657
let	-11.0663
▁#1	-11.0663
▁communications	-11.0664
▁maintained	-11.0666
▁nautical	-11.0667
▁flexibility	-11.0667
vent	-11.0673
▁conjunction	-11.0675
▁hu	-11.0675
▁infect	-11.0682
▁lunch	-11.0683
▁christmas	-11.0683
▁larynx	-11.0695
▁accumulation	-11.07
▁plague	-11.07
▁broker	-11.0707
▁neighborhood	-11.0708
▁scientist	-11.071
▁ru	-11.0711
▁reader	-11.0715
▁guard	-11.0715
▁$6,000	-11.0717
bs	-11.0723
▁completion	-11.0725
▁roofing	-11.0726
▁den	-11.0728
▁danger	-11.0732
elle	-11.0733
▁incubator	-11.0733
▁shark	-11.0735
▁bu	-11.0738
mine	-11.074
▁temple	-11.074
▁oct	-11.0741
aceae	-11.0749
▁guanine	-11.075
▁parkinson	-11.0754
-ˈ	-11.0756
▁fighting	-11.0758
aa	-11.0758
▁calf	-11.076
▁liter	-11.0765
▁meta	-11.077
▁har	-11.0771
▁besides	-11.0772
▁originates	-11.0774
▁railway	-11.0776
▁approximate	-11.0779
▁santa	-11.0783
▁thailand	-11.0784
ground	-11.0785
▁harder	-11.0795
▁suffering	-11.0796
▁mom	-11.0797
▁involuntary	-11.0797
▁(9	-11.0801
▁cerebrum	-11.0801
▁faith	-11.0801
▁guests	-11.0801
▁shed	-11.0803
rays	-11.0807
▁medicinal	-11.0809
▁tears	-11.081
▁1995	-11.0811
▁bananas	-11.0813
▁wing	-11.0813
▁exclusively	-11.0815
▁escape	-11.0817
▁clots	-11.0817
▁explained	-11.0821
▁scene	-11.0825
▁remodeling	-11.0826
latin	-11.0826
▁wearing	-11.0828
▁pu	-11.0829
▁crystalline	-11.0834
▁puberty	-11.0835
▁austria	-11.0835
▁differently	-11.084
▁versus	-11.0843
▁retain	-11.0844
van	-11.0846
▁catholic	-11.0851
▁watt	-11.0852
▁theme	-11.0854
gan	-11.0854
▁actress	-11.0858
▁vanilla	-11.086
lb	-11.0861
▁duodenum	-11.0862
ky	-11.0866
bone	-11.0866
▁aggregate	-11.0868
▁$49	-11.087
mel	-11.0877
▁wonder	-11.0878
▁repairs	-11.0878
▁olfactory	-11.0885
▁gen	-11.0888
▁ranch	-11.0894
▁springs	-11.0895
▁ceo	-11.0898
▁declared	-11.0898
making	-11.0898
isation	-11.0899
▁timing	-11.0902
▁argentina	-11.0903
▁biblical	-11.0903
▁switzerland	-11.0903
▁predominantly	-11.0904
▁crest	-11.0905
▁lobes	-11.0905
▁bloom	-11.091
▁denmark	-11.0911
▁locate	-11.0919
▁crucial	-11.092
▁noise	-11.0923
▁lan	-11.0928
▁parietal	-11.0928
▁hunting	-11.0929
▁trail	-11.0933
▁sep	-11.0934
▁herbal	-11.0935
▁senses	-11.094
▁feelings	-11.0942
▁concerns	-11.0943
▁gentle	-11.0945
▁parasite	-11.0946
▁grocery	-11.0954
▁intra	-11.0954
pet	-11.0956
▁exhibit	-11.096
▁hook	-11.096
▁jackson	-11.0963
04	-11.0964
▁70%	-11.0965
▁waters	-11.0968
▁flip	-11.0969
▁psoriasis	-11.0971
nie	-11.0975
▁asking	-11.0975
ix	-11.098
▁veterinarian	-11.0981
▁partnership	-11.0999
▁41	-11.1001
▁ray	-11.1005
▁episodes	-11.1005
▁complementary	-11.1006
▁bun	-11.1007
▁magic	-11.1008
tax	-11.101
▁makeup	-11.1011
▁bend	-11.1012
▁dew	-11.1016
▁parasitic	-11.1017
▁ships	-11.1018
▁des	-11.102
test	-11.1021
▁meets	-11.1022
▁cortisol	-11.1023
▁preparing	-11.1023
▁lady	-11.1024
▁gar	-11.1026
▁welsh	-11.1028
▁awarded	-11.1029
▁lentils	-11.1031
▁oklahoma	-11.1031
▁maps	-11.1034
▁angel	-11.1034
▁pills	-11.1035
▁pakistan	-11.104
▁hottest	-11.1041
▁hunt	-11.1043
▁3,000	-11.1046
▁publication	-11.1048
berg	-11.1048
ue	-11.1052
negative	-11.1052
▁fry	-11.1052
▁prefix	-11.1055
▁programming	-11.106
▁qualities	-11.1066
▁peptide	-11.1067
ena	-11.1068
▁emotions	-11.1075
ons	-11.1075
▁wavelength	-11.1077
▁cows	-11.1079
▁exceptions	-11.1082
▁reserved	-11.1082
▁strategic	-11.1083
▁performs	-11.1084
cer	-11.1087
▁mucosa	-11.1089
▁washing	-11.1093
▁eruptions	-11.1095
▁chili	-11.1095
▁sleeping	-11.1096
▁puerto	-11.1101
▁thoroughly	-11.1103
▁derivative	-11.1103
▁elastic	-11.1106
▁supplied	-11.1109
▁pulled	-11.1122
▁refrigerated	-11.1124
▁plumbing	-11.1129
▁uv	-11.113
▁cosmetic	-11.1134
rh	-11.1135
▁abnormalities	-11.1136
▁sized	-11.1136
▁osteoporosis	-11.1137
▁congenital	-11.1141
▁postage	-11.115
▁$42	-11.115
west	-11.1152
▁glycolysis	-11.1153
▁placing	-11.1153
▁radius	-11.1154
▁$38	-11.1154
▁entrance	-11.1162
▁founder	-11.1163
▁ulcer	-11.1164
rp	-11.1168
▁unicellular	-11.1171
▁node	-11.1171
▁selective	-11.1175
▁export	-11.1175
▁$44	-11.1175
▁cl	-11.1177
▁jar	-11.1178
▁durable	-11.118
▁knife	-11.1184
▁variants	-11.1184
▁coach	-11.1185
round	-11.1187
town	-11.1187
▁rat	-11.1192
▁envelope	-11.1195
▁coughing	-11.1195
▁renew	-11.1195
▁perception	-11.1195
▁seats	-11.1198
▁converter	-11.12
▁interval	-11.1201
▁celery	-11.1206
▁stiff	-11.1206
▁neurological	-11.1211
▁alt	-11.1211
▁bran	-11.1215
ette	-11.1215
▁symbolic	-11.1218
▁ecuador	-11.1223
▁storm	-11.1225
▁dye	-11.1225
▁stimulation	-11.1226
oo	-11.1227
▁directory	-11.1228
▁1880	-11.1229
▁buildup	-11.123
cus	-11.1237
▁transactions	-11.1239
▁stations	-11.124
▁discussed	-11.1244
▁twin	-11.1246
▁speeds	-11.1249
▁harvard	-11.125
▁wooden	-11.1252
ika	-11.1252
▁inventor	-11.1254
▁managed	-11.1254
▁opinion	-11.1255
▁import	-11.1258
▁chlamydia	-11.1258
▁farmers	-11.1259
▁adenosine	-11.1259
8,000	-11.1259
▁bob	-11.1261
▁tetanus	-11.1262
▁snack	-11.1263
▁sec	-11.1264
▁fox	-11.1265
▁heavily	-11.1267
▁decorative	-11.1267
▁forearm	-11.1267
▁harsh	-11.127
▁regulated	-11.1271
▁damp	-11.1279
▁vertebral	-11.1279
▁eyelid	-11.1282
▁malignant	-11.1283
▁dec	-11.1284
profit	-11.1287
])	-11.1288
▁1,500	-11.129
▁pill	-11.13
▁diffusion	-11.1303
▁spoon	-11.1303
▁labour	-11.1312
cin	-11.1316
▁renewable	-11.1319
▁guess	-11.1321
filled	-11.1322
▁youtube	-11.1323
▁portugal	-11.1329
often	-11.133
▁consideration	-11.133
▁mt	-11.1333
▁muslim	-11.1336
▁$37	-11.1336
7,000	-11.1338
▁naming	-11.1339
ano	-11.1341
▁countertops	-11.1341
▁haven	-11.1341
▁ser	-11.1343
▁lice	-11.1345
▁$1000	-11.1346
▁towel	-11.1347
▁pur	-11.1348
▁tectonic	-11.1354
▁lips	-11.1354
▁governments	-11.1354
▁warning	-11.1356
▁protons	-11.1358
exe	-11.1361
oz	-11.1373
▁physically	-11.1374
ble	-11.1375
▁whenever	-11.1375
▁republican	-11.1377
▁minimal	-11.1379
▁sour	-11.138
len	-11.1381
▁addiction	-11.1383
▁adoption	-11.1384
▁producers	-11.1387
▁counseling	-11.1388
▁cooker	-11.1392
▁airways	-11.1392
▁ci	-11.1392
▁studio	-11.1394
▁hydrocarbons	-11.1395
▁vocal	-11.1395
▁£2	-11.1396
▁germanic	-11.1402
▁1989	-11.1403
▁flood	-11.1408
iness	-11.141
▁pond	-11.141
▁thrive	-11.141
▁availability	-11.141
,000.	-11.1412
▁spiral	-11.1414
▁gained	-11.1418
colored	-11.142
ori	-11.1428
▁tigers	-11.1428
▁fertility	-11.1428
▁charging	-11.1428
▁rounded	-11.1431
▁couples	-11.1433
▁cereal	-11.1435
ala	-11.1436
▁inheritance	-11.1437
▁coil	-11.144
▁equally	-11.144
▁slope	-11.1441
▁ancestors	-11.1444
▁optical	-11.1447
▁refined	-11.1448
▁54	-11.145
▁aspirin	-11.1451
▁killer	-11.1455
▁belgium	-11.1455
▁agreed	-11.1462
▁carcinoma	-11.1464
▁cluster	-11.1466
nic	-11.147
▁wiki	-11.1472
▁reddish	-11.1473
▁fertilization	-11.1475
▁chips	-11.1476
▁interactions	-11.1484
▁till	-11.1484
▁beliefs	-11.1489
▁$85	-11.1489
▁jesus	-11.1491
▁nickname	-11.1491
0.00	-11.1493
▁proton	-11.1494
▁sensitivity	-11.1497
▁holy	-11.15
▁transverse	-11.15
qua	-11.1504
▁notable	-11.1506
▁mega	-11.1506
fu	-11.1506
▁wisdom	-11.1509
rie	-11.151
▁tetra	-11.1513
when	-11.1517
▁requiring	-11.1518
▁separation	-11.1518
ato	-11.1524
bus	-11.1524
▁steep	-11.1537
▁habit	-11.154
▁cysts	-11.1541
▁representing	-11.1542
▁regulatory	-11.1543
▁statements	-11.1543
▁oats	-11.1549
▁teaspoons	-11.1549
▁creatures	-11.1552
▁vena	-11.1554
▁genital	-11.1556
▁spreading	-11.1563
▁tubule	-11.1564
▁ebay	-11.1564
mc	-11.1565
▁swim	-11.1569
▁gametes	-11.1571
sion	-11.1577
br	-11.1581
▁fermented	-11.1589
▁anglo	-11.1591
▁marinade	-11.1592
8%	-11.1593
▁spelled	-11.1594
size	-11.1595
▁pads	-11.1596
▁altered	-11.1599
▁mice	-11.1603
▁cava	-11.1603
▁tie	-11.1605
▁pea	-11.161
▁minority	-11.1612
▁invasive	-11.1615
▁alive	-11.1618
▁impossible	-11.1618
▁rabies	-11.1618
▁objective	-11.1622
67	-11.1623
▁precise	-11.1623
▁dvd	-11.1625
century	-11.1625
▁legislative	-11.1628
▁uranus	-11.1628
▁throw	-11.1629
tail	-11.1632
▁audience	-11.1637
▁owe	-11.1637
▁starter	-11.1638
▁flowing	-11.1639
▁delay	-11.1641
▁1)	-11.1645
link	-11.1646
▁bankruptcy	-11.1646
▁drama	-11.1646
▁acceptance	-11.1646
▁shelter	-11.1647
▁arab	-11.1655
▁mammal	-11.1655
▁mention	-11.1658
▁sealed	-11.1659
▁presidential	-11.1659
▁slate	-11.1659
▁wilson	-11.1665
▁consent	-11.1665
▁slaves	-11.1666
▁$52	-11.1667
ses	-11.167
▁feathers	-11.1671
▁stains	-11.1672
▁backup	-11.1679
5.	-11.168
▁commercially	-11.1682
▁1930	-11.1683
py	-11.1685
▁rep	-11.1686
▁pocket	-11.1687
▁postal	-11.1687
▁restricted	-11.1689
▁lactic	-11.1693
tz	-11.1694
nc	-11.1699
▁$60,000	-11.1704
▁phenotype	-11.1705
▁metro	-11.1707
▁panic	-11.1707
▁friendly	-11.171
ama	-11.1711
500	-11.1712
▁prolonged	-11.1712
ose	-11.1713
▁alveoli	-11.1713
▁grasses	-11.1714
▁rely	-11.1714
▁poles	-11.1714
▁(15	-11.1714
▁cuff	-11.1715
af	-11.1715
▁designer	-11.1716
▁frontal	-11.1719
▁appraisal	-11.172
▁imperial	-11.172
▁filaments	-11.1726
ks	-11.173
▁prove	-11.1731
▁gal	-11.1732
▁shrubs	-11.1733
▁threat	-11.1734
▁hub	-11.1736
▁crew	-11.1739
har	-11.1741
▁gums	-11.1742
▁wealth	-11.1743
▁lawyers	-11.1743
▁breasts	-11.1744
vin	-11.1746
▁tra	-11.1748
▁375	-11.1748
▁cave	-11.175
▁elementary	-11.175
▁firms	-11.1753
▁flavors	-11.1754
▁bamboo	-11.1757
▁cons	-11.1761
▁addresses	-11.1765
▁footage	-11.1765
tis	-11.1767
▁withdraw	-11.1768
▁gear	-11.1769
week	-11.177
▁oval	-11.177
▁2009,	-11.1771
▁substantial	-11.1772
▁trap	-11.1772
vis	-11.1775
minute	-11.1777
▁containers	-11.1777
▁wondering	-11.1778
▁warmer	-11.1782
▁slices	-11.1782
▁logo	-11.1782
▁preserve	-11.1783
▁territories	-11.1785
▁flame	-11.1786
▁converting	-11.1786
▁banking	-11.1787
▁indication	-11.1788
4)	-11.1791
▁dual	-11.1793
▁korea	-11.1793
▁mirror	-11.1794
▁conservation	-11.1794
▁bodily	-11.1794
-9	-11.1796
run	-11.1797
▁syllables	-11.1798
▁tsh	-11.1803
▁pronoun	-11.1804
▁60%	-11.1805
▁1940	-11.1807
▁statistical	-11.1809
east	-11.1822
▁reservoir	-11.1822
▁dubai	-11.1822
▁jail	-11.1824
▁rush	-11.1824
▁(16	-11.1825
▁mosquito	-11.1828
nal	-11.183
dd	-11.1831
▁burned	-11.1831
▁thymus	-11.1831
▁51	-11.1832
▁intellectual	-11.1833
▁thinner	-11.1834
▁pertussis	-11.1835
▁fascia	-11.1841
▁debit	-11.1844
▁polyps	-11.1845
▁suspension	-11.185
▁abraham	-11.185
pc	-11.1852
▁sanskrit	-11.1855
▁convenient	-11.1855
▁bronchi	-11.1857
▁theories	-11.1861
▁$53	-11.1862
▁kid	-11.1865
▁seeing	-11.1867
▁susceptible	-11.1869
▁citizenship	-11.1869
▁heel	-11.187
▁dermatitis	-11.1871
▁printed	-11.1872
▁specialists	-11.1872
▁appointment	-11.1874
key	-11.1874
▁kick	-11.1876
▁philadelphia	-11.1878
▁persistent	-11.1878
bol	-11.1883
▁albumin	-11.1887
gon	-11.1887
ice	-11.1888
▁enrollment	-11.1888
▁debate	-11.1889
▁undergo	-11.189
▁ben	-11.1892
▁legislature	-11.1893
▁elizabeth	-11.1895
service	-11.1896
▁averaging	-11.1897
▁creek	-11.1897
▁parsley	-11.1897
▁responses	-11.1898
▁plot	-11.1899
▁lying	-11.1899
▁gardens	-11.1904
▁cornea	-11.1905
▁feldspar	-11.1906
▁soils	-11.191
▁therapeutic	-11.191
▁lighting	-11.1911
▁sixth	-11.1912
▁queensland	-11.1916
ay	-11.1917
▁sheath	-11.1918
any	-11.1918
▁luck	-11.1919
”)	-11.192
▁efforts	-11.1925
▁maturity	-11.1925
▁connections	-11.1929
lt	-11.1929
▁pluto	-11.1934
▁rigid	-11.1934
▁imagine	-11.1935
ren	-11.1938
▁centimeters	-11.1941
gh	-11.1944
▁identifying	-11.1948
care	-11.1949
▁poll	-11.195
▁liquids	-11.195
▁significance	-11.1954
▁rectum	-11.1954
▁stops	-11.1954
▁cabinet	-11.1959
▁challenge	-11.1961
▁neural	-11.1963
room	-11.1964
▁divides	-11.1964
▁lily	-11.1965
▁cre	-11.1966
▁pharynx	-11.1967
▁originating	-11.1969
▁steroid	-11.1972
▁toxin	-11.1972
▁viewed	-11.1975
▁hernia	-11.1976
▁nitrate	-11.1979
ounce	-11.1983
▁movies	-11.1984
▁fort	-11.1988
▁ge	-11.1995
▁rolling	-11.1995
▁ze	-11.1999
-$2	-11.2
▁seasoning	-11.2001
▁acetylcholine	-11.2001
▁inexpensive	-11.2003
meaning	-11.2006
▁cod	-11.2006
sum	-11.2006
▁inspired	-11.2008
▁fail	-11.2009
▁reputation	-11.2011
▁proximal	-11.2012
bed	-11.2015
▁hydrocarbon	-11.2017
▁lets	-11.2018
▁sells	-11.2018
counter	-11.202
▁suit	-11.2024
ida	-11.2028
▁handling	-11.2028
▁fractures	-11.2029
▁railroad	-11.203
7,	-11.203
lia	-11.2032
ified	-11.2036
▁che	-11.2036
▁creatine	-11.2039
▁tundra	-11.2039
▁nu	-11.2041
▁processor	-11.2043
▁utah	-11.2049
▁batteries	-11.2049
int	-11.205
▁(0	-11.205
▁obviously	-11.2055
▁countertop	-11.2057
▁fell	-11.2061
[	-11.2068
▁elderly	-11.207
▁awareness	-11.2075
▁kittens	-11.2077
▁compliance	-11.2078
▁southeastern	-11.2079
ably	-11.208
▁atherosclerosis	-11.2081
▁displays	-11.2083
▁drying	-11.2085
▁improved	-11.2086
▁asbestos	-11.2086
▁mag	-11.2089
quality	-11.2094
▁resemble	-11.2095
forming	-11.2098
ill	-11.2099
▁feels	-11.2103
▁bundle	-11.2105
▁110	-11.2105
▁qualifications	-11.2107
lum	-11.2108
▁victory	-11.2109
▁fig	-11.2109
▁sunflower	-11.2117
▁pathogen	-11.2118
lis	-11.2123
▁platinum	-11.2126
▁5-	-11.2126
▁rated	-11.2126
ett	-11.2126
mu	-11.2128
▁influences	-11.2138
▁roasted	-11.2148
▁packed	-11.2153
▁fusion	-11.2155
▁boot	-11.2156
where	-11.2156
▁($1	-11.2157
▁nickel	-11.2162
yo	-11.2162
▁dealing	-11.2164
▁references	-11.2166
▁(12	-11.2166
▁sync	-11.2166
▁doneness	-11.2167
▁translated	-11.2169
▁blade	-11.217
▁fossils	-11.2172
▁untreated	-11.2174
eye	-11.2175
▁dropped	-11.2175
mal	-11.2175
▁favor	-11.2176
▁shoulders	-11.2179
▁hy	-11.2181
ek	-11.2182
▁guest	-11.2183
▁limbs	-11.2184
▁labeled	-11.2185
▁collecting	-11.2185
▁mmol	-11.2188
▁shops	-11.2191
▁forecast	-11.2194
▁lewis	-11.2194
▁feedback	-11.2195
▁3-	-11.2197
▁narcotic	-11.2199
▁voting	-11.2204
▁shaft	-11.2205
▁doubt	-11.2206
aries	-11.2211
▁looked	-11.2212
▁quotes	-11.2214
▁harbor	-11.2215
▁rows	-11.2217
▁setup	-11.2219
▁swedish	-11.2223
▁homo	-11.2224
▁cabinets	-11.2227
▁med	-11.2228
▁coordinator	-11.2232
▁neptune	-11.2232
▁aureus	-11.2232
▁methyl	-11.2233
▁operated	-11.2238
▁completing	-11.2242
▁aboriginal	-11.2242
▁supposed	-11.2242
▁operator	-11.2243
▁felony	-11.2243
ates	-11.2246
▁visceral	-11.2246
▁analyze	-11.2247
▁lpn	-11.2248
▁pri	-11.2256
▁separately	-11.226
▁elsewhere	-11.2262
mes	-11.2265
▁ongoing	-11.2265
▁1800	-11.2266
▁autism	-11.2271
▁thighs	-11.2273
sta	-11.2274
gra	-11.2274
▁runny	-11.2276
▁shore	-11.2276
▁bony	-11.2276
▁acquisition	-11.2281
▁molten	-11.2282
she	-11.2284
▁ranged	-11.2285
▁wider	-11.2286
▁realize	-11.2286
▁expanded	-11.2294
▁pig	-11.2298
▁sends	-11.2299
▁suddenly	-11.23
▁timber	-11.2301
▁exempt	-11.2301
▁hens	-11.2302
▁reset	-11.2309
▁flavour	-11.2311
▁beets	-11.2313
▁dia	-11.2314
qu	-11.2316
▁miss	-11.2317
▁painted	-11.2317
▁effectiveness	-11.2318
▁celebrated	-11.2318
▁75%	-11.2319
▁recognition	-11.2321
▁biochemical	-11.2321
gue	-11.2321
▁mask	-11.2323
▁swiss	-11.2331
▁1964	-11.2332
▁$46	-11.2332
▁(20	-11.2337
▁indoors	-11.2337
▁$56	-11.2341
eb	-11.2346
▁delicate	-11.235
▁chip	-11.2351
▁snap	-11.236
protein	-11.2361
▁pace	-11.2366
nor	-11.2366
char	-11.2374
▁harmless	-11.2374
▁mat	-11.2376
▁ep	-11.2377
scale	-11.2377
▁ethics	-11.2383
▁hardy	-11.2387
▁thoughts	-11.2387
▁coastline	-11.2388
▁nut	-11.2388
▁fin	-11.2391
▁val	-11.2393
▁malaysia	-11.2394
▁folk	-11.2395
3)	-11.2397
▁buds	-11.2399
▁roosevelt	-11.2399
▁prize	-11.2401
▁amongst	-11.2404
containing	-11.2404
tur	-11.2404
▁dome	-11.2405
▁physiological	-11.2409
▁000	-11.2409
▁interfere	-11.2409
▁freight	-11.2409
mann	-11.2412
▁bike	-11.2413
▁joy	-11.2413
▁activation	-11.2419
▁aggressive	-11.2419
▁diesel	-11.242
▁deoxyribose	-11.2421
▁$48	-11.2427
▁pools	-11.2428
▁degenerative	-11.2429
▁1961	-11.2431
-8	-11.2432
▁attraction	-11.2432
lar	-11.2434
▁sympathetic	-11.2439
▁1945	-11.2441
▁magnitude	-11.2441
▁obstruction	-11.245
▁colonial	-11.245
▁charter	-11.2451
▁appeal	-11.2451
▁settle	-11.2451
ona	-11.2453
▁clerk	-11.2456
rk	-11.2457
▁wrapped	-11.2457
▁syn	-11.2458
▁alexander	-11.2459
▁canned	-11.2462
▁bass	-11.2463
what	-11.2466
▁athlete	-11.2466
▁symbolism	-11.2467
▁op	-11.247
resistant	-11.247
▁goats	-11.2478
▁cured	-11.248
ug	-11.248
▁guaranteed	-11.2483
▁diffuse	-11.2485
▁fortified	-11.2487
▁predict	-11.2488
▁2%	-11.249
▁fr	-11.2491
▁releasing	-11.2497
▁pathogenic	-11.2501
▁staple	-11.2503
▁sy	-11.2505
▁substrate	-11.2507
▁candy	-11.2507
▁germination	-11.2509
▁saucepan	-11.251
there	-11.251
▁comp	-11.2513
▁brass	-11.2518
▁adverb	-11.2519
▁66	-11.2521
▁thank	-11.2523
▁attachment	-11.2524
▁spa	-11.2527
▁bid	-11.2528
▁68	-11.2528
▁misdemeanor	-11.2529
▁vo	-11.2538
▁loin	-11.2538
▁paralysis	-11.2539
▁creative	-11.2539
▁vegas	-11.254
▁digested	-11.254
▁skip	-11.2543
▁invertebrates	-11.2545
▁kilograms	-11.2545
▁”	-11.2545
▁junior	-11.2549
▁weighing	-11.255
▁interpretation	-11.255
▁customs	-11.2552
▁kilogram	-11.2553
▁earthquakes	-11.2553
▁originate	-11.2554
▁developmental	-11.2555
▁investors	-11.2557
▁strict	-11.2557
▁filtration	-11.2559
▁sydney	-11.2559
▁exhaust	-11.2559
now	-11.256
▁constitute	-11.2564
7.	-11.2565
fl	-11.2566
▁sandwich	-11.2566
▁errors	-11.2568
▁dig	-11.2568
▁cho	-11.2569
▁antigens	-11.2569
▁threshold	-11.2569
▁groin	-11.2573
▁films	-11.2575
weight	-11.2576
▁intervention	-11.2576
uff	-11.2577
▁3/4	-11.2579
▁$120	-11.2579
9,000	-11.258
anti	-11.2587
▁ken	-11.2591
▁pr	-11.2594
ets	-11.2596
▁shake	-11.2598
▁embedded	-11.2599
▁cambridge	-11.26
▁hcg	-11.26
▁diego	-11.2601
▁cilia	-11.2602
▁thaw	-11.2604
amp	-11.2607
▁tribe	-11.2607
1)	-11.2608
▁czech	-11.261
▁drift	-11.261
▁ly	-11.2611
▁philippines	-11.2613
▁fuse	-11.2614
▁bugs	-11.2617
rus	-11.2618
▁sending	-11.2618
▁canine	-11.2621
▁beverage	-11.2625
▁dialysis	-11.263
▁presentation	-11.2632
▁adverse	-11.2636
▁seasonal	-11.264
▁fetal	-11.2643
▁jones	-11.2643
illa	-11.2646
▁bulbs	-11.2649
▁classroom	-11.2652
cas	-11.2654
▁alphabet	-11.2655
▁bug	-11.2658
▁ribose	-11.2658
▁worst	-11.266
▁menopause	-11.2662
cle	-11.2665
▁encourage	-11.2667
▁jay	-11.2668
pin	-11.2668
▁listen	-11.267
▁fillets	-11.2671
▁indians	-11.2675
▁100,000	-11.2677
▁ultimate	-11.2679
▁slang	-11.2682
▁tallest	-11.2683
▁weathering	-11.2689
▁thicker	-11.2689
▁execution	-11.2691
▁vertigo	-11.2701
▁xylem	-11.2701
▁pursue	-11.2701
▁antarctica	-11.2705
rna	-11.2706
▁invasion	-11.2711
▁foster	-11.2712
▁axons	-11.2714
▁$51	-11.2715
dra	-11.2715
▁absorbs	-11.2721
▁versailles	-11.2721
▁brisket	-11.2722
▁summit	-11.2722
▁chambers	-11.2722
▁litter	-11.2724
▁bmi	-11.2724
▁adam	-11.2724
▁fertilized	-11.2725
▁ancestry	-11.2732
▁intolerance	-11.2732
▁harry	-11.2743
▁pathways	-11.2745
group	-11.2745
▁aug	-11.2752
▁sequences	-11.2752
▁uranium	-11.2752
▁chemotherapy	-11.2752
rr	-11.2758
ər	-11.276
app	-11.2761
▁basket	-11.2762
▁saturday	-11.2762
▁gamma	-11.2769
▁adapt	-11.277
▁streams	-11.2775
▁tenderness	-11.2777
▁ducks	-11.2779
▁minus	-11.2781
▁missed	-11.2783
▁bilayer	-11.2783
▁4-	-11.2785
▁seeking	-11.2788
▁reactive	-11.279
zy	-11.279
▁col	-11.2791
▁buffalo	-11.2793
▁mitral	-11.2794
▁upgrade	-11.2798
▁clan	-11.2799
▁opens	-11.2801
▁financing	-11.2804
▁approx	-11.2805
▁blockage	-11.2807
▁antagonist	-11.2807
▁ruler	-11.2807
▁slip	-11.2808
brown	-11.2809
▁angles	-11.2813
▁luxury	-11.2814
▁lasting	-11.2824
▁recommendations	-11.2825
ral	-11.2825
▁nouns	-11.2826
▁geological	-11.2829
uc	-11.2831
▁aches	-11.2832
▁plateau	-11.2832
▁peanut	-11.2833
▁$43	-11.2833
take	-11.2834
▁jr	-11.2837
▁cr	-11.2841
▁sweating	-11.2844
▁consistency	-11.2845
az	-11.2845
▁introduce	-11.2846
▁doctorate	-11.2846
▁1992	-11.2847
▁attract	-11.2852
rated	-11.2853
▁exercises	-11.2854
▁eligibility	-11.2855
ani	-11.2856
▁twitter	-11.2859
▁updates	-11.286
▁tribes	-11.2861
sia	-11.2863
hard	-11.2864
▁homeostasis	-11.2866
site	-11.2866
▁resembles	-11.2868
hl	-11.2869
▁tro	-11.2875
▁stadium	-11.2876
▁jelly	-11.2877
▁$3,500	-11.2879
▁crossing	-11.2881
osa	-11.2883
▁remained	-11.2885
▁humid	-11.2886
▁hives	-11.2887
▁warming	-11.289
▁deposited	-11.2895
▁carotid	-11.2897
▁defining	-11.2897
▁protecting	-11.2899
ans	-11.2899
body	-11.2903
▁reflux	-11.2908
photo	-11.2909
▁facing	-11.2909
▁passengers	-11.291
die	-11.2911
▁crushed	-11.2911
▁driven	-11.2911
▁il	-11.2913
▁kale	-11.2916
▁iowa	-11.2918
▁visits	-11.292
burg	-11.292
▁pipes	-11.2922
ological	-11.2927
▁diy	-11.2928
▁dramatic	-11.2928
▁virgin	-11.2931
▁authorized	-11.2932
▁physiology	-11.2934
▁controller	-11.2935
person	-11.2936
▁matters	-11.2936
▁proclamation	-11.2939
▁feces	-11.2939
▁suffix	-11.2939
▁prevalent	-11.2939
▁coated	-11.2942
ians	-11.2944
▁morphine	-11.2944
▁poet	-11.2945
▁mitochondrial	-11.2948
▁integral	-11.2949
▁visiting	-11.295
▁electronics	-11.2952
▁cam	-11.2954
▁1994	-11.2955
▁prompt	-11.2956
▁basalt	-11.2957
may	-11.2957
▁featured	-11.2958
▁securities	-11.296
▁fleet	-11.296
▁beds	-11.2961
▁grace	-11.2966
▁occurrences	-11.2966
▁behaviors	-11.2971
▁payroll	-11.2972
▁activated	-11.2973
▁stove	-11.2975
thy	-11.2977
▁iris	-11.298
▁deaths	-11.2983
▁operational	-11.2984
▁labels	-11.2988
fr	-11.2989
▁potent	-11.299
▁lettuce	-11.2991
wi	-11.2993
▁2008,	-11.2994
▁electrician	-11.2995
▁imp	-11.2996
cur	-11.2999
▁yo	-11.3001
▁sur	-11.3001
▁folate	-11.3002
▁holder	-11.3002
▁basil	-11.3003
▁behalf	-11.3003
▁jam	-11.3006
ire	-11.3007
▁anus	-11.3009
rah	-11.3012
▁chin	-11.3015
▁gauge	-11.3016
iz	-11.3018
▁float	-11.3018
▁grades	-11.3019
chy	-11.3028
▁strips	-11.3029
▁alter	-11.3031
▁forth	-11.3032
▁dynasty	-11.3033
▁strait	-11.3035
▁liters	-11.3037
▁donor	-11.3039
▁gem	-11.3041
▁jurisdiction	-11.3045
▁brine	-11.3047
wide	-11.3051
▁diets	-11.3052
▁ribosome	-11.3054
▁upset	-11.3054
▁continuously	-11.3055
▁architect	-11.3055
▁jaundice	-11.3057
▁discrimination	-11.3058
▁clotting	-11.306
▁dealer	-11.3062
▁liberty	-11.3065
▁convey	-11.3066
▁1993	-11.3067
ou	-11.3069
▁chop	-11.3069
▁1500	-11.3071
▁clutch	-11.3075
▁transparent	-11.3076
▁killing	-11.3076
▁actin	-11.3077
▁departments	-11.3084
▁ruled	-11.3085
▁comparable	-11.3086
▁improving	-11.3086
▁elephant	-11.3088
▁ticks	-11.3089
▁designation	-11.3089
▁appointed	-11.3089
▁behaviour	-11.3097
▁glaucoma	-11.3097
▁distal	-11.3098
▁deciliter	-11.3107
used	-11.3108
card	-11.3109
▁builds	-11.311
▁pap	-11.311
▁cleaner	-11.3117
▁contemporary	-11.3118
▁supervision	-11.3118
▁arrange	-11.3119
▁spreads	-11.3121
▁malt	-11.3126
▁afford	-11.3127
▁sclerosis	-11.3129
▁combining	-11.3129
▁mp	-11.313
▁acceptable	-11.3131
▁wolves	-11.3133
▁900	-11.3136
▁strike	-11.3136
▁placenta	-11.3137
▁(17	-11.3138
▁heavier	-11.3139
#	-11.3143
ov	-11.3147
▁flies	-11.3152
▁restrictions	-11.3152
▁conclusion	-11.3152
good	-11.3158
▁enforcement	-11.3161
▁rot	-11.3162
.95	-11.3163
▁appliances	-11.3164
▁layout	-11.3165
▁specify	-11.3166
ory	-11.3167
▁mole	-11.3169
▁interests	-11.317
fin	-11.317
▁guidance	-11.3171
▁bicarbonate	-11.3171
▁scheduled	-11.3172
▁scandinavian	-11.3176
▁lucky	-11.3177
▁independently	-11.3182
▁settled	-11.3182
ces	-11.3182
▁longitude	-11.3182
▁steady	-11.3182
▁bald	-11.3182
▁uric	-11.3185
▁arrived	-11.3186
tre	-11.3187
▁brothers	-11.3187
ev	-11.3192
▁remedy	-11.3193
▁landlord	-11.3193
▁1991	-11.3195
▁tolerance	-11.3204
▁12-	-11.3206
▁bat	-11.3207
▁roads	-11.3209
▁juvenile	-11.3214
▁vancouver	-11.3214
gate	-11.3214
▁browse	-11.3216
▁personnel	-11.3216
▁smoked	-11.3216
▁detection	-11.3216
▁clouds	-11.3218
▁resist	-11.3221
▁attending	-11.3221
▁urination	-11.3225
▁resume	-11.3225
▁capsules	-11.3225
▁constituent	-11.3228
▁pigments	-11.3229
▁solve	-11.3231
▁coarse	-11.3231
▁tuesday	-11.3236
▁rag	-11.3237
hole	-11.3238
▁58	-11.3241
▁swallowing	-11.3244
▁complement	-11.3246
▁hemp	-11.3246
▁$450	-11.3246
▁nicotine	-11.3247
▁southwestern	-11.3248
▁est	-11.3248
▁78	-11.3248
▁confirmed	-11.3251
▁weekend	-11.3255
▁strategies	-11.3257
▁possession	-11.3261
▁ventricles	-11.3267
▁keys	-11.3268
lite	-11.327
▁electro	-11.327
▁soybeans	-11.3272
▁conception	-11.3273
▁charts	-11.3285
under	-11.3289
▁golgi	-11.329
▁buried	-11.329
▁storing	-11.329
mile	-11.3291
▁mileage	-11.3292
▁nitrogenous	-11.3292
▁bacillus	-11.3294
▁statute	-11.3294
▁bred	-11.33
▁63	-11.3302
mark	-11.3303
▁editor	-11.3303
▁darker	-11.3304
▁workplace	-11.3305
▁drag	-11.3306
▁vol	-11.3309
ular	-11.331
▁chopped	-11.3312
▁bengal	-11.3312
-15	-11.3313
▁$47	-11.3317
pronounced	-11.3317
▁protozoa	-11.332
▁pearl	-11.3321
▁wouldn	-11.3322
▁appendix	-11.3322
▁commonwealth	-11.3324
und	-11.3332
stick	-11.3333
▁concentrate	-11.3334
▁iraq	-11.3337
▁reflects	-11.3337
▁outlet	-11.3338
▁hurricane	-11.3338
▁manganese	-11.3344
duct	-11.3346
▁subjects	-11.3351
▁sessions	-11.3351
▁revealed	-11.3352
000	-11.3352
▁ultraviolet	-11.3355
▁alkali	-11.3355
▁spark	-11.3363
▁losing	-11.3363
▁rec	-11.3365
▁aluminium	-11.3366
▁calculating	-11.3366
▁masters	-11.3366
▁bomb	-11.3371
bls	-11.3372
▁committed	-11.3377
▁relax	-11.3377
▁spiders	-11.3378
▁1981	-11.3379
▁1984	-11.3379
phosphate	-11.338
▁kr	-11.338
▁everywhere	-11.338
▁totally	-11.3381
▁weed	-11.3384
▁gains	-11.3385
▁homeowner	-11.3387
mos	-11.3388
▁curry	-11.3388
▁puts	-11.339
dic	-11.3395
▁zoo	-11.3399
▁tendency	-11.3399
▁evolutionary	-11.3399
▁thereby	-11.34
got	-11.3401
▁3)	-11.3401
food	-11.3403
▁conductor	-11.3405
▁slave	-11.3406
▁fold	-11.3408
▁scratch	-11.3408
▁stump	-11.341
▁comprise	-11.3417
view	-11.3417
only	-11.3417
▁blind	-11.3418
cr	-11.3419
▁thursday	-11.3421
▁tingling	-11.3421
▁osteo	-11.3421
▁sacs	-11.3422
taining	-11.3425
▁magnet	-11.3425
▁digit	-11.343
▁ore	-11.343
▁5,000	-11.343
▁abilities	-11.3432
▁arsenic	-11.3432
▁miscarriage	-11.3432
ual	-11.3433
▁polio	-11.3436
▁ants	-11.3444
-$3	-11.3447
▁$35,000	-11.3452
act	-11.3455
▁bronze	-11.3455
▁convenience	-11.3459
▁yolk	-11.346
450	-11.3462
▁broiler	-11.3462
▁submitted	-11.3465
▁bordered	-11.3466
file	-11.3468
▁traditions	-11.347
▁trailer	-11.347
▁pra	-11.3472
▁studying	-11.3472
▁arises	-11.3472
ari	-11.3473
▁pus	-11.3474
▁carb	-11.3476
tain	-11.348
▁monkeys	-11.3481
ua	-11.3484
▁$59	-11.3484
eri	-11.3486
▁pumpkin	-11.3488
▁suspended	-11.3489
▁deductions	-11.3489
hol	-11.3491
▁topical	-11.3492
,250	-11.3492
▁habits	-11.3498
▁var	-11.3499
▁colombia	-11.3502
▁wastes	-11.3502
▁dining	-11.3503
▁165	-11.3508
phone	-11.3508
▁resonance	-11.3509
▁rhyme	-11.3509
▁subunits	-11.3509
▁apps	-11.3514
▁climb	-11.3516
gu	-11.3523
uh	-11.3523
▁failed	-11.3531
▁mitosis	-11.3531
aria	-11.3532
▁prescribe	-11.3533
▁wasn	-11.3534
ese	-11.3534
▁suite	-11.3537
cre	-11.3538
▁experiencing	-11.3542
▁scroll	-11.3542
▁spicy	-11.3542
▁compost	-11.3542
▁def	-11.3543
▁sticky	-11.3544
ora	-11.3549
pha	-11.355
▁masses	-11.355
▁mumps	-11.3553
▁tennis	-11.3554
▁collectively	-11.3557
▁han	-11.3561
▁captain	-11.3565
▁guy	-11.3566
▁font	-11.3567
▁$8,000	-11.3567
▁terrier	-11.3569
▁forever	-11.357
▁qualifying	-11.3571
▁happened	-11.3572
▁radiologist	-11.3573
▁stimuli	-11.3575
▁admitted	-11.3576
cat	-11.3576
▁bre	-11.3581
▁cro	-11.3582
▁apparent	-11.3582
▁elephants	-11.3585
just	-11.3586
▁frequencies	-11.3586
▁friction	-11.3587
▁biomedical	-11.3587
▁gods	-11.3592
▁shots	-11.3594
two	-11.3595
▁bon	-11.3597
▁boneless	-11.3598
lam	-11.3602
even	-11.3603
▁signing	-11.3607
▁apparatus	-11.3609
▁quiet	-11.3609
▁buyers	-11.361
▁helium	-11.3612
▁farming	-11.3615
lyn	-11.3616
▁owl	-11.3618
▁flora	-11.362
▁orlando	-11.362
▁sw	-11.3621
▁surprise	-11.3621
▁fibres	-11.3622
▁cocoa	-11.3627
pocket	-11.3628
note	-11.363
▁extracellular	-11.3632
▁coins	-11.3637
▁tray	-11.3639
▁considerable	-11.364
▁establishment	-11.3642
▁desirable	-11.3642
▁aquarium	-11.3642
tv	-11.3642
▁whey	-11.3643
▁tags	-11.365
▁buffer	-11.3652
▁entities	-11.3654
▁verify	-11.3654
▁phones	-11.3658
▁provinces	-11.3659
▁striated	-11.3661
▁biceps	-11.3663
▁platelet	-11.3664
▁arterial	-11.3665
proof	-11.3665
▁planned	-11.3667
▁careers	-11.3672
blue	-11.3673
▁boards	-11.3675
▁wounds	-11.3675
▁meiosis	-11.3676
▁retention	-11.3676
▁clusters	-11.3678
▁forget	-11.368
▁tim	-11.3687
▁unwanted	-11.3687
ui	-11.3688
▁attendance	-11.3688
▁sickness	-11.369
▁mb	-11.3697
dan	-11.3703
▁vegetarian	-11.3704
▁overweight	-11.3708
▁toronto	-11.371
▁engines	-11.3711
▁acetaminophen	-11.3715
▁inhabitants	-11.3716
▁wines	-11.3717
▁versatile	-11.3733
▁alzheimer	-11.3733
▁bump	-11.3734
▁trench	-11.3741
ties	-11.3742
▁comprising	-11.3744
▁solids	-11.3747
▁47	-11.375
▁intervals	-11.375
din	-11.375
▁radiology	-11.3756
▁unemployment	-11.3756
▁microbes	-11.3757
▁clearance	-11.3758
lee	-11.3766
▁impulse	-11.3766
▁burial	-11.3767
▁harvested	-11.3768
▁compiled	-11.3769
▁sharks	-11.377
▁downtown	-11.3771
▁calm	-11.3772
▁marketed	-11.3772
▁$66	-11.3776
▁pear	-11.3777
▁beneficiary	-11.3778
▁speaker	-11.3779
▁beam	-11.3779
▁singular	-11.3783
▁neuropathy	-11.3789
▁ratified	-11.3789
▁ol	-11.3791
▁surround	-11.3792
▁tied	-11.3793
▁coined	-11.3796
sch	-11.3797
▁corrosion	-11.3801
▁acquire	-11.3802
▁53	-11.3803
mid	-11.3804
▁alloys	-11.3806
▁increasingly	-11.3807
ele	-11.3808
▁alternatively	-11.3809
▁legend	-11.3815
▁infrared	-11.3816
▁saved	-11.3818
▁slower	-11.3818
▁30-	-11.3818
lip	-11.3818
▁deed	-11.3825
ient	-11.3825
ell	-11.3826
▁kar	-11.3832
▁150436	-11.3835
▁accessories	-11.3835
▁possibility	-11.3835
▁pyramids	-11.3836
▁anchor	-11.3837
▁generations	-11.3838
▁0.1	-11.3838
dom	-11.3842
▁fame	-11.3846
▁uterine	-11.3846
▁plaster	-11.3847
▁discipline	-11.3851
▁opioid	-11.3852
rol	-11.3852
▁instruction	-11.3856
mor	-11.386
▁1/3	-11.386
▁exemption	-11.3862
▁sprouts	-11.3862
▁prop	-11.3866
▁daylight	-11.3867
▁plantar	-11.3869
▁broadcast	-11.387
▁jury	-11.3871
▁(+	-11.3873
▁sunny	-11.3873
▁mint	-11.3874
▁lenses	-11.3875
▁cactus	-11.3881
▁continuing	-11.3881
▁geothermal	-11.3881
▁chromium	-11.3881
▁shoe	-11.3883
human	-11.3884
▁$200,000	-11.3887
▁niacin	-11.3892
▁agar	-11.3895
mol	-11.3899
▁stretches	-11.39
tel	-11.3902
▁blocking	-11.3902
▁foliage	-11.3904
▁dermis	-11.3904
▁unsaturated	-11.3904
sky	-11.3905
▁subtract	-11.3905
▁scott	-11.3908
▁germs	-11.3908
▁collective	-11.3912
▁swell	-11.3913
▁10-	-11.3914
xi	-11.3916
uria	-11.3917
▁opera	-11.3923
▁pineapple	-11.3927
▁clearing	-11.3928
▁gather	-11.393
▁dal	-11.3934
press	-11.3935
gle	-11.3936
▁struggle	-11.3938
▁finishing	-11.3946
▁trends	-11.3949
▁approaches	-11.395
via	-11.395
▁evil	-11.3952
▁cuba	-11.3953
▁consequences	-11.3953
-30	-11.3955
▁inhibitors	-11.3957
▁watery	-11.3957
▁daycare	-11.3958
▁dial	-11.3959
▁accuracy	-11.3962
aba	-11.3964
▁tre	-11.3965
▁diminutive	-11.3965
▁clip	-11.3967
▁iran	-11.3968
▁paralegal	-11.3976
▁fri	-11.3976
▁deposition	-11.3979
▁cylinder	-11.3981
-11	-11.3982
uring	-11.3983
▁phrases	-11.3983
▁constellation	-11.3985
ub	-11.3985
▁loosely	-11.3985
▁knows	-11.3986
rare	-11.3986
stock	-11.399
gr	-11.3991
▁rim	-11.3991
▁(3)	-11.3994
▁unpleasant	-11.3996
▁jefferson	-11.3996
▁peanuts	-11.3999
▁2007,	-11.3999
▁toxicity	-11.4
bri	-11.4002
path	-11.4009
▁taxi	-11.401
▁gemstone	-11.4011
▁cy	-11.4015
▁ultra	-11.4016
lot	-11.4016
celled	-11.4016
ute	-11.4017
▁monoxide	-11.402
▁fireplace	-11.402
▁resolve	-11.4022
▁mer	-11.4024
▁transformation	-11.4024
▁shut	-11.4029
▁limitations	-11.4031
▁genotype	-11.4031
▁ventilation	-11.4031
▁registry	-11.4031
▁officials	-11.4032
▁receipt	-11.4035
▁counting	-11.4035
▁almond	-11.4035
▁mushroom	-11.4037
▁mathematics	-11.4039
▁shouldn	-11.4042
▁hardness	-11.4045
▁weighted	-11.4048
▁peri	-11.4048
serv	-11.4049
▁chimney	-11.4055
▁hydrolysis	-11.4055
▁sponge	-11.4058
▁$57	-11.406
lla	-11.406
sub	-11.4061
▁exocrine	-11.4066
▁remedies	-11.4066
▁venezuela	-11.4066
▁motorcycle	-11.4067
rid	-11.4067
▁graft	-11.4068
ili	-11.4069
▁archipelago	-11.4078
▁ovary	-11.4078
▁1919	-11.4081
▁powered	-11.4083
▁1983	-11.4084
cast	-11.4085
ale	-11.4086
▁pod	-11.4087
▁phd	-11.409
▁lymphoma	-11.4092
tp	-11.4092
arm	-11.41
▁infrastructure	-11.4101
mit	-11.4102
ela	-11.4103
▁penis	-11.4105
▁sliced	-11.4106
▁dull	-11.4107
▁loved	-11.4111
▁partly	-11.4113
▁rosemary	-11.4113
▁radial	-11.4114
▁soccer	-11.4125
▁descent	-11.4126
▁strengthen	-11.4127
▁tracking	-11.4128
▁premier	-11.4129
▁alberta	-11.413
ogen	-11.4134
tone	-11.4136
▁spasm	-11.4142
▁attaches	-11.4143
▁permission	-11.4143
▁dementia	-11.4149
▁guatemala	-11.4149
▁accent	-11.4149
▁$900	-11.4153
▁dialog	-11.4154
effective	-11.4159
▁gutters	-11.416
▁glomerulus	-11.416
▁vine	-11.4164
▁2009.	-11.4171
▁br	-11.4171
▁licensure	-11.4172
▁semiconductor	-11.4172
▁1974	-11.4174
▁packaged	-11.4176
ser	-11.4177
▁$69	-11.4177
ude	-11.4179
▁monarch	-11.4179
▁consistently	-11.418
▁topics	-11.4181
▁lined	-11.4184
play	-11.4185
▁administrator	-11.419
pass	-11.4191
▁daytime	-11.4191
▁pest	-11.4194
▁crisis	-11.4196
▁describing	-11.4196
▁gran	-11.4198
▁stopped	-11.4198
▁static	-11.4199
ect	-11.4199
▁clicking	-11.4202
▁ski	-11.4202
onia	-11.4206
▁amsterdam	-11.4208
▁fought	-11.4208
▁grease	-11.4213
▁identifies	-11.422
▁hor	-11.422
▁ribbon	-11.422
ress	-11.4226
▁instances	-11.4226
▁headquarters	-11.4231
▁quebec	-11.4232
▁1986	-11.4234
▁wise	-11.4235
although	-11.4236
▁monkey	-11.4238
▁cur	-11.424
place	-11.4241
▁monument	-11.4242
▁kings	-11.4243
▁congestion	-11.4243
▁obama	-11.4243
▁rotator	-11.4244
▁prone	-11.4244
▁abnormally	-11.4245
▁noodles	-11.4248
▁220	-11.4248
▁emphasis	-11.4255
hold	-11.4256
▁soldiers	-11.426
ré	-11.4261
▁ideally	-11.4266
ectomy	-11.4266
▁gradient	-11.4267
▁maintains	-11.4267
cul	-11.4268
cept	-11.4269
▁67	-11.4274
▁orbital	-11.4276
▁dramatically	-11.428
ax	-11.4281
▁larvae	-11.4282
▁aloe	-11.4282
▁heartburn	-11.4282
▁lipoprotein	-11.4282
▁equilibrium	-11.4283
▁phil	-11.4286
▁cc	-11.4287
▁chewing	-11.4288
second	-11.429
▁troops	-11.4291
▁architectural	-11.4291
▁triphosphate	-11.4292
▁rhode	-11.4292
▁combat	-11.4292
▁dryer	-11.4299
gg	-11.4302
▁obtaining	-11.4303
▁arkansas	-11.4303
▁1900	-11.4305
▁norse	-11.4317
▁alarm	-11.4317
▁neo	-11.4318
▁costa	-11.4319
▁stools	-11.4319
ising	-11.4324
▁deadly	-11.4324
▁drum	-11.4325
▁brittle	-11.4327
lands	-11.4331
▁colder	-11.4339
▁recreational	-11.4341
▁staph	-11.4343
md	-11.4347
rant	-11.435
▁burst	-11.4351
▁reside	-11.4351
▁communist	-11.4351
▁encounter	-11.4355
▁maine	-11.4356
ston	-11.4356
▁flex	-11.4359
▁celiac	-11.4363
plural	-11.4363
▁1971	-11.4365
▁$54	-11.4366
▁upward	-11.4367
▁outstanding	-11.4368
▁priority	-11.4369
▁reacts	-11.4369
▁insomnia	-11.437
▁walt	-11.437
▁wake	-11.4371
▁knot	-11.4373
gin	-11.4374
bel	-11.4375
▁costhelper	-11.4375
▁caught	-11.4376
▁wiring	-11.4376
met	-11.4377
▁mosquitoes	-11.4379
▁automobile	-11.4384
▁attractions	-11.4384
third	-11.4385
▁etymology	-11.4387
▁pioneer	-11.4387
▁neuromuscular	-11.4387
▁tom	-11.4388
▁ipod	-11.4389
ged	-11.439
▁porcelain	-11.4392
▁barrel	-11.4398
▁secretes	-11.4399
▁cervix	-11.4399
▁poverty	-11.4399
▁formally	-11.4404
▁corps	-11.4405
▁soups	-11.4405
front	-11.4405
▁tsp	-11.4406
▁benzene	-11.4408
▁$12,000	-11.4409
▁optimum	-11.4412
▁expiration	-11.4412
▁biopsy	-11.4412
▁ventral	-11.4412
▁myelin	-11.4413
▁paired	-11.4417
▁informal	-11.4417
8,	-11.4417
▁winning	-11.442
▁findings	-11.4422
▁browned	-11.4423
▁wednesday	-11.4424
▁franklin	-11.4424
▁implantation	-11.4425
▁bottles	-11.4426
▁fare	-11.4429
▁rats	-11.4431
▁mont	-11.4435
▁haploid	-11.4436
wan	-11.4437
▁melted	-11.4439
max	-11.4441
trans	-11.4447
▁heaven	-11.4448
▁taught	-11.4448
first	-11.4449
nate	-11.4455
,750	-11.4459
▁deoxygenated	-11.4461
▁suspect	-11.4463
▁antenna	-11.4464
▁assumed	-11.4468
rine	-11.4469
▁localized	-11.447
san	-11.4474
tip	-11.4481
▁defend	-11.4481
▁additive	-11.4483
je	-11.4484
▁afternoon	-11.4485
▁hal	-11.4485
▁shades	-11.4488
▁keratin	-11.4497
▁autumn	-11.4497
carotene	-11.4497
▁mutual	-11.4503
▁integration	-11.4509
▁fraud	-11.4509
▁sacred	-11.451
▁violence	-11.4512
▁bal	-11.4512
▁thickest	-11.4513
▁lac	-11.4517
hen	-11.4517
▁deoxyribonucle	-11.4518
▁0.0	-11.4518
after	-11.452
▁adaptive	-11.4522
▁unlimited	-11.4522
▁$110	-11.4523
▁funding	-11.4525
▁dump	-11.4526
each	-11.4527
▁creamy	-11.4532
▁costing	-11.4532
▁dialect	-11.4532
▁statutory	-11.4533
▁medicaid	-11.4533
▁statue	-11.4534
▁accessible	-11.4535
▁tier	-11.4543
mic	-11.4546
▁forum	-11.4546
▁bare	-11.4547
och	-11.4553
-7	-11.4555
pel	-11.4556
▁emancipation	-11.4558
▁lavender	-11.4558
▁shellfish	-11.4559
than	-11.4562
▁tastes	-11.4565
▁sphere	-11.4568
▁hp	-11.457
nee	-11.457
▁myth	-11.4571
▁cosmetics	-11.4572
half	-11.4572
▁95%	-11.4573
▁aroma	-11.4575
kwh	-11.4577
▁qua	-11.4578
world	-11.4579
ome	-11.4582
▁primitive	-11.4583
▁norepinephrine	-11.4583
▁bees	-11.4584
nos	-11.4591
▁theater	-11.4594
▁buck	-11.4596
▁wipe	-11.4603
▁170	-11.4605
▁kennedy	-11.4607
▁mandatory	-11.4607
▁concert	-11.4607
▁kits	-11.4607
▁bypass	-11.4613
pos	-11.4614
▁whisk	-11.4615
▁politics	-11.462
cf	-11.462
ati	-11.4624
degree	-11.4628
uv	-11.4629
▁promotion	-11.4629
rb	-11.463
▁decimal	-11.4632
▁hindi	-11.4635
▁freely	-11.4636
▁regard	-11.4637
▁absolutely	-11.4642
▁extinct	-11.4642
▁ranking	-11.4645
▁cedar	-11.4645
▁kenya	-11.4645
▁mall	-11.4646
▁gla	-11.4646
▁columns	-11.4648
▁teens	-11.465
▁alongside	-11.4651
▁enrolled	-11.4653
▁associates	-11.4657
▁charcoal	-11.4657
▁instructor	-11.4659
ick	-11.4659
▁loud	-11.466
▁construct	-11.466
▁chiefly	-11.4663
ign	-11.4664
stra	-11.4666
pod	-11.4672
ening	-11.4673
▁outdoors	-11.4673
▁knees	-11.4677
▁grilling	-11.4677
iff	-11.4677
kh	-11.4681
▁supplier	-11.4682
ches	-11.4683
▁appearing	-11.4683
▁1965	-11.4685
▁populated	-11.4687
▁conjunctivitis	-11.4687
▁cite	-11.4689
var	-11.4689
eu	-11.4694
▁dan	-11.4694
▁thirty	-11.4694
▁titanium	-11.4694
heat	-11.4698
▁mel	-11.4702
▁3%	-11.4704
▁kan	-11.4707
system	-11.4707
▁wal	-11.4707
▁consultant	-11.4708
/)	-11.4709
tech	-11.4709
-14	-11.4713
▁skilled	-11.4713
▁permanently	-11.4714
▁chrome	-11.4716
▁cerebellum	-11.4719
▁lane	-11.472
▁prep	-11.4721
oxy	-11.4721
▁credited	-11.4722
▁implement	-11.4723
sal	-11.4723
▁dar	-11.4724
▁damages	-11.4726
▁shortening	-11.4729
direct	-11.473
ok	-11.4731
tte	-11.4731
▁abundance	-11.4732
▁pokémon	-11.4732
▁avocado	-11.4733
▁1982	-11.4734
ture	-11.4739
uti	-11.4745
▁lamp	-11.4746
til	-11.4749
tine	-11.4752
worth	-11.4752
▁hell	-11.4755
▁incomplete	-11.4756
▁trout	-11.4757
▁commitment	-11.4757
ography	-11.4758
▁kin	-11.4762
▁strictly	-11.4762
▁reply	-11.4763
▁twist	-11.4767
oe	-11.4767
▁nepal	-11.4769
▁rupture	-11.4772
▁organisation	-11.4772
▁cube	-11.4772
▁nc	-11.478
▁symmetry	-11.4782
▁divisions	-11.4783
▁impaired	-11.4787
▁mailing	-11.4787
▁taller	-11.4789
▁pul	-11.4791
▁capita	-11.4791
▁sahara	-11.4791
▁basics	-11.4792
▁afferent	-11.4794
▁archaea	-11.4794
▁relay	-11.4795
▁differentiate	-11.4797
▁analysts	-11.4799
▁transit	-11.48
▁barn	-11.4801
▁silicate	-11.4802
▁clinics	-11.4805
▁anal	-11.4805
▁tutorial	-11.4807
mate	-11.4808
▁follicle	-11.4809
▁activate	-11.4812
▁gro	-11.4812
▁contributed	-11.4813
▁1.2	-11.4814
▁pharmaceutical	-11.4815
▁joining	-11.4815
bury	-11.4816
▁chef	-11.4816
▁aqueous	-11.482
▁taxpayers	-11.4821
▁panama	-11.4822
▁bce	-11.4822
▁varicella	-11.4825
▁documentation	-11.4825
▁interpret	-11.4826
▁vera	-11.4832
▁filters	-11.4833
▁hero	-11.4834
▁websites	-11.4835
▁injections	-11.4837
▁coding	-11.4843
▁minimize	-11.4845
▁consultation	-11.4847
▁bloating	-11.4847
▁emissions	-11.4847
rm	-11.4848
▁regulating	-11.4849
ən	-11.4852
▁occupied	-11.4853
para	-11.4853
▁135	-11.4856
▁piercing	-11.4857
▁finland	-11.4858
▁organizational	-11.4858
▁lin	-11.4861
▁3-5	-11.4862
▁indo	-11.4864
▁tenant	-11.4864
▁hvac	-11.4871
▁biomes	-11.4872
▁cider	-11.4872
▁lizard	-11.4873
▁von	-11.4875
▁flakes	-11.4878
▁receiver	-11.4879
▁daniel	-11.4883
▁salads	-11.4887
▁professionally	-11.4888
▁specialize	-11.4893
▁$750	-11.4896
▁categorized	-11.4898
▁creature	-11.4899
date	-11.49
▁searching	-11.4908
▁kangaroo	-11.4912
▁goose	-11.4913
▁insertion	-11.4913
▁cpa	-11.4914
▁corporations	-11.4915
▁solely	-11.4916
▁fer	-11.4919
▁inherit	-11.4921
▁rehabilitation	-11.4921
▁seaweed	-11.4922
lus	-11.4928
▁stimulating	-11.4929
6°	-11.4932
▁distant	-11.4934
▁petition	-11.4934
▁awards	-11.4937
wing	-11.4941
▁oc	-11.4942
dependent	-11.4942
▁madagascar	-11.4947
lock	-11.4947
pra	-11.495
▁injected	-11.4951
▁liner	-11.4952
▁differential	-11.4956
▁efficiently	-11.4958
▁confederate	-11.4959
▁opaque	-11.4959
▁noticed	-11.4959
▁observation	-11.4964
vid	-11.4967
▁manifest	-11.4967
graph	-11.497
▁watermelon	-11.4972
▁wheels	-11.4975
▁livestock	-11.4975
wiki	-11.4976
▁aneurysm	-11.4977
▁bail	-11.4979
▁permits	-11.498
▁allied	-11.4982
▁cones	-11.4983
▁pores	-11.4984
▁programme	-11.4986
nn	-11.4987
▁occurrence	-11.499
▁placement	-11.4994
▁gm	-11.4996
cup	-11.4996
▁veterinarians	-11.4996
▁toyota	-11.4998
▁incurred	-11.4998
▁1963	-11.4999
▁households	-11.5
▁celebrate	-11.5001
ition	-11.5004
▁uni	-11.5005
▁bronchitis	-11.5011
▁murder	-11.5011
▁diabetic	-11.5012
5,	-11.5013
▁attempts	-11.5013
▁arrest	-11.5015
▁welding	-11.5016
▁upright	-11.5018
▁lizards	-11.502
▁boxes	-11.5023
▁wires	-11.5024
▁pathology	-11.5024
being	-11.5028
▁carl	-11.5029
▁glasses	-11.5034
▁ve	-11.5034
▁ap	-11.5034
▁debut	-11.5035
▁talent	-11.504
▁coordinates	-11.504
▁sticks	-11.504
▁module	-11.5042
▁1.0	-11.5046
▁matches	-11.5046
▁companion	-11.5049
▁payable	-11.5051
▁implementation	-11.5051
▁combinations	-11.5052
▁psa	-11.5052
energy	-11.5053
sugar	-11.5054
▁vesicles	-11.5054
▁pointed	-11.5056
▁craft	-11.5057
▁gonorrhea	-11.5062
▁vulnerable	-11.5062
▁tesla	-11.5062
▁capillary	-11.5066
▁biotin	-11.5067
▁eagles	-11.5067
▁culinary	-11.5075
▁faculty	-11.5075
▁premature	-11.5075
▁orientation	-11.5075
▁conduction	-11.5078
▁ir	-11.5078
▁collapse	-11.5078
▁22,	-11.5079
▁watching	-11.508
▁hyperthyroidism	-11.5081
▁jose	-11.5081
▁chat	-11.5082
▁hemispheres	-11.5083
▁longitudinal	-11.5088
▁absent	-11.5088
ple	-11.5089
iest	-11.509
▁pla	-11.5094
▁drill	-11.5095
▁writers	-11.5095
eo	-11.5097
▁74	-11.5097
▁reveal	-11.51
▁doctrine	-11.5101
▁ladder	-11.5101
▁kinetic	-11.5101
▁scrub	-11.5101
▁denver	-11.5101
▁unlikely	-11.5102
▁simpler	-11.5102
▁dive	-11.5103
▁relatives	-11.5112
normal	-11.5113
▁distances	-11.5114
▁polypeptide	-11.5114
▁palace	-11.5115
▁narrowing	-11.5117
lor	-11.5118
▁notably	-11.5118
▁adopt	-11.5118
▁gra	-11.5119
stranded	-11.5119
▁ty	-11.512
▁pseudo	-11.5122
▁losses	-11.5126
▁eli	-11.5126
cephal	-11.5126
▁reconstruction	-11.5128
▁alex	-11.513
▁notary	-11.513
▁machinery	-11.5132
bur	-11.5132
▁investigation	-11.5134
▁optional	-11.5136
▁affairs	-11.5138
▁extensions	-11.5139
▁hydrochloride	-11.514
▁deficit	-11.5143
▁cer	-11.5144
▁thawed	-11.5145
gent	-11.515
▁fiberglass	-11.5154
▁stirring	-11.5154
▁neutrons	-11.5159
▁disabled	-11.516
▁williams	-11.5161
▁hosts	-11.5161
▁mot	-11.5162
▁1969	-11.5162
▁stra	-11.5164
▁crane	-11.5171
▁tofu	-11.5173
▁20,000	-11.5173
▁cataract	-11.5173
▁ink	-11.5175
▁phospholipids	-11.5175
word	-11.5177
▁jordan	-11.5179
▁reign	-11.5182
hal	-11.5185
▁gifts	-11.5186
product	-11.5188
▁kh	-11.5188
▁automotive	-11.5192
▁melanin	-11.5192
▁adipose	-11.5192
▁variance	-11.5192
▁ios	-11.5192
▁gothic	-11.5194
▁rico	-11.5194
▁savanna	-11.5198
boiled	-11.5198
▁scent	-11.52
tive	-11.5201
▁exceeds	-11.5205
▁hormonal	-11.5205
▁portfolio	-11.5205
bio	-11.5207
▁odd	-11.5208
▁pleural	-11.521
▁exams	-11.5211
▁facilitate	-11.5217
▁synonym	-11.5218
▁participants	-11.5218
sea	-11.5218
▁licence	-11.5219
▁tokyo	-11.5219
▁jane	-11.5223
▁tails	-11.5225
▁trials	-11.5225
▁titles	-11.5227
0.5	-11.5229
▁computing	-11.5232
▁faucet	-11.5232
▁lithium	-11.5232
▁opium	-11.5232
▁sm	-11.5233
▁shortly	-11.5233
largest	-11.5237
▁monarchy	-11.5237
▁digits	-11.5238
▁$61	-11.5239
▁31,	-11.5242
▁btu	-11.5243
▁sneezing	-11.5245
case	-11.5246
▁winner	-11.5246
▁97	-11.525
▁marker	-11.5254
▁almonds	-11.5254
▁insured	-11.5256
▁mathematical	-11.5258
▁phenomena	-11.5258
▁subsidiary	-11.5258
▁sliding	-11.5258
▁monetary	-11.5258
inter	-11.526
▁jim	-11.5261
▁marie	-11.5263
central	-11.5266
▁doctoral	-11.527
oil	-11.5275
▁disappear	-11.5275
▁violent	-11.5277
▁peaks	-11.5277
▁(30	-11.528
▁ecosystems	-11.5284
▁disaster	-11.5284
▁binary	-11.5285
▁ureters	-11.529
▁moderately	-11.529
ago	-11.5291
horn	-11.5292
▁expertise	-11.5298
ei	-11.5298
rc	-11.5298
▁winters	-11.5299
▁rodents	-11.5303
▁amylase	-11.5303
▁appliance	-11.5307
shi	-11.531
▁projection	-11.531
▁fits	-11.5316
▁billing	-11.5317
▁porch	-11.5318
▁offense	-11.5321
▁stainless	-11.5326
▁ste	-11.5328
▁fiction	-11.5328
mas	-11.5329
▁counted	-11.5332
▁stalk	-11.5336
▁iras	-11.5336
▁oblique	-11.5337
▁slender	-11.5337
▁ng	-11.5338
▁cra	-11.5338
▁impairment	-11.5339
▁crawl	-11.534
▁contributes	-11.5341
▁precious	-11.5347
▁joe	-11.5349
ever	-11.535
▁electrolytes	-11.5351
oy	-11.5358
▁hatching	-11.5363
▁pleasant	-11.5364
▁elaborate	-11.5364
▁palsy	-11.5364
▁youth	-11.5364
▁tbsp	-11.5365
▁actors	-11.5365
▁engage	-11.5367
▁bumps	-11.5367
pot	-11.5369
▁inactive	-11.537
150	-11.5371
▁tubular	-11.5372
▁alliance	-11.5377
▁oxford	-11.5378
▁imbalance	-11.5379
▁artistic	-11.5381
living	-11.5382
▁26,	-11.5383
unit	-11.5383
▁saute	-11.5384
▁filtered	-11.5384
▁4.5	-11.5385
▁sandy	-11.5388
▁essay	-11.5388
▁fifty	-11.5391
▁premiums	-11.5391
▁glossary	-11.5391
▁innate	-11.5391
▁testament	-11.5392
sel	-11.5392
▁sprinkler	-11.5393
▁intern	-11.5395
▁challenges	-11.5396
▁illustration	-11.5396
▁ps	-11.5398
▁allies	-11.5402
▁57	-11.5403
▁primer	-11.5405
▁nm	-11.5405
▁toss	-11.5406
▁sri	-11.5406
ff	-11.5406
▁posture	-11.5407
borne	-11.5408
▁4-6	-11.5408
▁bermuda	-11.5417
▁penicillin	-11.5417
▁phoenix	-11.5417
▁corpuscle	-11.5418
▁ester	-11.542
▁merely	-11.5421
▁$62	-11.5422
▁aesthetic	-11.5422
▁reflected	-11.5424
usa	-11.5429
▁intensive	-11.5429
▁sculpture	-11.5431
np	-11.5434
▁shiny	-11.5436
▁quoted	-11.5437
▁240	-11.5441
▁promotes	-11.5442
▁objectives	-11.5443
▁ornamental	-11.5446
▁vin	-11.5447
nation	-11.5448
▁similarities	-11.5449
▁holidays	-11.545
▁cools	-11.545
▁purchases	-11.5451
▁maria	-11.5455
2-	-11.5459
▁blooms	-11.546
▁$58	-11.5462
active	-11.5468
▁distributions	-11.5468
▁acrylic	-11.5471
▁sesame	-11.5471
story	-11.5472
ew	-11.5475
pol	-11.5477
▁monomers	-11.5484
▁transfers	-11.5489
▁eyelids	-11.549
▁districts	-11.5491
▁attributes	-11.5491
▁embryonic	-11.5492
▁farms	-11.5493
▁touching	-11.5495
owned	-11.5496
▁phloem	-11.5498
▁selenium	-11.5498
▁stuck	-11.5499
▁amendments	-11.55
ban	-11.5501
otic	-11.5502
▁accountant	-11.5505
your	-11.5508
etic	-11.5509
▁merchant	-11.551
▁generator	-11.5511
▁hop	-11.5511
▁cracks	-11.5511
▁folic	-11.5512
nce	-11.5513
ht	-11.5514
▁ethical	-11.5515
▁snails	-11.5515
▁kong	-11.5516
▁inability	-11.5517
bert	-11.5517
calorie	-11.5517
▁mistake	-11.5518
▁4,000	-11.552
dar	-11.552
▁invest	-11.5521
▁drives	-11.5522
▁argument	-11.5524
▁accomplish	-11.5525
▁warehouse	-11.5525
.00.	-11.5525
▁secretions	-11.5526
▁cop	-11.5526
▁needles	-11.5527
▁77	-11.5527
▁je	-11.5527
▁provisions	-11.5527
▁esp	-11.5528
▁lions	-11.553
▁roses	-11.5531
▁adams	-11.5532
▁5'	-11.5532
typically	-11.5534
▁follicles	-11.5537
put	-11.5537
▁attic	-11.5537
▁hockey	-11.5539
▁stephen	-11.554
▁graphic	-11.5541
▁bin	-11.5542
▁everest	-11.5542
▁chills	-11.5543
▁armed	-11.5545
▁$99	-11.5545
▁emerged	-11.5548
▁amp	-11.5549
▁climbing	-11.5552
▁summers	-11.5554
▁(13	-11.5555
▁lowering	-11.5557
▁socket	-11.5558
▁rational	-11.556
▁360	-11.5562
▁invade	-11.5564
▁collision	-11.5566
▁conversation	-11.5566
▁seasoned	-11.5566
▁hollywood	-11.5566
▁lithosphere	-11.5567
▁sustain	-11.557
▁correction	-11.5573
▁sustained	-11.5575
▁economics	-11.5576
▁navigation	-11.558
▁subunit	-11.558
▁settlers	-11.5581
berry	-11.5581
producing	-11.5583
▁hips	-11.5583
▁tonsils	-11.5586
▁hull	-11.5589
▁willing	-11.559
▁precursor	-11.5593
▁standardized	-11.5593
▁floating	-11.5593
▁probate	-11.5593
▁peat	-11.5595
ups	-11.5596
▁nat	-11.5596
▁electrolyte	-11.5598
season	-11.56
pur	-11.5601
▁lenders	-11.5602
▁phases	-11.5607
▁comparing	-11.5607
▁laboratories	-11.5607
▁pancreatitis	-11.5607
▁typhoid	-11.5607
▁herd	-11.5607
▁offset	-11.5608
▁1988	-11.5609
▁1985	-11.561
▁recommendation	-11.5611
▁hd	-11.5615
leg	-11.5618
▁gl	-11.5618
▁airports	-11.562
▁cheeses	-11.562
▁recipient	-11.5621
▁colitis	-11.5621
▁lyrics	-11.5623
ides	-11.5627
▁preserved	-11.5627
▁deadline	-11.5629
tar	-11.5631
ments	-11.5632
▁cannabis	-11.5634
▁determination	-11.5634
▁trapped	-11.5635
▁degeneration	-11.5635
▁prohibition	-11.5635
▁shoot	-11.5637
▁fillet	-11.5637
▁attributed	-11.5639
▁resulted	-11.5641
▁subsequently	-11.5642
▁accreditation	-11.5648
▁columbus	-11.5648
▁routing	-11.5648
▁14,	-11.5648
▁alligator	-11.5648
▁molds	-11.5649
▁triggers	-11.565
olo	-11.5652
▁scrap	-11.5653
▁ger	-11.5655
▁riding	-11.566
▁tr	-11.5661
▁ceremony	-11.5662
▁cherry	-11.5662
▁enlargement	-11.5662
uck	-11.5663
▁colorful	-11.5663
▁coloring	-11.5668
plus	-11.567
hydr	-11.5672
gie	-11.5673
▁enormous	-11.5675
▁glucosamine	-11.5675
▁taiga	-11.5676
▁$68	-11.5683
▁$76	-11.5684
▁taxed	-11.5687
▁seventh	-11.569
post	-11.569
▁accommodation	-11.569
▁senator	-11.569
▁kitten	-11.5691
ify	-11.5691
▁outpatient	-11.5691
atory	-11.5692
▁1975	-11.5693
flu	-11.5694
▁grouped	-11.5698
▁subduction	-11.5703
▁dock	-11.5703
matic	-11.5705
▁naval	-11.5705
▁1968	-11.5705
▁feather	-11.5706
urge	-11.5707
una	-11.5707
▁lap	-11.571
▁thickening	-11.5711
win	-11.5711
pho	-11.5711
▁destinations	-11.5714
space	-11.5715
▁£3	-11.5715
▁coordination	-11.5717
▁69	-11.5718
▁salty	-11.5719
▁lesion	-11.5719
▁hammer	-11.572
▁plastics	-11.572
▁occipital	-11.5721
▁crimes	-11.5726
▁proportional	-11.5726
▁treats	-11.5728
▁incidence	-11.573
▁influential	-11.573
▁reabsorption	-11.573
▁anne	-11.573
▁thyme	-11.5731
▁shareholders	-11.5734
▁refrigerate	-11.5735
▁88	-11.5735
▁vaccinations	-11.5738
▁diamonds	-11.5739
▁squirrels	-11.5742
▁existed	-11.5744
▁antonio	-11.5744
▁copied	-11.5744
▁outcome	-11.5746
▁tourism	-11.5747
piece	-11.575
▁sprain	-11.5751
▁clubs	-11.5751
density	-11.5751
▁bud	-11.5753
mart	-11.5754
▁inmate	-11.5756
▁delaware	-11.5758
▁integrity	-11.5758
▁resembling	-11.5758
▁fecal	-11.5759
▁sil	-11.5759
▁dear	-11.5761
▁zo	-11.5762
▁ltd	-11.5765
▁arabian	-11.5765
greek	-11.5767
▁specification	-11.5768
both	-11.577
▁unstable	-11.5772
▁engineered	-11.5772
▁$64	-11.5773
▁ethnicity	-11.5774
derm	-11.5775
▁borough	-11.5777
▁url	-11.5782
▁impression	-11.5784
ami	-11.5784
▁licorice	-11.5786
▁radical	-11.5787
▁rashes	-11.579
▁distilled	-11.5791
▁hanging	-11.5791
▁hood	-11.5792
gal	-11.5794
▁arabia	-11.5796
▁grilled	-11.5798
pd	-11.5798
▁casual	-11.5799
▁trick	-11.58
▁kelvin	-11.58
▁ros	-11.58
▁$7,000	-11.5802
▁furthermore	-11.5802
▁threatened	-11.5803
▁bleach	-11.5803
cip	-11.5803
▁crowd	-11.5804
▁broadly	-11.581
▁probation	-11.5814
▁penalties	-11.5814
▁cpu	-11.5815
tru	-11.5815
▁productivity	-11.5815
▁1987	-11.5816
▁initiate	-11.5818
120	-11.5818
▁hits	-11.582
other	-11.5822
800	-11.5826
▁sustainable	-11.5829
▁romantic	-11.583
▁explosive	-11.5831
▁mimic	-11.5833
these	-11.5834
▁idaho	-11.5842
▁lipase	-11.5842
▁saudi	-11.5842
▁torn	-11.5844
▁passion	-11.5845
bin	-11.5849
og	-11.5849
▁booking	-11.585
▁crater	-11.585
color	-11.5856
rad	-11.5857
▁conviction	-11.5857
▁landing	-11.5857
▁strongest	-11.5861
▁systematic	-11.5863
▁thermostat	-11.5865
▁northeastern	-11.5871
ean	-11.5873
▁hello	-11.5876
▁chicks	-11.588
▁syphilis	-11.5884
1.5	-11.5884
▁delivers	-11.5886
▁migraine	-11.5888
......	-11.5889
▁cargo	-11.5889
▁sinuses	-11.589
book	-11.5891
value	-11.5892
▁monosaccharides	-11.5893
▁isotopes	-11.5894
▁installer	-11.5894
▁amphibians	-11.5896
▁bsn	-11.5896
▁cloudy	-11.5898
▁ointment	-11.5898
▁biomass	-11.5898
▁gateway	-11.5898
▁ferry	-11.5899
▁encompasses	-11.5899
▁korean	-11.5899
▁norwegian	-11.59
▁curd	-11.5904
▁compressed	-11.5905
▁enroll	-11.5905
▁$63	-11.5906
cher	-11.5907
▁compatible	-11.5911
▁compete	-11.5911
▁glutamate	-11.5912
▁portland	-11.5916
▁photography	-11.5917
▁observe	-11.5918
▁portable	-11.5922
▁starchy	-11.5924
▁drains	-11.5925
▁bangladesh	-11.5926
▁stenosis	-11.5926
▁internship	-11.5926
▁rolls	-11.5926
thirds	-11.5933
shire	-11.5933
aki	-11.5934
▁dui	-11.5936
▁anatomical	-11.5936
▁exciting	-11.594
▁ethernet	-11.594
oph	-11.5942
▁accurately	-11.5944
▁verse	-11.5951
▁technologists	-11.5955
▁lumen	-11.5956
skin	-11.5956
▁12'	-11.5956
▁1972	-11.5957
▁acetate	-11.5958
▁opiate	-11.5959
▁adaptation	-11.596
▁pic	-11.5961
▁grants	-11.5963
▁bits	-11.5965
▁rd	-11.5967
▁epilepsy	-11.5968
▁essence	-11.5968
▁oatmeal	-11.5968
▁synonymous	-11.5969
▁sto	-11.5973
▁stack	-11.5975
▁halfway	-11.5976
speaking	-11.5977
!!	-11.5977
dine	-11.5979
count	-11.598
atic	-11.598
▁db	-11.5981
▁indicating	-11.5982
▁inhalation	-11.5982
▁flank	-11.5982
▁agonist	-11.5984
▁1973	-11.5985
:1	-11.5985
▁$95	-11.5986
▁photograph	-11.5987
between	-11.5991
▁$72	-11.5996
grain	-11.5996
▁fission	-11.5997
▁fluctuate	-11.5997
▁kosher	-11.5997
▁priest	-11.5998
▁edema	-11.5998
▁distribute	-11.6001
▁picked	-11.6003
▁presents	-11.6005
▁sl	-11.6006
▁flavoring	-11.6008
who	-11.6008
sey	-11.6009
▁worship	-11.6011
▁saturn	-11.6011
▁propane	-11.6011
▁arthur	-11.6011
▁kai	-11.6012
▁incident	-11.6015
text	-11.6017
▁turbine	-11.602
▁midwife	-11.6025
rian	-11.6025
▁cheapest	-11.6026
▁breaths	-11.6027
gp	-11.6028
▁starches	-11.6028
fall	-11.6028
▁newton	-11.6029
seed	-11.603
amide	-11.6031
▁inhibitor	-11.6031
▁rope	-11.6032
bc	-11.6035
▁easter	-11.6036
▁pulling	-11.6039
▁subscription	-11.604
▁accessory	-11.6041
list	-11.6042
▁sought	-11.6044
vert	-11.6044
▁84	-11.6045
toxic	-11.6046
▁$67	-11.6047
oa	-11.6047
html	-11.605
▁adhesive	-11.6051
▁chew	-11.6051
▁extensively	-11.6052
▁memorial	-11.6054
its	-11.6055
▁poems	-11.6055
▁counselors	-11.6057
▁valued	-11.6058
pu	-11.6061
▁helen	-11.6061
▁veterans	-11.6064
▁curl	-11.6068
▁knight	-11.6069
▁reads	-11.6069
▁sauces	-11.6069
▁1.1	-11.6069
▁mcg	-11.607
▁dys	-11.607
▁cookies	-11.6071
▁2-4	-11.6071
▁perceived	-11.6073
▁dissolves	-11.6078
▁ox	-11.6081
bearing	-11.6081
▁flexion	-11.6083
▁spirits	-11.6096
▁ter	-11.6104
▁pastry	-11.6105
▁rotate	-11.6109
▁$71	-11.611
▁proposal	-11.6111
grass	-11.6112
▁sandstone	-11.6113
▁reimbursement	-11.6113
▁101	-11.6113
flow	-11.6116
▁fissure	-11.6118
▁modest	-11.6121
▁tracks	-11.6124
▁intrinsic	-11.6125
▁sterile	-11.6125
▁endo	-11.6126
band	-11.6126
▁yields	-11.6126
▁revolutionary	-11.6126
▁outermost	-11.6127
▁jazz	-11.6127
ila	-11.6132
▁xp	-11.6134
▁cf	-11.6138
▁relates	-11.6139
▁tubules	-11.6139
▁dakota	-11.614
▁disabilities	-11.614
▁utilities	-11.614
say	-11.614
eth	-11.6142
▁listings	-11.6143
▁suited	-11.6152
▁pv	-11.6152
▁anise	-11.6153
▁federation	-11.6154
lac	-11.6154
rit	-11.6155
▁extinction	-11.6156
saxon	-11.6163
▁6-8	-11.6165
uma	-11.6168
▁clinton	-11.6168
▁consequently	-11.6169
oon	-11.6169
▁tele	-11.617
hours	-11.6172
ensis	-11.6172
▁princess	-11.6176
▁compartment	-11.6176
▁powdered	-11.6178
chemical	-11.6181
▁repetitive	-11.6183
▁umbrella	-11.6183
▁whilst	-11.6183
▁efferent	-11.6183
vitamin	-11.6191
tter	-11.6195
▁ale	-11.6195
▁actively	-11.6196
▁swift	-11.6197
▁nationally	-11.6198
▁disposal	-11.6198
▁sen	-11.6199
▁bruce	-11.62
▁restrict	-11.6202
▁roasts	-11.6203
ux	-11.6203
▁grid	-11.6204
▁xml	-11.6204
block	-11.6207
▁wars	-11.6207
▁$80,000	-11.6207
▁pleasure	-11.6212
▁strange	-11.6212
▁incision	-11.6212
▁femur	-11.6212
▁austin	-11.6213
▁stuffed	-11.6217
▁albert	-11.6221
▁faces	-11.6221
▁fern	-11.6222
itch	-11.6224
▁fiscal	-11.6226
▁balloon	-11.6227
▁ic	-11.6227
mia	-11.6228
▁vertebrate	-11.6236
▁mites	-11.6237
▁generates	-11.6239
▁plank	-11.6239
▁medically	-11.6239
▁nutritious	-11.6241
▁nd	-11.6241
▁equate	-11.6241
▁contrary	-11.6241
▁rolled	-11.6241
▁heights	-11.6243
▁1957	-11.6243
▁flax	-11.6244
ace	-11.6245
german	-11.6246
▁worsen	-11.6246
▁definite	-11.6251
child	-11.6252
▁mcdonald	-11.6255
▁strawberries	-11.6255
▁elect	-11.626
▁eg	-11.6268
gene	-11.6268
▁tired	-11.6269
pping	-11.6269
▁pericardium	-11.627
stein	-11.6271
▁selecting	-11.6276
▁braces	-11.6277
pon	-11.6279
▁$10,000.	-11.6279
▁adventure	-11.629
▁ethiopia	-11.6291
▁elections	-11.6295
▁woven	-11.6296
onic	-11.6297
▁(11	-11.6297
▁stratosphere	-11.6299
▁filmed	-11.6303
▁bee	-11.6304
▁bru	-11.6305
ivity	-11.6307
▁inhibit	-11.6312
▁cirrhosis	-11.6314
▁miniature	-11.6314
▁exotic	-11.6315
▁thermo	-11.6318
▁deepest	-11.632
pay	-11.6321
▁dh	-11.6323
▁flare	-11.6328
▁cane	-11.6328
▁barbecue	-11.6328
▁sociology	-11.6329
▁passages	-11.6331
vic	-11.6332
▁counts	-11.6333
▁contamination	-11.6334
▁nights	-11.6334
▁82	-11.6337
nesthesiologist	-11.6339
▁newspaper	-11.6339
▁rom	-11.6343
▁congo	-11.6343
▁mango	-11.6343
▁rescue	-11.6343
▁featuring	-11.6343
▁alert	-11.6344
▁borne	-11.6345
▁cakes	-11.635
nan	-11.6352
▁induced	-11.6353
▁calculations	-11.6354
▁18,	-11.6355
▁loading	-11.6357
▁servers	-11.6359
▁stripes	-11.636
▁fico	-11.636
eh	-11.6364
▁chris	-11.6365
▁epic	-11.6365
▁liberal	-11.6368
▁commissions	-11.637
▁broil	-11.6371
▁shrink	-11.6372
▁dove	-11.6372
▁dystrophy	-11.6373
▁byproduct	-11.6373
▁quinoa	-11.6373
▁ringworm	-11.6373
udi	-11.6376
▁columnar	-11.6377
▁modify	-11.6377
▁ford	-11.638
gger	-11.6381
▁kw	-11.6383
yellow	-11.6383
▁lobster	-11.6384
▁cooled	-11.6385
▁21,	-11.6386
bad	-11.6386
▁balls	-11.6388
▁lightweight	-11.6391
▁trains	-11.6395
▁gre	-11.6398
▁temporarily	-11.6402
▁counselor	-11.6402
▁mortality	-11.6402
▁rainbow	-11.6402
▁tasmania	-11.6403
face	-11.6406
–19	-11.6406
▁projected	-11.6409
▁sho	-11.6411
cum	-11.6412
2.5	-11.6413
▁abscess	-11.6414
▁crabs	-11.6414
▁gin	-11.6415
▁bas	-11.6416
▁stopping	-11.6419
bank	-11.6421
▁whereby	-11.6421
str	-11.6422
▁glaze	-11.6423
▁header	-11.6424
▁bro	-11.6424
▁tune	-11.6426
▁swallow	-11.6427
▁genera	-11.6428
polar	-11.6433
ef	-11.6433
▁que	-11.6433
▁promise	-11.6434
▁ammonium	-11.6438
▁fabrics	-11.6439
vascular	-11.644
▁hg	-11.6445
▁tibia	-11.6445
▁hygiene	-11.6447
▁airplane	-11.6448
▁2,500	-11.645
▁mil	-11.645
▁11,	-11.645
▁organize	-11.6452
▁ferns	-11.6453
▁(50	-11.6453
▁fla	-11.6454
sive	-11.6456
▁coin	-11.6457
▁#2	-11.6459
code	-11.646
▁sql	-11.6461
▁removes	-11.6461
▁populous	-11.6462
▁mechanic	-11.6462
▁venture	-11.6465
▁lands	-11.6472
▁hetero	-11.6473
ids	-11.6474
▁dragons	-11.6474
▁convection	-11.6476
▁damaging	-11.6477
▁punishment	-11.6477
power	-11.6478
▁odorless	-11.6479
▁mesh	-11.648
▁incoming	-11.6482
▁3000	-11.6483
▁2006,	-11.6483
web	-11.6484
▁$45,000	-11.6484
▁anytime	-11.6487
▁sad	-11.6488
▁packet	-11.649
▁challenging	-11.6491
▁oxalate	-11.6491
▁renovation	-11.6491
▁rectal	-11.6492
-13	-11.6493
wire	-11.6493
paying	-11.6496
bell	-11.6497
spi	-11.6501
lio	-11.6501
▁provision	-11.6506
▁decreasing	-11.6506
▁clark	-11.6506
▁busy	-11.6507
▁subtle	-11.6507
▁retained	-11.6507
▁spotted	-11.6508
▁fitting	-11.6509
▁pressing	-11.6512
▁rio	-11.6512
▁histamine	-11.6512
▁papers	-11.6514
▁hind	-11.6516
▁mulch	-11.6516
▁rocket	-11.6516
▁fibromyalgia	-11.6521
ille	-11.6522
order	-11.6524
corn	-11.6524
▁islamic	-11.6525
▁excreted	-11.6526
▁4.0	-11.6528
▁$130	-11.6528
▁shortened	-11.6531
▁6-	-11.6531
▁jacket	-11.6532
▁acidity	-11.6533
▁inhabit	-11.6535
▁nar	-11.6535
▁mur	-11.6536
▁montana	-11.6537
▁parliamentary	-11.6537
▁pylori	-11.6537
▁cricket	-11.6537
▁mauna	-11.6537
▁terrain	-11.6538
▁solo	-11.6538
▁bla	-11.654
genic	-11.6543
▁$13,000	-11.6543
▁withdrawals	-11.6547
▁developer	-11.6548
▁kay	-11.6549
▁retinal	-11.655
rite	-11.655
▁swamp	-11.655
▁explosion	-11.6551
▁masculine	-11.6551
▁calves	-11.6551
▁4%	-11.6552
▁adhere	-11.6557
▁spay	-11.6558
aq	-11.6558
▁constitutes	-11.6559
▁violet	-11.6559
▁discs	-11.6561
▁225	-11.6561
▁accommodate	-11.6566
▁judicial	-11.6566
▁jacob	-11.6566
▁lifting	-11.6566
▁legendary	-11.6567
▁retaining	-11.6574
xa	-11.6576
▁accomplished	-11.6576
▁documented	-11.6577
▁respective	-11.6578
▁commander	-11.6579
▁triglyceride	-11.658
▁cancerous	-11.6581
▁galaxy	-11.6581
▁striking	-11.6581
▁procurement	-11.6581
▁papaya	-11.6581
▁eric	-11.6582
▁specially	-11.6584
▁1040	-11.6586
▁nov	-11.6587
▁pupil	-11.6587
▁occupations	-11.6587
▁shin	-11.6588
▁tuck	-11.6589
▁initiated	-11.6592
▁liquor	-11.6596
▁ensuring	-11.6596
▁impressive	-11.6596
ction	-11.6596
▁subtropical	-11.6597
▁hazardous	-11.6597
ali	-11.6598
▁flush	-11.6598
▁cracked	-11.6599
▁dimension	-11.66
▁isotope	-11.66
▁guardian	-11.6601
▁investments	-11.6601
ional	-11.6603
mag	-11.6604
▁retired	-11.6606
!)	-11.6607
oids	-11.6607
▁cleaned	-11.6607
▁currents	-11.661
▁troposphere	-11.6611
▁walmart	-11.6611
▁literal	-11.6612
▁logical	-11.6614
▁sab	-11.6615
▁frying	-11.6615
50,000	-11.6618
▁panda	-11.6623
rod	-11.6625
release	-11.6626
▁qualification	-11.6626
▁mike	-11.6626
▁yarn	-11.6626
▁adjustment	-11.6628
▁1933	-11.6636
▁emerge	-11.6636
▁ketones	-11.6637
▁16,	-11.6638
▁penetrate	-11.6641
▁plexus	-11.6641
▁425	-11.6645
▁mus	-11.6645
▁dated	-11.6648
ore	-11.665
page	-11.6654
nh	-11.6654
▁jews	-11.6655
▁dishwasher	-11.6657
▁endurance	-11.6657
▁dont	-11.6657
▁danish	-11.6657
▁disrupt	-11.6659
▁spec	-11.666
▁permitted	-11.6661
bul	-11.6664
▁enhanced	-11.6664
%)	-11.6666
▁robin	-11.6668
▁occasional	-11.6669
▁airway	-11.667
▁ensures	-11.6671
▁contributing	-11.6672
▁ganglia	-11.6672
▁discounts	-11.6673
ington	-11.6673
▁hose	-11.6673
bro	-11.6674
▁ripe	-11.6674
▁newer	-11.6675
▁improves	-11.6675
▁raises	-11.6677
▁24-	-11.6677
ril	-11.6677
▁apparently	-11.6678
▁lar	-11.6679
▁yu	-11.668
▁29,	-11.6683
▁simon	-11.6683
glucose	-11.6684
▁beak	-11.6685
▁namely	-11.6687
▁ports	-11.6689
▁hydrocodone	-11.6691
7.5	-11.6695
▁cdc	-11.6695
ssa	-11.6695
▁hungary	-11.67
▁locally	-11.6702
▁manhattan	-11.6702
▁wiktionary	-11.6702
▁xanax	-11.6702
▁zodiac	-11.6702
▁lichen	-11.6703
▁jungle	-11.6705
▁sacrifice	-11.6717
▁diploid	-11.6718
arch	-11.672
▁experimental	-11.6724
▁arthropods	-11.6729
small	-11.6729
▁melon	-11.673
ack	-11.6732
▁colours	-11.6732
▁exclusion	-11.6733
▁graves	-11.6735
▁1979	-11.6735
▁codeine	-11.6735
ters	-11.674
▁hz	-11.674
▁routes	-11.6746
0.0	-11.6746
▁ventricular	-11.6747
▁perpendicular	-11.6748
▁fragrance	-11.6748
tum	-11.6749
tile	-11.6751
▁mast	-11.6753
▁intend	-11.6756
▁tenth	-11.6761
▁spoil	-11.6763
▁governing	-11.6763
▁tramadol	-11.6763
▁monster	-11.6764
▁00	-11.6766
▁walker	-11.6767
▁suggestions	-11.677
▁warmth	-11.6771
▁pigs	-11.6773
gl	-11.6774
▁recall	-11.6776
▁oily	-11.6776
▁lodge	-11.6779
▁framing	-11.6779
▁coniferous	-11.6779
▁hygienist	-11.678
▁$79	-11.678
▁nap	-11.6781
▁175	-11.6784
▁islam	-11.6792
troph	-11.6794
▁2008.	-11.6794
▁conducting	-11.6799
▁sd	-11.6799
▁yellowish	-11.68
▁weakened	-11.68
▁clo	-11.6806
▁shooting	-11.6806
▁bridges	-11.6807
▁nucleolus	-11.6809
▁remainder	-11.6811
▁nano	-11.6814
▁5-10	-11.6814
▁dun	-11.6816
▁guys	-11.6816
hy	-11.6817
▁comedy	-11.6818
▁nodules	-11.6818
▁signaling	-11.6818
▁reviewed	-11.6819
▁reception	-11.6822
▁vat	-11.6822
▁curves	-11.6822
▁migration	-11.6825
▁oracle	-11.6825
▁dietitian	-11.6827
▁dominated	-11.6831
▁baker	-11.6831
▁thyroxine	-11.6831
nar	-11.6835
▁peroxide	-11.6835
▁kelp	-11.6837
▁mollusks	-11.6838
▁adolescents	-11.6838
ree	-11.684
▁prairie	-11.684
▁racing	-11.684
▁bicycle	-11.684
▁flagella	-11.6841
▁alpine	-11.6841
▁1967	-11.6842
▁victim	-11.6843
▁spore	-11.6847
methyl	-11.6852
▁weapons	-11.6852
black	-11.6854
ast	-11.6854
▁labrador	-11.6856
▁courtesy	-11.6856
▁fragrant	-11.6856
▁greeks	-11.6856
▁vagus	-11.6856
rick	-11.6857
▁wedge	-11.6857
▁devil	-11.6858
▁spends	-11.6858
▁eliminated	-11.6859
▁hawk	-11.6859
▁trainer	-11.686
▁compromise	-11.6861
▁grassland	-11.6862
▁triggered	-11.6862
cla	-11.6863
dry	-11.6864
▁hue	-11.6866
▁demonstrated	-11.6868
▁timeline	-11.6869
▁returning	-11.6873
▁scanner	-11.6873
ites	-11.6874
▁saturation	-11.6876
▁groom	-11.6877
▁builder	-11.6877
ants	-11.6878
eus	-11.688
▁personally	-11.6883
oral	-11.6884
cola	-11.6885
▁probability	-11.6887
▁overseas	-11.6887
▁gallery	-11.6887
▁50,000	-11.6887
vy	-11.6889
blood	-11.6891
▁hungarian	-11.6894
atp	-11.6895
▁syria	-11.6896
▁logistics	-11.6898
▁husk	-11.6898
▁terminology	-11.6902
▁governance	-11.6903
px	-11.6903
▁authorities	-11.6903
▁relies	-11.6906
▁eco	-11.6907
▁ingested	-11.6908
arian	-11.691
▁pleura	-11.6913
▁dressing	-11.6914
▁verbal	-11.6916
pal	-11.6916
▁filtering	-11.6917
▁municipal	-11.6917
ocean	-11.6917
▁shampoo	-11.6918
▁inspiration	-11.6918
▁poppy	-11.6918
▁aviation	-11.6919
▁brussels	-11.6919
▁happening	-11.692
720	-11.6921
▁parish	-11.6921
▁specimen	-11.6921
▁cholera	-11.6922
▁amps	-11.6925
▁gastro	-11.6926
▁engaged	-11.6929
virus	-11.693
▁arrangements	-11.693
-17	-11.6934
▁76	-11.6934
▁logic	-11.6934
▁eighth	-11.6937
▁17,	-11.6938
trop	-11.6941
▁birch	-11.6945
▁celebration	-11.6949
▁invoice	-11.6949
▁2007.	-11.6953
sign	-11.6953
▁americas	-11.6958
▁derivatives	-11.696
▁mechanics	-11.6961
▁sphincter	-11.6965
gb	-11.6965
▁meanwhile	-11.6966
▁serous	-11.6966
220	-11.6966
▁landmark	-11.6967
▁obligation	-11.6969
▁quin	-11.6973
stop	-11.6973
▁stimulant	-11.6974
▁1.8	-11.6975
ear	-11.6975
▁71	-11.6978
▁ridges	-11.6979
▁clostridium	-11.698
▁municipality	-11.6981
▁grammar	-11.6982
▁scattered	-11.6982
▁peer	-11.6989
▁$500,000	-11.6989
▁poorly	-11.699
▁oranges	-11.6994
▁taylor	-11.6996
ben	-11.6997
▁commerce	-11.6997
-$100	-11.7
acting	-11.7001
▁mountainous	-11.7003
▁loaded	-11.7003
▁inhabited	-11.7006
▁rival	-11.7006
▁traded	-11.7006
▁9,	-11.7008
section	-11.701
▁cart	-11.7012
▁plywood	-11.7012
▁oregano	-11.7012
▁fiji	-11.7012
▁newborns	-11.7013
▁sing	-11.7014
▁telling	-11.7016
dimensional	-11.7016
ld	-11.7016
tailed	-11.7017
▁tolerate	-11.7018
▁willow	-11.7019
lant	-11.7021
▁administer	-11.7023
▁assign	-11.7024
▁rum	-11.7024
▁authors	-11.7026
▁captivity	-11.7027
▁drought	-11.7027
▁polyester	-11.7028
▁spinning	-11.7028
▁$82	-11.7028
▁swing	-11.7028
▁rhino	-11.703
▁inhaled	-11.7032
▁bunch	-11.7038
▁heaters	-11.7039
▁dendrites	-11.704
▁opal	-11.7041
▁francis	-11.7041
▁bent	-11.7041
▁(/	-11.7042
pers	-11.7043
▁excretion	-11.7043
▁dormant	-11.7043
▁atrophy	-11.7043
▁township	-11.7045
▁cardio	-11.7046
▁bore	-11.7047
▁toes	-11.7047
▁conservative	-11.7049
dale	-11.705
▁govern	-11.7053
▁rig	-11.7055
dh	-11.7058
▁nectar	-11.7058
▁baggage	-11.7059
▁consecutive	-11.7059
▁captured	-11.7065
▁sealing	-11.7067
yle	-11.7068
▁delegates	-11.7069
make	-11.7069
▁suspected	-11.7071
lay	-11.7073
ique	-11.7073
▁immigrate	-11.7075
▁avenue	-11.7075
▁cyprus	-11.7075
▁interactive	-11.7076
growing	-11.708
▁synapse	-11.708
▁corp	-11.7081
▁indirectly	-11.7084
▁sudan	-11.709
▁separating	-11.709
▁gametophyte	-11.709
▁ecological	-11.7091
▁norm	-11.7092
▁involvement	-11.7093
▁bri	-11.7094
▁accountants	-11.7094
real	-11.7101
une	-11.7103
add	-11.7105
gel	-11.7106
▁elimination	-11.7106
▁specifications	-11.7106
▁enclosure	-11.7106
▁bold	-11.7107
start	-11.7111
▁generalized	-11.7111
▁breads	-11.7111
▁rob	-11.7112
▁considerations	-11.7112
▁(14	-11.7113
▁travelling	-11.7117
▁highlight	-11.7117
▁enjoyed	-11.712
▁amplitude	-11.7122
▁1977	-11.7125
▁(25	-11.7125
▁1955	-11.7126
then	-11.7126
health	-11.7128
▁transports	-11.713
▁lengths	-11.7132
▁cork	-11.7133
▁deleted	-11.7134
▁founding	-11.7135
▁61	-11.7135
▁woody	-11.7137
mouth	-11.7137
french	-11.7137
▁demonstrate	-11.7138
▁drizzle	-11.7138
▁elvis	-11.7139
▁assumes	-11.714
▁1976	-11.714
▁1947	-11.7141
▁fails	-11.7142
▁96	-11.7144
▁argue	-11.7145
▁brian	-11.7145
▁sage	-11.715
▁confusing	-11.7154
▁trillion	-11.7154
▁anyway	-11.7155
ois	-11.7155
▁reflection	-11.7161
tta	-11.7161
▁replicate	-11.7163
brain	-11.7165
ich	-11.7166
▁attracted	-11.7168
▁catheter	-11.717
▁dent	-11.717
▁ghost	-11.7171
▁ec	-11.7172
los	-11.7174
▁glomerular	-11.7174
▁rm	-11.7176
▁dreams	-11.7176
▁blister	-11.7178
▁governed	-11.7179
city	-11.7182
▁promoting	-11.7193
▁startup	-11.7195
▁strings	-11.7196
▁botanical	-11.7197
▁insight	-11.7198
lə	-11.7198
▁abc	-11.7199
▁convergent	-11.7202
▁neutrophils	-11.7202
▁enacted	-11.7204
▁interstitial	-11.7204
,000,000	-11.7204
wall	-11.7205
▁moringa	-11.7205
▁$250,000	-11.721
▁psycho	-11.7211
▁pavers	-11.7215
▁redwood	-11.7215
dal	-11.7215
▁coats	-11.7217
▁saffron	-11.7218
▁crohn	-11.7218
▁travelers	-11.7219
ao	-11.7221
cop	-11.7222
▁pods	-11.7223
▁sting	-11.7223
▁coaches	-11.7224
▁modification	-11.7226
get	-11.7227
▁lacking	-11.723
gm	-11.7231
▁surnames	-11.7232
▁gang	-11.7234
▁venous	-11.7234
▁finishes	-11.7235
▁provisional	-11.7238
▁youngest	-11.724
pdf	-11.7241
▁substantially	-11.7242
▁carrot	-11.7243
▁viewing	-11.7246
▁$86	-11.7246
pat	-11.7247
▁blank	-11.7247
▁circulating	-11.725
▁shuttle	-11.725
▁zygote	-11.725
ado	-11.7251
▁visited	-11.7252
▁($2	-11.7253
male	-11.7254
▁tide	-11.7254
aging	-11.7255
▁shadow	-11.7263
hn	-11.7263
▁exp	-11.7263
▁chose	-11.7263
▁accumulate	-11.7265
▁kreati	-11.7266
▁inland	-11.7266
▁ingestion	-11.7267
▁engagement	-11.7267
▁experiments	-11.7268
▁der	-11.7269
flower	-11.7269
ule	-11.727
▁clams	-11.727
▁facet	-11.7272
▁folds	-11.7274
▁downward	-11.7274
▁anion	-11.7275
▁uncomfortable	-11.7283
▁intact	-11.7283
▁tent	-11.7283
▁dancing	-11.7283
▁healthier	-11.7284
tle	-11.7284
▁twisted	-11.7294
▁broke	-11.7297
▁fallopian	-11.7298
▁orally	-11.7299
▁champion	-11.7299
▁cucumbers	-11.73
▁movers	-11.73
▁blindness	-11.73
▁sta	-11.73
▁vaccinated	-11.73
▁1959	-11.7302
hill	-11.7302
----------------	-11.7302
▁pp	-11.7302
▁waist	-11.7303
▁8-	-11.7306
▁fibro	-11.7309
sec	-11.7309
▁ureter	-11.7314
bal	-11.7314
▁scapula	-11.7314
south	-11.7315
▁dies	-11.7321
▁toll	-11.7323
▁0.3	-11.7325
▁stabilize	-11.7327
▁begun	-11.7328
▁moreover	-11.7329
-16	-11.733
▁owls	-11.7334
▁patented	-11.7336
▁grinding	-11.7338
▁cp	-11.7339
▁batter	-11.7339
▁hum	-11.7343
▁mixes	-11.7345
▁mating	-11.7345
▁proto	-11.7346
▁acupuncture	-11.7347
▁hydrophobic	-11.7347
▁parasympathetic	-11.7347
▁fencing	-11.7347
▁accordance	-11.7347
alia	-11.7348
▁graphite	-11.7349
▁plum	-11.7352
▁immigrants	-11.7354
far	-11.7355
▁overuse	-11.7356
▁swan	-11.7357
▁23,	-11.7357
▁cookie	-11.7358
▁syllable	-11.7359
▁polyp	-11.736
away	-11.7363
&#39;	-11.7363
▁christopher	-11.7363
▁ovarian	-11.7363
defined	-11.7364
▁graphics	-11.7365
▁paintings	-11.7365
▁pride	-11.7369
itz	-11.7369
ency	-11.7372
▁bracket	-11.7373
▁internationally	-11.7376
________________	-11.7377
▁pouch	-11.7377
▁capabilities	-11.738
▁cumulative	-11.738
▁morocco	-11.738
depending	-11.738
▁proud	-11.7381
▁auditory	-11.7383
▁bundles	-11.7383
▁avoiding	-11.7383
▁breaker	-11.7385
▁twins	-11.7386
cro	-11.7388
▁applicant	-11.739
dent	-11.739
▁86	-11.7391
ogenic	-11.7392
▁wrinkles	-11.7395
▁implied	-11.7396
▁subcutaneous	-11.7396
▁outward	-11.7398
chain	-11.7398
▁towels	-11.7403
hra	-11.7407
ering	-11.741
▁intrusive	-11.7412
▁taxonomic	-11.7412
▁imported	-11.7413
▁glaciers	-11.7413
9°	-11.7414
▁blades	-11.7414
▁myself	-11.7415
▁tires	-11.7416
▁pharmacists	-11.7417
ural	-11.7419
▁chill	-11.7419
▁weights	-11.742
▁citation	-11.742
▁surroundings	-11.7422
▁uti	-11.7428
▁registers	-11.7428
▁0.6	-11.7429
▁scans	-11.743
▁grout	-11.743
▁purity	-11.743
▁corresponds	-11.743
▁1948	-11.7432
▁examined	-11.7432
▁5.5	-11.7434
▁leukocytes	-11.7438
mond	-11.7439
▁alien	-11.7439
▁surf	-11.744
▁curved	-11.744
▁trustee	-11.7441
▁shine	-11.7444
▁escherichia	-11.7445
▁rf	-11.7446
eur	-11.7452
▁incidental	-11.7457
▁exercising	-11.7461
▁garbage	-11.7461
▁caution	-11.7462
▁[1]	-11.7463
▁outbreak	-11.7463
▁coordinate	-11.7463
mur	-11.7464
itic	-11.7465
risk	-11.7465
▁tourists	-11.7465
▁ramp	-11.7467
▁sponsor	-11.7468
▁1.3	-11.7469
cells	-11.7471
▁transcript	-11.7471
▁rosa	-11.7474
▁nazi	-11.7474
▁reactants	-11.7475
▁concerning	-11.7477
▁gdp	-11.7478
▁pilots	-11.7482
▁sausages	-11.7484
▁usps	-11.7486
uli	-11.7486
aut	-11.7489
due	-11.7492
▁ceilings	-11.7493
▁alternating	-11.7494
▁ginseng	-11.7494
▁desk	-11.7495
▁foramen	-11.7495
▁relaxation	-11.7496
ski	-11.7499
▁slot	-11.75
▁attended	-11.7502
▁collects	-11.7502
▁impacts	-11.7503
▁cytosol	-11.7505
▁mariana	-11.7508
load	-11.7509
lene	-11.751
▁anniversary	-11.7511
▁ibuprofen	-11.7511
▁creator	-11.7511
▁dropping	-11.7513
▁bog	-11.7515
sol	-11.7517
▁(0.00	-11.7517
▁chase	-11.7519
chu	-11.7519
▁depreciation	-11.7527
▁melbourne	-11.7527
▁suicide	-11.7528
anna	-11.753
▁overlap	-11.7533
duc	-11.7534
▁$75,000	-11.7534
▁fictional	-11.7534
▁0.4	-11.7537
▁circuits	-11.754
▁deficiencies	-11.7544
▁lodging	-11.7544
▁collateral	-11.7544
0%	-11.7544
2).	-11.7544
▁quantum	-11.7544
elo	-11.7548
▁consulting	-11.7549
▁lacks	-11.7549
▁whooping	-11.7551
▁2005,	-11.7551
rot	-11.7553
▁vacuole	-11.7557
▁psychiatrist	-11.7557
▁antidepressant	-11.7557
▁recurrent	-11.7563
aro	-11.7563
▁yoga	-11.7564
▁4-5	-11.7567
fig	-11.7568
▁polysaccharide	-11.7569
▁pests	-11.7569
▁steve	-11.7571
▁authentic	-11.7575
wh	-11.7577
▁analyzed	-11.7577
▁sterling	-11.7577
▁simultaneously	-11.7579
▁chromatin	-11.7579
▁prion	-11.7579
▁1939	-11.7581
master	-11.7582
250	-11.7587
▁vas	-11.7588
▁lasted	-11.7588
▁nationality	-11.7589
▁wavelengths	-11.7589
▁paragraph	-11.7591
▁avocados	-11.7592
▁consciousness	-11.7595
▁boils	-11.7596
▁cables	-11.7597
▁atrial	-11.7599
rg	-11.7607
▁sulfide	-11.761
▁renowned	-11.7611
▁stretched	-11.7611
▁lumber	-11.7611
▁succession	-11.7613
▁realistic	-11.7614
▁vertebra	-11.7615
▁13,	-11.7619
▁serial	-11.762
▁complication	-11.7624
▁gp	-11.7625
▁condo	-11.7627
▁innovation	-11.7627
▁thirst	-11.7627
▁geology	-11.7628
▁equipped	-11.7632
600	-11.7632
check	-11.7633
▁reg	-11.7634
▁predator	-11.7636
▁spans	-11.7637
▁underwater	-11.7642
▁fascinating	-11.7644
▁olympic	-11.7644
▁watson	-11.7644
▁numerology	-11.7645
▁dentists	-11.7645
▁lima	-11.7646
▁knew	-11.7646
▁progesterone	-11.7649
▁richest	-11.765
▁observations	-11.7655
▁beet	-11.7655
▁$74	-11.7656
left	-11.7657
▁zebra	-11.7659
▁scenario	-11.7661
▁uracil	-11.7661
▁trimester	-11.7661
▁madison	-11.7661
▁forehead	-11.7661
▁scars	-11.7663
▁erect	-11.7664
▁nonprofit	-11.7667
▁charm	-11.7669
pain	-11.7669
▁complaint	-11.7669
▁establishing	-11.7671
aya	-11.7671
▁leopard	-11.7675
▁controversial	-11.7677
▁whites	-11.7678
▁donate	-11.7684
▁polished	-11.7684
metal	-11.7685
▁maid	-11.7686
ache	-11.7689
▁promoter	-11.7689
▁sirloin	-11.7694
▁stew	-11.7695
▁nasa	-11.7696
▁utilize	-11.7699
▁mica	-11.77
▁cla	-11.7701
cns	-11.7702
image	-11.7702
▁zi	-11.7708
▁hazard	-11.7709
fur	-11.771
▁cauliflower	-11.7711
▁pyruvate	-11.7711
▁ji	-11.7712
bridge	-11.7713
▁mothers	-11.7713
cycl	-11.7714
▁az	-11.7717
▁(“	-11.7719
▁1949	-11.772
▁nova	-11.7724
▁therm	-11.7726
▁technologist	-11.7726
▁bearer	-11.7727
▁cushion	-11.7727
▁divergent	-11.7728
▁bathtub	-11.7728
▁sternum	-11.7728
▁armpit	-11.7728
▁fortune	-11.7729
▁spill	-11.7731
-50	-11.7732
▁$1.50	-11.7733
utter	-11.7733
operative	-11.7734
▁defeat	-11.7735
▁eats	-11.7736
▁rica	-11.7738
▁learner	-11.7741
ologist	-11.7741
▁behave	-11.7741
▁bolivia	-11.7745
▁hampshire	-11.7745
mini	-11.7745
▁targets	-11.7746
▁1978	-11.7748
▁$5,500	-11.7748
▁mater	-11.7749
bia	-11.7752
market	-11.7754
▁seriously	-11.7754
▁traced	-11.7755
▁sk	-11.7755
▁sooner	-11.7758
http	-11.7758
▁blu	-11.776
▁franc	-11.7762
▁excluding	-11.7764
▁romans	-11.7765
▁studios	-11.7766
▁1865	-11.7768
▁dying	-11.777
▁partition	-11.777
▁accumulated	-11.7772
▁specializes	-11.7775
▁kernel	-11.7776
▁std	-11.7778
▁exploration	-11.7779
▁rubbing	-11.7779
▁zoom	-11.778
▁suppress	-11.778
▁trna	-11.7785
▁dispute	-11.7785
▁73	-11.7791
tia	-11.7792
▁welfare	-11.7796
▁ctrl	-11.7796
▁defendant	-11.7798
▁caesar	-11.7798
▁severely	-11.7803
▁costly	-11.7804
▁versa	-11.7805
-$10	-11.7805
lig	-11.7806
▁emotion	-11.7806
zing	-11.7809
zu	-11.781
▁mined	-11.7811
rat	-11.7811
▁intent	-11.7811
lv	-11.7812
▁fixtures	-11.7812
dose	-11.7812
▁fir	-11.7812
▁unabridged	-11.7813
▁bulge	-11.7813
▁avi	-11.7815
▁rein	-11.7815
▁flavored	-11.7815
▁$70,000	-11.7817
▁difficulties	-11.7818
▁365	-11.7818
▁conscious	-11.7819
▁nan	-11.782
mari	-11.783
▁generating	-11.783
▁taxonomy	-11.783
▁qatar	-11.783
▁brooklyn	-11.783
▁cocktail	-11.783
▁straw	-11.7832
▁progression	-11.7833
▁diphtheria	-11.7833
▁folks	-11.7837
▁foodborne	-11.7838
▁mol	-11.784
▁theoretical	-11.7842
rac	-11.7843
▁mins	-11.7845
▁equality	-11.7846
disambiguation	-11.7847
▁cigarette	-11.7847
▁lawsuit	-11.7848
▁drip	-11.785
▁reward	-11.785
▁gaba	-11.7853
▁improvements	-11.7854
▁matching	-11.7857
▁lessons	-11.7858
▁caramel	-11.7864
tha	-11.7865
▁nephrons	-11.7865
▁rem	-11.7865
▁mah	-11.7866
▁hydroxyl	-11.7866
▁1966	-11.7867
▁topping	-11.7867
region	-11.7869
▁dozen	-11.787
▁emirates	-11.787
▁hover	-11.787
▁10-15	-11.7871
lium	-11.7871
▁rev	-11.7873
▁sept	-11.7873
except	-11.7876
▁79	-11.7876
▁relate	-11.7878
▁mystery	-11.7881
▁console	-11.7881
▁automated	-11.7883
▁sonnet	-11.7884
▁1863	-11.7885
▁epinephrine	-11.7887
▁steroids	-11.7887
▁typing	-11.7887
▁withstand	-11.7888
▁abroad	-11.7892
▁induce	-11.7893
sur	-11.7893
▁gradual	-11.7894
▁hong	-11.7896
▁caste	-11.7897
▁philip	-11.7899
▁graduated	-11.7899
stan	-11.7899
lation	-11.79
▁siberian	-11.7902
▁rap	-11.7904
▁asexual	-11.7906
▁feb	-11.7909
▁salaried	-11.7915
▁denoting	-11.7915
▁distillation	-11.7916
▁uncooked	-11.7917
culture	-11.7918
▁ross	-11.7918
▁pose	-11.7919
▁ren	-11.7923
▁reserves	-11.7924
▁prune	-11.7927
▁dessert	-11.7932
▁ovulate	-11.7933
▁angular	-11.7933
▁perfume	-11.7933
▁prayer	-11.7933
▁glow	-11.7935
▁additives	-11.7936
bedroom	-11.7936
▁transferring	-11.7937
▁inspector	-11.7938
▁grounds	-11.7938
▁gh	-11.794
▁sprint	-11.7942
▁maker	-11.7946
▁epa	-11.7948
▁pub	-11.7949
▁suppliers	-11.7949
▁cylindrical	-11.795
▁1890	-11.7951
▁capability	-11.7951
▁dor	-11.7954
▁weeds	-11.7955
▁woods	-11.7956
▁sciatic	-11.7957
▁negotiate	-11.7957
▁$1500	-11.7957
▁staying	-11.7961
rl	-11.7961
▁tropic	-11.7965
▁derivation	-11.7967
▁ul	-11.7967
▁delayed	-11.7967
▁28,	-11.7968
▁decent	-11.7968
▁agreements	-11.7968
▁boast	-11.7968
family	-11.7969
roy	-11.7969
▁interstate	-11.7971
▁ali	-11.7973
▁retire	-11.7973
▁personalized	-11.7976
▁contest	-11.7976
▁pho	-11.7976
▁shorten	-11.7978
▁ei	-11.7978
▁peso	-11.798
script	-11.7981
▁venom	-11.7984
▁circumference	-11.7984
▁botox	-11.7984
▁entries	-11.7985
▁canary	-11.7985
▁salsa	-11.7986
▁enabled	-11.7986
▁landforms	-11.7987
wikipedia	-11.7988
▁preference	-11.7988
▁volt	-11.799
▁html	-11.7991
▁probe	-11.7992
▁gaining	-11.7994
▁utilized	-11.7994
ras	-11.7997
▁descriptions	-11.8001
▁commodity	-11.8002
▁hunger	-11.8004
wind	-11.8015
▁incorrect	-11.8017
▁umbilical	-11.8019
▁yahoo	-11.8019
▁overcome	-11.802
▁mali	-11.8024
▁descendants	-11.8024
▁seizure	-11.803
yan	-11.803
▁markup	-11.803
db	-11.8031
bird	-11.8031
fiber	-11.8032
▁cited	-11.8034
▁115	-11.8036
▁societies	-11.8036
▁treasure	-11.8036
▁racial	-11.8036
▁maldives	-11.8037
▁grapefruit	-11.8037
ult	-11.8037
▁butterflies	-11.8037
▁forty	-11.8038
▁squirrel	-11.8039
▁handy	-11.8043
yr	-11.8047
▁primates	-11.8047
▁anesthetic	-11.8047
upper	-11.8047
▁ganglion	-11.8051
▁innovative	-11.8054
▁halves	-11.8054
▁mortar	-11.8054
▁obese	-11.8054
▁rotating	-11.8055
▁maximize	-11.8057
▁texts	-11.8057
▁subway	-11.8058
without	-11.806
▁python	-11.8061
▁abnormality	-11.8061
▁ads	-11.8062
▁pint	-11.8063
ret	-11.8063
▁hieroglyphics	-11.8064
▁whip	-11.8065
▁warrant	-11.8068
▁flux	-11.8069
▁gr	-11.8071
▁precipitate	-11.8071
▁triangular	-11.8071
▁calcite	-11.8072
▁confirmation	-11.8074
▁assessed	-11.8076
1.1	-11.8078
ante	-11.8079
▁bursa	-11.8083
▁singing	-11.8084
▁offenders	-11.8085
▁homemade	-11.8086
▁pas	-11.8086
▁hunter	-11.8089
▁quarters	-11.809
vie	-11.8091
▁streets	-11.8092
▁feeds	-11.8095
▁lanka	-11.8095
▁ivy	-11.8098
▁topped	-11.8101
▁7.5	-11.8104
zar	-11.8104
▁relevance	-11.8106
▁sierra	-11.8106
▁distress	-11.8107
bid	-11.8107
▁lat	-11.8108
▁aims	-11.8112
▁halal	-11.8112
hp	-11.8112
istock	-11.8112
edu	-11.8114
▁stamps	-11.8114
poly	-11.8116
▁precede	-11.8116
▁dirty	-11.8117
▁amber	-11.8119
▁chick	-11.812
dec	-11.8122
▁biodiversity	-11.8124
▁juicy	-11.8124
▁liqueur	-11.8124
▁rip	-11.8125
ration	-11.8127
▁warrior	-11.8128
▁veneer	-11.8131
cot	-11.8135
▁entrepreneur	-11.8135
▁requested	-11.8136
▁$78	-11.8136
vil	-11.8137
▁candle	-11.8138
using	-11.8139
▁physicist	-11.8141
▁practicing	-11.8141
▁neonatal	-11.8142
▁displacement	-11.8142
▁dawn	-11.8142
ige	-11.8145
▁weapon	-11.8146
▁pinch	-11.8146
▁fellow	-11.8146
▁limiting	-11.8148
▁finely	-11.8148
▁$96	-11.8148
▁$150,000	-11.8149
▁pinched	-11.8151
▁investor	-11.8152
▁supervisor	-11.8154
lah	-11.8158
▁drowsiness	-11.8159
▁fha	-11.8161
▁teresa	-11.8162
▁8%	-11.8162
▁cousin	-11.8164
european	-11.8164
▁squeeze	-11.8167
▁pun	-11.8173
▁uncertain	-11.8176
▁monounsaturated	-11.8177
▁quantitative	-11.8177
▁lactate	-11.8177
▁squid	-11.8177
▁egyptians	-11.8178
▁mmr	-11.8179
▁backyard	-11.818
▁ron	-11.8182
▁crash	-11.8184
▁deeply	-11.8184
▁connector	-11.8186
nell	-11.8186
▁expanding	-11.8186
▁berry	-11.8186
▁productive	-11.8188
▁ry	-11.8189
avi	-11.8189
ffe	-11.819
▁spontaneous	-11.819
▁conducts	-11.8191
,350	-11.8191
ving	-11.8193
▁laundry	-11.8194
organ	-11.8195
▁bias	-11.8195
▁farther	-11.8196
▁bubbles	-11.8197
▁1°	-11.8198
▁xbox	-11.8199
▁compress	-11.8199
▁foul	-11.8201
mba	-11.8203
▁quartile	-11.8204
▁sediments	-11.8206
▁adaptations	-11.8206
▁thorn	-11.8211
00,000	-11.8211
▁vocabulary	-11.8212
▁pivot	-11.8212
▁glycerol	-11.8212
▁vault	-11.8213
▁adjustments	-11.8213
▁pumped	-11.8213
▁nick	-11.8214
▁transformed	-11.8216
▁surprisingly	-11.8216
▁ratings	-11.8218
▁cabin	-11.8219
▁glycol	-11.822
▁uninstall	-11.8222
▁pile	-11.8222
lasting	-11.8224
▁suck	-11.8225
▁washer	-11.8226
▁insufficient	-11.8228
▁92	-11.8229
▁resurfacing	-11.823
▁recurring	-11.823
▁dv	-11.8232
▁np	-11.8232
▁pushing	-11.8232
3-	-11.8233
cd	-11.8233
▁vista	-11.8233
▁cas	-11.8234
▁millimeters	-11.8236
party	-11.8243
ility	-11.8243
▁silicone	-11.8244
elli	-11.8245
map	-11.8246
▁individually	-11.8246
▁washed	-11.8247
▁animation	-11.8248
▁deciding	-11.8248
▁biography	-11.8248
▁emitted	-11.8249
▁disneyland	-11.8249
▁1958	-11.8251
sensitive	-11.8253
▁catalyst	-11.8253
▁nhl	-11.8256
▁vegan	-11.8256
▁noticeable	-11.8257
▁blended	-11.8261
▁pushed	-11.8263
rock	-11.8265
▁pandas	-11.8266
▁cna	-11.8271
▁specialization	-11.8272
▁0.2	-11.8273
▁pediatrician	-11.8273
▁depot	-11.8275
▁lit	-11.8275
▁lend	-11.8276
▁325°	-11.8277
▁hol	-11.8277
▁rns	-11.8277
▁$1,0	-11.8278
▁boarding	-11.8278
6.8	-11.8278
▁obligations	-11.8278
▁gathered	-11.828
kar	-11.8282
▁rectangular	-11.8283
▁residual	-11.8283
▁satisfaction	-11.8283
open	-11.8285
▁domesticated	-11.8285
nut	-11.8286
▁incur	-11.8289
▁intention	-11.829
▁classify	-11.8292
▁solvents	-11.8293
▁pumping	-11.8293
▁donkey	-11.8295
▁octopus	-11.8298
▁moles	-11.8299
wave	-11.8301
▁intelligent	-11.8301
either	-11.8305
▁blanket	-11.8305
▁luc	-11.8305
▁ponds	-11.8305
▁zoster	-11.8305
▁chromosomal	-11.8306
ules	-11.8306
▁grab	-11.8307
170	-11.8309
▁6%	-11.831
▁wealthy	-11.831
▁roller	-11.831
▁rug	-11.8313
▁fills	-11.8314
▁stairs	-11.8315
▁mounted	-11.8315
rom	-11.8318
▁graduation	-11.8319
▁anthropology	-11.8319
aged	-11.8319
kan	-11.8321
▁crustaceans	-11.8322
▁void	-11.8324
▁sewer	-11.8325
sw	-11.8326
▁fragment	-11.8326
▁blast	-11.8326
▁renting	-11.8328
▁alternatives	-11.8328
ota	-11.8328
▁98	-11.8329
▁specimens	-11.8333
▁orthopedic	-11.8337
▁tournament	-11.8337
▁melanoma	-11.8337
▁venomous	-11.8337
▁unhealthy	-11.8338
400	-11.8339
▁enlarge	-11.8345
inus	-11.8347
▁puff	-11.8348
▁evaporation	-11.8355
▁landscaping	-11.8355
▁paprika	-11.8355
▁spectacular	-11.8355
▁401(	-11.8356
▁scarring	-11.8356
▁frames	-11.8356
▁accordingly	-11.8356
▁tidal	-11.8357
▁endemic	-11.8357
▁bloody	-11.8357
yne	-11.8359
▁recognised	-11.836
formerly	-11.836
bl	-11.8361
aca	-11.8362
▁boron	-11.8363
turn	-11.8365
▁1,200	-11.8365
enter	-11.8368
▁symmetrical	-11.8368
▁adapter	-11.8369
▁soften	-11.837
▁deceased	-11.8373
▁happiness	-11.8373
▁recycling	-11.8373
▁lamina	-11.8376
ulation	-11.8377
▁volatile	-11.838
▁laxative	-11.838
▁unpaid	-11.8381
action	-11.8382
▁gir	-11.8382
▁greenland	-11.8388
▁2.0	-11.8389
▁poke	-11.8389
▁eva	-11.839
▁intercostal	-11.8391
▁smartphone	-11.8391
▁profits	-11.8393
uca	-11.8393
purpose	-11.8397
4.5	-11.8397
▁matt	-11.8398
▁vir	-11.8398
▁circles	-11.8402
▁oysters	-11.8406
north	-11.8409
▁samuel	-11.8409
▁isolation	-11.8409
▁neighboring	-11.8415
cooked	-11.8415
hon	-11.8416
▁detergent	-11.8417
aff	-11.8419
▁ligand	-11.8427
▁maternity	-11.8427
▁menstruation	-11.8427
▁kennel	-11.8427
▁adh	-11.8429
▁magnolia	-11.8431
▁publicly	-11.8432
▁paypal	-11.8433
▁vibration	-11.8435
ther	-11.8438
▁broader	-11.8439
rest	-11.8442
▁commit	-11.8445
▁condensation	-11.8445
▁fantastic	-11.8445
▁fused	-11.8446
1.3	-11.8447
▁carving	-11.8447
▁bowman	-11.8448
▁gates	-11.8448
▁kingdoms	-11.8452
▁plumber	-11.8456
▁fifteen	-11.8459
▁duke	-11.8459
▁defrost	-11.8462
▁russell	-11.8463
▁rubella	-11.8464
▁10-12	-11.8465
▁pom	-11.8466
bh	-11.8468
▁athens	-11.8468
▁leftovers	-11.8468
▁colds	-11.8469
▁orbits	-11.8469
▁bou	-11.847
▁chloroplast	-11.8472
▁reservation	-11.8472
▁precisely	-11.8472
▁zest	-11.8474
▁incomes	-11.8474
▁corned	-11.8479
▁grouping	-11.8483
▁footprint	-11.8484
▁cooper	-11.8485
▁1914	-11.8486
▁extracts	-11.8487
▁proportions	-11.8491
ened	-11.8491
0000	-11.8492
rix	-11.8493
flex	-11.8493
▁portal	-11.8494
number	-11.8494
▁radicals	-11.8496
heart	-11.8496
version	-11.8497
▁comb	-11.8499
▁stereo	-11.85
▁connotation	-11.85
▁suffrage	-11.85
▁(100	-11.8501
▁preschool	-11.8501
▁israeli	-11.8502
▁nike	-11.8503
eta	-11.8503
▁witness	-11.8506
▁packs	-11.8508
▁patron	-11.8508
fly	-11.851
around	-11.851
▁dura	-11.851
▁loosen	-11.8511
▁cns	-11.8514
▁manic	-11.8516
▁vis	-11.8517
num	-11.8517
▁incredibly	-11.8518
▁sebaceous	-11.8518
▁conductivity	-11.8518
fold	-11.8519
▁ot	-11.8523
▁convicted	-11.8523
▁suffered	-11.8523
▁brook	-11.8524
▁aldosterone	-11.8526
▁chemist	-11.8527
▁mao	-11.8528
▁credential	-11.8529
300	-11.853
-$50	-11.853
▁advise	-11.8533
▁enamel	-11.8536
▁thrush	-11.8536
▁20-	-11.8537
▁semen	-11.8539
▁wick	-11.854
school	-11.8541
ison	-11.8546
rous	-11.8547
▁branched	-11.8548
▁tit	-11.855
▁droplets	-11.855
tl	-11.8552
▁composer	-11.8554
▁detroit	-11.8554
▁enabling	-11.8554
▁irritable	-11.8554
▁thawing	-11.8556
▁hedge	-11.8556
▁mayo	-11.8556
▁okay	-11.8556
▁elongated	-11.8557
worm	-11.8558
▁himalayas	-11.8562
▁dl	-11.8564
▁overactive	-11.8565
▁chlor	-11.8567
chan	-11.8571
▁vel	-11.8572
▁inclusion	-11.8573
▁genealogy	-11.8573
▁shepherd	-11.8573
▁jasmine	-11.8573
▁cascade	-11.8573
▁naked	-11.8573
▁biotechnology	-11.8573
col	-11.8574
sville	-11.8574
▁1962	-11.8576
▁feline	-11.8577
▁parameters	-11.8577
▁exceptional	-11.8579
mobile	-11.858
-$5	-11.8582
▁shale	-11.8585
▁hog	-11.8589
▁cemetery	-11.8591
▁decomposition	-11.8591
▁ribosomal	-11.8591
bas	-11.8592
▁inform	-11.8593
▁$98	-11.8594
▁grip	-11.8594
cker	-11.8595
▁polysaccharides	-11.8595
▁cooks	-11.8596
income	-11.8598
▁glandular	-11.86
▁violation	-11.8602
▁virtue	-11.8602
▁lien	-11.8604
▁manually	-11.8605
▁implemented	-11.8605
▁cheque	-11.861
▁rugby	-11.861
▁congressional	-11.861
▁dominican	-11.8611
lab	-11.8612
▁batch	-11.8614
▁pots	-11.8615
▁heading	-11.8615
▁lotus	-11.862
▁projections	-11.8621
phil	-11.8621
▁synapses	-11.8621
▁sovereign	-11.8628
▁adhesion	-11.8628
▁cyanobacteria	-11.8628
▁fossa	-11.8628
▁seam	-11.8633
▁sclera	-11.8634
▁smile	-11.8636
▁advised	-11.8638
ere	-11.8638
▁seals	-11.8639
▁farmer	-11.8641
▁7%	-11.8644
▁inulin	-11.8645
mac	-11.8646
▁plasmodium	-11.8646
▁rebellion	-11.8646
▁stigma	-11.8647
▁interchangeably	-11.8647
▁incorporate	-11.865
▁ent	-11.8652
▁adp	-11.8655
friendly	-11.8655
por	-11.8656
▁sang	-11.8656
▁gathering	-11.8664
▁$175	-11.8664
watt	-11.8664
▁curriculum	-11.8665
▁holders	-11.8666
▁proceed	-11.8666
▁defective	-11.8666
▁employ	-11.8668
▁warmest	-11.8672
▁nad	-11.8672
aire	-11.8672
▁nominal	-11.8673
asia	-11.8674
▁boss	-11.8675
phy	-11.8676
2015	-11.8677
ote	-11.8678
coa	-11.868
▁kilo	-11.8681
,550	-11.8682
%),	-11.8683
▁incredible	-11.8684
▁donation	-11.8684
▁divine	-11.8684
▁(40	-11.8687
rey	-11.8689
stat	-11.869
▁deli	-11.8691
▁5-6	-11.8692
data	-11.8692
▁1870	-11.8693
▁assignment	-11.8696
dm	-11.8697
▁spoke	-11.8697
yu	-11.8699
▁boats	-11.87
▁nevertheless	-11.8702
▁transistor	-11.8702
▁spindle	-11.8702
▁finder	-11.8703
full	-11.8704
fda	-11.8705
▁gastroenteritis	-11.8707
▁lang	-11.8708
▁lightning	-11.8709
▁voted	-11.8713
▁handled	-11.8713
▁discard	-11.8714
▁beating	-11.8714
▁soybean	-11.8715
▁corpus	-11.8715
▁croatia	-11.8715
,840	-11.8718
▁coca	-11.8718
▁disable	-11.872
▁cambodia	-11.8721
▁casserole	-11.8721
▁psychiatric	-11.8721
▁spherical	-11.8721
▁synovial	-11.8721
▁(24	-11.8721
▁tonic	-11.8722
3).	-11.8724
▁1946	-11.8725
▁compressor	-11.8726
▁amended	-11.8727
stimulating	-11.8728
▁descending	-11.8729
causing	-11.8729
▁scholars	-11.873
credit	-11.8731
▁mere	-11.8732
▁joins	-11.8733
▁$77	-11.8734
▁crow	-11.8735
zole	-11.8735
▁lowered	-11.8736
pus	-11.8736
▁senators	-11.8738
▁benz	-11.8739
ination	-11.8739
▁headquartered	-11.8739
▁deemed	-11.8739
▁casket	-11.874
▁lei	-11.874
▁richmond	-11.8741
▁complaints	-11.8742
nis	-11.8742
▁differentiation	-11.8744
▁homozygous	-11.8745
▁bac	-11.8748
▁gestational	-11.8748
▁1935	-11.8749
▁highlights	-11.8751
▁93	-11.8759
▁traumatic	-11.8759
▁wettest	-11.8759
▁markers	-11.8759
▁chickpeas	-11.8761
▁underside	-11.8761
▁ib	-11.8762
▁encoded	-11.8762
tric	-11.8763
▁openings	-11.8766
0.6°	-11.8769
▁labs	-11.8769
▁consequence	-11.8771
last	-11.8774
▁stratified	-11.8777
▁pressed	-11.8778
▁rind	-11.8778
▁subset	-11.878
▁rods	-11.8781
▁stamped	-11.8782
▁stride	-11.8783
▁1861	-11.8783
▁yeasts	-11.8784
coat	-11.8785
▁bor	-11.8787
▁unusually	-11.8787
▁currencies	-11.8796
▁orthodontist	-11.8796
▁spaghetti	-11.8796
▁thesaurus	-11.8796
▁psychotherapy	-11.8796
▁collector	-11.8796
▁maternal	-11.8796
▁substitution	-11.8796
▁torque	-11.8796
▁lymphoid	-11.8799
ope	-11.88
▁1918	-11.8801
▁proc	-11.8802
▁shan	-11.8807
▁750	-11.8808
▁surprising	-11.881
,080	-11.881
lim	-11.8814
▁psyllium	-11.8814
▁smear	-11.8815
▁drunk	-11.8815
▁lethal	-11.8817
▁radiologic	-11.8817
▁flavorful	-11.8818
▁bucket	-11.8819
▁https	-11.8819
large	-11.8819
▁multiplying	-11.8824
▁elite	-11.8829
▁compares	-11.883
▁couldn	-11.8831
▁borrower	-11.8832
force	-11.8832
▁executor	-11.8833
▁breeze	-11.8833
▁nylon	-11.8834
▁focal	-11.8834
▁modem	-11.8846
▁vendor	-11.8848
▁loads	-11.8848
▁40-	-11.8848
acid	-11.8849
▁dinosaurs	-11.8851
▁opposition	-11.8852
▁motors	-11.8853
▁worksheet	-11.8855
▁formulated	-11.8857
▁linking	-11.8857
pad	-11.8857
▁steering	-11.8858
cellular	-11.8859
▁flap	-11.886
▁pasture	-11.8863
▁handful	-11.8865
▁whichever	-11.8865
root	-11.8866
▁claws	-11.8868
fort	-11.8869
,650	-11.8869
▁intravenous	-11.887
▁sensors	-11.887
▁marathon	-11.8871
▁infestation	-11.8871
▁flaxseed	-11.8871
▁presley	-11.8871
▁northwestern	-11.8873
▁dividend	-11.8875
▁derive	-11.8877
▁locked	-11.888
▁1941	-11.8881
ception	-11.8881
tation	-11.8881
▁crispy	-11.8882
cis	-11.8883
▁preservative	-11.8886
▁denture	-11.8886
▁briefly	-11.8887
▁restriction	-11.8887
▁folded	-11.8887
▁emission	-11.8888
ios	-11.8888
▁jun	-11.889
▁deletion	-11.889
▁dolomite	-11.889
▁prospective	-11.889
vc	-11.889
row	-11.8891
▁burden	-11.8891
▁airtight	-11.8892
▁chairman	-11.8893
rel	-11.8894
▁periodically	-11.8895
zone	-11.8896
▁avoided	-11.8897
▁regulator	-11.89
▁surprised	-11.8906
▁lovely	-11.8909
▁immature	-11.8909
▁alignment	-11.891
▁od	-11.891
▁gaseous	-11.8911
▁cle	-11.8912
▁immuno	-11.8914
imp	-11.8916
▁garment	-11.8916
▁enforce	-11.8917
short	-11.8918
hc	-11.8919
▁psi	-11.8919
▁surveyor	-11.8922
125	-11.8923
▁thirteen	-11.8923
▁disadvantages	-11.8924
▁beetles	-11.8926
▁compass	-11.8928
▁melatonin	-11.8928
▁participating	-11.8928
▁mobility	-11.8928
▁gmail	-11.8933
tec	-11.8933
▁wy	-11.8934
▁totem	-11.8936
building	-11.8937
kw	-11.8937
▁1901	-11.8939
▁turbines	-11.8939
▁sponges	-11.8941
▁peacock	-11.8944
▁mba	-11.8946
▁horizon	-11.8947
▁musculoskeletal	-11.8947
▁disclosure	-11.8947
dog	-11.8947
▁assault	-11.8947
▁electricians	-11.8948
▁1-3	-11.895
▁flattened	-11.8951
general	-11.8951
▁granules	-11.8952
▁mare	-11.8953
▁fluoride	-11.8955
▁$300,000	-11.8956
▁wellness	-11.8957
gio	-11.8959
▁dad	-11.8961
bat	-11.8962
shore	-11.8962
▁hygienists	-11.8964
▁probiotics	-11.8964
▁ukraine	-11.8966
▁gravy	-11.8966
▁morphology	-11.8966
▁chestnut	-11.8967
▁fortunately	-11.8967
▁yorkshire	-11.8968
eller	-11.8969
▁dentures	-11.897
▁mala	-11.8972
▁renamed	-11.8972
▁fired	-11.8976
ito	-11.8978
▁qui	-11.8978
▁aimed	-11.8978
▁occasion	-11.8979
esis	-11.8979
▁dash	-11.898
▁screw	-11.8983
▁electrode	-11.8983
oni	-11.8984
▁publisher	-11.8985
▁expectations	-11.8988
▁scaly	-11.8988
▁retailer	-11.899
▁musician	-11.8991
▁acetyl	-11.8992
mont	-11.8994
▁professions	-11.8994
speed	-11.8996
▁secured	-11.8997
▁alps	-11.8999
pes	-11.9
▁1200	-11.9
▁earners	-11.9002
vol	-11.9003
▁shoots	-11.9004
▁sherman	-11.9004
▁absorbing	-11.9005
▁kinase	-11.9005
▁fertilizers	-11.9008
▁attorneys	-11.9008
▁penn	-11.901
▁charger	-11.9011
▁migrate	-11.9014
▁switching	-11.9015
▁(200	-11.9016
▁villages	-11.902
▁tilt	-11.9021
▁2.4	-11.9021
▁loa	-11.9023
▁brisbane	-11.9024
▁proximity	-11.9024
▁rewards	-11.9024
▁piston	-11.9025
▁orchestra	-11.9025
▁charity	-11.9026
▁trash	-11.9026
▁palate	-11.9027
-24	-11.9028
linked	-11.9029
▁190	-11.9034
▁encountered	-11.9038
loo	-11.904
▁championship	-11.9041
▁lou	-11.9042
mrna	-11.9042
▁lieutenant	-11.9043
▁motivation	-11.9043
▁prevalence	-11.9043
▁sardines	-11.9043
▁wyoming	-11.9043
▁hibiscus	-11.9043
▁scabies	-11.9043
▁refinishing	-11.9049
▁bearded	-11.9051
▁functionality	-11.9051
▁windpipe	-11.9053
tron	-11.9054
▁collections	-11.9054
ava	-11.9054
▁kills	-11.9055
▁mixtures	-11.9056
phi	-11.9056
eau	-11.9057
▁taxpayer	-11.906
▁surge	-11.9061
▁nourish	-11.9061
▁solubility	-11.9062
▁stolen	-11.9062
▁radiant	-11.9062
▁urge	-11.9064
cca	-11.9064
alis	-11.9068
▁softer	-11.9069
5)	-11.9072
▁rayon	-11.9072
▁hail	-11.9076
rail	-11.9076
▁analog	-11.9077
▁locus	-11.9078
▁outcomes	-11.9079
▁sealer	-11.9079
▁cucumber	-11.908
save	-11.9081
▁afghanistan	-11.9081
▁preliminary	-11.9081
▁brakes	-11.9082
game	-11.9083
▁hint	-11.9088
▁codon	-11.909
▁satisfy	-11.909
▁($5	-11.909
▁heme	-11.9092
▁27,	-11.9092
▁delivering	-11.9097
maker	-11.9098
▁caps	-11.9099
▁adjunct	-11.9101
▁myosin	-11.9101
▁dosing	-11.9102
▁offshore	-11.9104
▁$180	-11.9104
▁antidepressants	-11.9105
,640	-11.9107
▁imposed	-11.9108
▁1-800-	-11.9109
▁ruby	-11.9112
▁spiny	-11.9114
▁mrsa	-11.9116
▁demands	-11.9117
▁seas	-11.9117
▁copd	-11.9119
▁gps	-11.9119
▁verizon	-11.912
▁triceps	-11.912
▁fennel	-11.9121
▁hairs	-11.9121
▁sons	-11.9123
5.5	-11.9124
.67	-11.9128
▁poured	-11.9129
-25	-11.9129
allow	-11.913
nit	-11.913
▁marinate	-11.9131
store	-11.9135
▁contracting	-11.9136
▁8-10	-11.9137
▁jean	-11.9139
brand	-11.9139
▁robust	-11.914
▁radiator	-11.914
gus	-11.9141
logy	-11.9141
▁centered	-11.9145
tsu	-11.9147
ations	-11.9148
fully	-11.9148
▁prohibited	-11.9149
plate	-11.9149
▁ward	-11.915
-40	-11.915
mil	-11.9151
bor	-11.9152
▁nigeria	-11.9152
▁acetic	-11.9152
/1	-11.9153
ender	-11.9154
▁exceeding	-11.9158
bn	-11.9158
▁spaying	-11.9159
▁breach	-11.9159
▁epidemic	-11.9159
▁mandarin	-11.9159
▁obstructive	-11.9159
▁adulthood	-11.916
▁sushi	-11.9161
▁breastfeeding	-11.9162
▁turnover	-11.9165
pv	-11.9166
▁unrelated	-11.9168
user	-11.9168
derived	-11.9169
▁reveals	-11.9169
female	-11.9169
jack	-11.917
▁volunteer	-11.917
▁fallen	-11.9171
erie	-11.9172
▁realm	-11.9174
▁drilling	-11.9175
!).	-11.9175
een	-11.9176
fire	-11.9177
▁outlined	-11.9177
▁comic	-11.9178
▁capacitor	-11.9178
▁brilliant	-11.9178
▁destructive	-11.9178
▁eardrum	-11.9178
▁foreclosure	-11.9178
▁tasty	-11.9178
▁madrid	-11.9179
▁hike	-11.918
7.2	-11.918
mis	-11.9184
▁runner	-11.9184
▁curing	-11.9185
▁neutering	-11.9185
▁blanc	-11.9187
cel	-11.9187
wheel	-11.9189
▁traces	-11.919
▁salon	-11.9193
▁responds	-11.9194
▁spit	-11.9196
▁discoloration	-11.9198
▁proprietary	-11.9198
▁cumin	-11.9199
pri	-11.9201
260	-11.9202
▁jpeg	-11.9204
▁barely	-11.9205
▁dot	-11.9206
▁septic	-11.9208
▁tours	-11.9211
▁81	-11.9213
▁heterozygous	-11.9218
▁bbc	-11.9218
▁gutter	-11.9222
▁juan	-11.9228
▁pronounce	-11.9229
▁traveled	-11.9235
▁sail	-11.9235
▁moth	-11.9235
▁restoration	-11.9237
▁throne	-11.9237
▁iliac	-11.9238
▁suture	-11.9238
wash	-11.9238
▁excited	-11.924
▁transformer	-11.924
▁dividends	-11.9242
▁caring	-11.9246
▁overdose	-11.9247
bre	-11.9247
▁cry	-11.9248
gui	-11.9249
▁30,000	-11.925
▁nutritionists	-11.9252
vul	-11.9254
▁picking	-11.9254
,280	-11.9255
lived	-11.9256
ometer	-11.9256
▁dozens	-11.9257
▁colonoscopy	-11.9257
▁pal	-11.9258
▁midwest	-11.9259
▁saves	-11.9259
help	-11.9261
▁counsel	-11.9261
▁echo	-11.9263
▁protocols	-11.9264
▁sul	-11.9267
▁pvc	-11.9268
aud	-11.927
cn	-11.9271
eration	-11.9272
tm	-11.9278
/10	-11.9281
▁demo	-11.9284
▁circulate	-11.9288
▁stocks	-11.9293
▁relaxed	-11.9293
▁loving	-11.9294
▁mcc	-11.9294
▁scrape	-11.9295
▁charlotte	-11.9296
▁netflix	-11.9296
▁vodka	-11.9296
▁sinusitis	-11.9297
▁quit	-11.9298
▁unified	-11.93
ograph	-11.93
▁drumsticks	-11.9301
▁spike	-11.9303
▁1912	-11.9306
▁storms	-11.9306
,240	-11.9307
▁womb	-11.9308
▁predominant	-11.9312
▁é	-11.9316
▁molasses	-11.9316
▁wetlands	-11.9316
▁pencil	-11.9316
fla	-11.9317
▁masonry	-11.9317
▁coefficient	-11.9317
▁septum	-11.9317
▁83	-11.9318
▁chord	-11.9323
rib	-11.9325
▁aaa	-11.9325
though	-11.9329
hot	-11.933
▁advisor	-11.9333
clo	-11.9335
▁algorithm	-11.9336
▁appalachian	-11.9336
▁emphysema	-11.9336
▁harbour	-11.9336
▁idiopathic	-11.9336
▁puncture	-11.9336
▁debts	-11.9336
▁spreadsheet	-11.9336
▁skype	-11.9338
▁waiver	-11.9339
smith	-11.934
▁admin	-11.934
weed	-11.9343
auto	-11.9344
▁dill	-11.9345
▁tries	-11.9348
▁retainer	-11.9353
▁networking	-11.9354
vac	-11.9355
▁mpg	-11.9355
▁nelson	-11.9356
▁oxidase	-11.9356
▁bovine	-11.9356
▁edison	-11.9356
▁beings	-11.9364
▁mut	-11.9365
–3	-11.9365
▁prohibit	-11.9367
▁cab	-11.9369
▁scr	-11.9369
▁kal	-11.9371
▁trucks	-11.9373
ibility	-11.9374
▁achilles	-11.9375
▁hydraulic	-11.9375
▁participle	-11.9375
▁unexpected	-11.9375
▁apollo	-11.9376
▁vowel	-11.9376
/2	-11.9379
▁beetle	-11.938
▁cramping	-11.9381
▁85%	-11.9381
▁kim	-11.9383
▁snacks	-11.9384
▁rick	-11.9384
▁flea	-11.9387
▁maca	-11.9388
▁thorax	-11.9389
cious	-11.939
media	-11.9391
three	-11.9393
ingham	-11.9394
motor	-11.9394
core	-11.9394
▁cardiologist	-11.9395
▁telescope	-11.9395
▁1917	-11.94
▁fade	-11.94
▁stall	-11.94
▁expired	-11.9402
▁smoker	-11.9403
▁tel	-11.9406
clean	-11.9409
▁raid	-11.941
▁$1,000.	-11.941
ello	-11.9412
▁apprentice	-11.9415
▁identifier	-11.9415
glycer	-11.9415
▁meninges	-11.9415
▁$84	-11.9417
▁reasonably	-11.9417
cite	-11.9417
▁paints	-11.9417
▁dmv	-11.9418
▁packing	-11.9419
▁disturbance	-11.9419
▁protector	-11.9419
▁informed	-11.9419
genesis	-11.942
▁staining	-11.942
chen	-11.9421
▁turnip	-11.9422
fit	-11.9422
▁sr	-11.9423
▁domains	-11.9423
▁requests	-11.9424
▁hepatic	-11.9426
▁cru	-11.9427
▁painless	-11.9427
five	-11.9427
6)	-11.9429
▁2014).	-11.9431
▁crowns	-11.9432
▁pollutants	-11.9432
▁denote	-11.9433
▁wayne	-11.9434
▁login	-11.9434
▁expedition	-11.9435
▁uganda	-11.9435
▁nt	-11.9437
▁arising	-11.9437
nm	-11.9437
▁uncle	-11.9438
▁icloud	-11.9439
▁ascending	-11.9439
▁skim	-11.9439
▁om	-11.9441
▁arid	-11.9441
▁detector	-11.9441
▁reefs	-11.9442
▁terminals	-11.9442
▁shear	-11.9443
▁valleys	-11.9445
▁investigate	-11.9446
▁ballet	-11.9446
▁bleed	-11.945
▁oxides	-11.9452
▁structured	-11.9452
▁recreation	-11.9453
▁5000	-11.9454
▁linen	-11.9454
▁operators	-11.9455
▁douglas	-11.9455
▁valence	-11.9456
▁paving	-11.9456
,760	-11.9457
▁wifi	-11.9457
▁confined	-11.9458
▁sarah	-11.9458
total	-11.9458
▁1954	-11.9459
▁breeder	-11.9459
immunodeficiency	-11.9459
▁tsunami	-11.9459
▁validity	-11.946
▁penny	-11.9462
,950	-11.9465
▁loaf	-11.9466
mers	-11.9467
▁kat	-11.9467
standard	-11.9467
▁milky	-11.9469
▁synthesize	-11.947
▁15-20	-11.9472
▁porous	-11.9473
▁periodontal	-11.9475
▁tricuspid	-11.9475
▁$81	-11.9476
▁20-30	-11.9476
▁dolphin	-11.948
pid	-11.9481
▁jumping	-11.9489
▁cala	-11.9489
dos	-11.9491
▁attitude	-11.9493
▁tropics	-11.9494
yer	-11.9495
▁cleveland	-11.9496
▁hypothesis	-11.9496
▁fellowship	-11.9496
▁remarkable	-11.9496
▁promoted	-11.9497
▁outline	-11.95
▁$65,000	-11.9501
▁malay	-11.9503
eum	-11.9504
▁pil	-11.9504
▁tonnes	-11.9504
▁stake	-11.9506
▁letting	-11.9506
▁$2.50	-11.9509
▁dj	-11.9512
els	-11.9513
opathy	-11.9513
very	-11.9513
lit	-11.9514
▁walter	-11.9515
▁hallucinations	-11.9516
▁inadequate	-11.9516
▁likelihood	-11.9516
▁gallstones	-11.9516
▁reagan	-11.9516
▁98.6°	-11.9517
▁bounded	-11.9519
▁hinduism	-11.9519
▁mistaken	-11.952
inated	-11.9521
▁waterproof	-11.9522
▁evaluated	-11.9527
▁[3	-11.9528
▁ace	-11.9528
3.5	-11.9528
▁ea	-11.953
▁testes	-11.9535
▁refrigeration	-11.9536
▁streak	-11.9536
▁linux	-11.9536
▁parcel	-11.9536
reactive	-11.9536
▁polygon	-11.9537
ova	-11.9538
▁associations	-11.9539
▁cubes	-11.954
▁cloves	-11.954
cook	-11.9541
▁expenditure	-11.9541
▁symbolizes	-11.9543
soft	-11.9543
peri	-11.9544
$30	-11.9545
▁sickle	-11.9547
▁toys	-11.9547
▁vents	-11.9549
▁dyes	-11.955
▁threats	-11.9551
▁thorough	-11.9552
bling	-11.9553
▁anthony	-11.9556
▁filtrate	-11.9556
▁surviving	-11.9556
▁contour	-11.9556
acre	-11.9558
oxygen	-11.9558
▁cher	-11.9558
alo	-11.9559
▁ether	-11.956
▁quart	-11.9561
▁undergoing	-11.9562
▁groove	-11.9562
▁positioned	-11.9565
approved	-11.9569
zer	-11.9569
safe	-11.957
▁leaks	-11.957
▁clinically	-11.9571
▁amoeba	-11.9577
▁anthrax	-11.9577
▁convoluted	-11.9577
▁offensive	-11.9577
▁denied	-11.9577
▁photosynthetic	-11.9577
▁fake	-11.9579
▁tort	-11.958
gna	-11.958
▁vendors	-11.9581
▁veteran	-11.9582
▁sinks	-11.9583
syn	-11.9586
xx	-11.9587
▁interpreted	-11.9591
▁lev	-11.9594
quot	-11.9595
▁tyrosine	-11.9597
▁coursework	-11.9601
▁alveolar	-11.9603
▁contracted	-11.9608
-$150	-11.9615
▁cottage	-11.9617
▁indigestion	-11.9617
▁bishop	-11.9617
▁apex	-11.9619
▁plankton	-11.9619
rio	-11.962
▁buttocks	-11.962
angle	-11.962
▁slopes	-11.9621
▁oath	-11.9622
▁exert	-11.9623
▁howard	-11.9624
▁tm	-11.9625
people	-11.963
▁preposition	-11.9632
▁phospholipid	-11.9632
break	-11.9632
▁pants	-11.9632
▁[ˈ	-11.9635
▁sleeve	-11.9638
lop	-11.9643
▁initials	-11.9648
▁conform	-11.965
quarter	-11.9651
▁handles	-11.9652
▁instantly	-11.9656
▁reliever	-11.9657
rist	-11.9657
[...]
