<unk>	0
<s>	0
</s>	0
.	-3.03887
▁the	-3.21517
,	-3.28727
▁of	-3.66238
▁a	-3.87478
▁and	-3.88101
▁to	-4.01258
s	-4.0689
▁is	-4.07253
▁in	-4.20997
▁for	-4.85789
-	-4.94169
▁The	-4.96306
▁or	-4.98211
▁are	-5.04889
▁that	-5.10989
▁(	-5.13259
▁	-5.20986
▁as	-5.26792
▁on	-5.39509
▁with	-5.40046
▁you	-5.40888
)	-5.50664
▁from	-5.52467
▁it	-5.55389
▁can	-5.55967
'	-5.56125
▁by	-5.57276
▁an	-5.57733
▁be	-5.60418
▁your	-5.62118
:	-5.73554
▁1	-5.85098
▁2	-5.96927
▁A	-5.97606
▁at	-6.01199
▁have	-6.05905
▁which	-6.11722
▁not	-6.18066
▁was	-6.2134
▁It	-6.27239
ing	-6.29528
▁will	-6.30193
▁In	-6.33362
).	-6.34962
▁this	-6.36071
▁also	-6.36932
▁one	-6.37075
▁3	-6.37333
▁more	-6.3914
▁has	-6.43467
▁used	-6.45459
t	-6.46845
▁per	-6.47068
▁other	-6.48222
’	-6.53021
▁may	-6.5484
ed	-6.55621
▁about	-6.56297
▁than	-6.5765
▁most	-6.5827
▁average	-6.58713
▁but	-6.61004
▁name	-6.61194
▁cost	-6.62451
▁This	-6.7105
▁they	-6.72054
▁all	-6.73381
▁I	-6.74542
/	-6.75879
▁up	-6.78837
d	-6.8074
▁into	-6.81298
▁what	-6.82009
▁their	-6.82725
▁body	-6.83005
▁when	-6.85023
▁blood	-6.8655
▁between	-6.86944
;	-6.87975
▁4	-6.8883
▁two	-6.89842
▁if	-6.90161
▁If	-6.91967
▁its	-6.94508
▁time	-6.9539
▁called	-6.97434
▁such	-6.97588
▁years	-6.99542
e	-7.0005
▁water	-7.00411
▁year	-7.00513
▁first	-7.01804
a	-7.03908
▁use	-7.04661
▁how	-7.07035
▁some	-7.0749
▁do	-7.10113
),	-7.12428
▁people	-7.12762
▁out	-7.1595
▁only	-7.16192
▁system	-7.17677
▁many	-7.17954
y	-7.18892
▁over	-7.19396
▁For	-7.19551
▁who	-7.20881
▁cells	-7.23896
ly	-7.23947
er	-7.24018
S	-7.26482
▁known	-7.27953
▁make	-7.27966
▁any	-7.28005
▁You	-7.2899
▁so	-7.29879
▁found	-7.30025
▁form	-7.30187
▁5	-7.30493
▁like	-7.32425
▁usually	-7.34216
▁there	-7.36103
▁type	-7.37076
▁common	-7.37909
▁long	-7.38671
▁get	-7.38916
▁after	-7.38999
▁been	-7.39269
▁salary	-7.39353
▁through	-7.39551
▁made	-7.4005
▁should	-7.403
▁where	-7.40387
▁much	-7.40435
re	-7.40617
or	-7.42409
▁disease	-7.43166
▁10	-7.43902
▁different	-7.44179
▁high	-7.44364
▁days	-7.44489
▁often	-7.44642
▁part	-7.45415
▁does	-7.46863
▁need	-7.46954
▁day	-7.46993
▁then	-7.47379
▁around	-7.47668
▁each	-7.48105
▁these	-7.48681
▁very	-7.49516
▁food	-7.49873
n	-7.5065
▁were	-7.51085
▁well	-7.51469
▁number	-7.52179
▁take	-7.52798
▁them	-7.53314
th	-7.5375
▁include	-7.53935
▁...	-7.5453
▁cell	-7.55763
▁C	-7.55917
▁cause	-7.56573
▁There	-7.56638
▁temperature	-7.5703
▁no	-7.57345
▁small	-7.57896
▁work	-7.58883
in	-7.5995
▁minutes	-7.6306
▁6	-7.6325
▁because	-7.63593
▁three	-7.63682
▁new	-7.637
▁range	-7.64063
▁would	-7.6434
▁example	-7.64713
▁They	-7.64984
▁hours	-7.65054
al	-7.65535
▁just	-7.65601
▁his	-7.66192
C	-7.66675
▁An	-7.68232
▁person	-7.68452
▁costs	-7.68565
▁To	-7.68867
▁skin	-7.68903
▁same	-7.69361
o	-7.69894
▁less	-7.70036
▁United	-7.70164
▁pay	-7.70312
▁heart	-7.70625
▁we	-7.71799
▁area	-7.72092
▁while	-7.73423
▁home	-7.74511
▁When	-7.74738
▁both	-7.75125
▁B	-7.75404
▁age	-7.75855
▁States	-7.7612
r	-7.76751
▁before	-7.76785
▁U	-7.77537
▁“	-7.77649
es	-7.77695
m	-7.77779
▁process	-7.77906
▁during	-7.7824
▁large	-7.79247
F	-7.80273
▁types	-7.80929
▁help	-7.82073
▁square	-7.82414
▁including	-7.82608
▁meaning	-7.82964
▁energy	-7.83006
▁means	-7.83528
▁within	-7.83791
i	-7.84047
▁state	-7.84571
▁amount	-7.84598
▁muscle	-7.85091
▁world	-7.86017
▁under	-7.8646
▁important	-7.8661
▁he	-7.86616
▁our	-7.86685
▁way	-7.89055
▁good	-7.89134
▁information	-7.89174
▁pain	-7.90164
▁These	-7.90318
▁rate	-7.90761
▁hour	-7.91973
▁back	-7.92404
▁–	-7.92523
▁percent	-7.92625
▁S	-7.92864
g	-7.94329
▁term	-7.94916
▁down	-7.95727
▁see	-7.95947
▁20	-7.96434
▁As	-7.96497
▁group	-7.96771
▁F	-7.96983
▁being	-7.9714
▁-	-7.97227
▁test	-7.97432
▁foot	-7.97642
▁had	-7.9775
▁E	-7.97843
▁using	-7.98278
▁side	-7.98613
▁must	-7.98677
▁symptoms	-7.99451
▁DNA	-8.00084
▁plant	-8.00283
▁New	-8.00859
▁total	-8.01126
▁until	-8.01348
▁species	-8.02241
▁caused	-8.02325
▁located	-8.02738
▁even	-8.02854
▁life	-8.02885
▁'	-8.03384
▁level	-8.03778
▁7	-8.03966
ic	-8.04142
▁size	-8.04538
▁feet	-8.04811
▁price	-8.04934
▁degrees	-8.05697
▁months	-8.06057
▁place	-8.06249
▁normal	-8.06473
▁15	-8.068
▁right	-8.07224
▁low	-8.07428
▁American	-8.0745
▁best	-8.07718
the	-8.0782
▁below	-8.0798
▁8	-8.08003
▁those	-8.08053
▁health	-8.08406
▁my	-8.08905
”	-8.08966
2	-8.09181
▁job	-8.09967
▁Most	-8.10158
▁period	-8.10173
▁depending	-8.10617
▁want	-8.10793
▁lower	-8.11118
▁12	-8.11128
▁Some	-8.11421
▁based	-8.11572
▁brain	-8.11872
ll	-8.1254
▁four	-8.12678
▁another	-8.12798
▁However	-8.12998
▁infection	-8.13385
▁oil	-8.13645
▁weeks	-8.13776
to	-8.13985
▁find	-8.143
▁English	-8.14661
▁baby	-8.14803
▁bacteria	-8.14985
▁plants	-8.15002
▁D	-8.15313
▁top	-8.16139
▁30	-8.1615
▁tissue	-8.16811
c	-8.17487
▁human	-8.17684
▁company	-8.17739
▁every	-8.17877
▁non	-8.1829
▁protein	-8.19249
A	-8.1947
▁last	-8.19899
▁air	-8.19978
▁family	-8.20083
▁typically	-8.20501
▁least	-8.21187
▁word	-8.21207
▁causes	-8.2135
▁sugar	-8.21487
▁few	-8.21503
!	-8.21665
▁white	-8.22305
▁degree	-8.23046
▁several	-8.23063
▁could	-8.23167
▁re	-8.23665
▁T	-8.23679
▁go	-8.24129
▁month	-8.24237
▁off	-8.24262
▁end	-8.25432
k	-8.25562
com	-8.25954
▁foods	-8.26531
▁without	-8.26817
▁surface	-8.2721
▁annual	-8.27413
▁heat	-8.27447
l	-8.27478
▁set	-8.27794
▁above	-8.27965
▁higher	-8.27976
▁become	-8.28067
▁acid	-8.28174
▁red	-8.28206
▁single	-8.29572
▁data	-8.29649
▁main	-8.30317
▁experience	-8.30451
▁chemical	-8.30795
▁million	-8.30828
ve	-8.31237
▁know	-8.31752
▁due	-8.31828
▁pressure	-8.3222
▁live	-8.32553
▁weight	-8.33008
▁P	-8.33068
▁function	-8.3308
▁treatment	-8.33313
?	-8.33394
▁commonly	-8.33655
▁medical	-8.33703
on	-8.34326
▁full	-8.34382
▁business	-8.34997
▁On	-8.35063
▁specific	-8.35528
▁her	-8.3592
▁care	-8.35944
an	-8.36142
▁products	-8.36201
x	-8.36305
▁levels	-8.36486
▁tax	-8.36526
▁generally	-8.366
▁major	-8.36911
▁order	-8.37275
▁We	-8.37435
▁free	-8.37988
▁result	-8.37989
ers	-8.382
▁available	-8.38248
▁light	-8.38344
▁either	-8.38408
▁own	-8.38733
▁second	-8.39226
▁don	-8.39273
▁change	-8.39407
▁condition	-8.39693
▁s	-8.39743
▁18	-8.40305
▁start	-8.4073
D	-8.40799
▁He	-8.41011
▁eggs	-8.41014
▁--	-8.41061
p	-8.4129
▁meat	-8.41321
▁contains	-8.41572
▁now	-8.41994
▁vary	-8.41998
▁considered	-8.42482
▁color	-8.42485
▁given	-8.42486
▁certain	-8.42586
▁9	-8.42739
K	-8.4282
▁How	-8.42923
▁according	-8.43007
▁But	-8.43236
▁old	-8.43909
▁largest	-8.44448
▁parts	-8.45109
▁oven	-8.45826
▁fat	-8.45864
▁muscles	-8.45898
▁&	-8.45904
▁service	-8.46017
▁natural	-8.46772
▁keep	-8.46777
▁sometimes	-8.46944
▁oxygen	-8.47135
▁One	-8.47271
▁Your	-8.47307
3	-8.47563
▁still	-8.47675
4	-8.47979
▁similar	-8.48162
us	-8.48288
▁general	-8.48765
▁100	-8.48847
▁might	-8.49027
▁children	-8.49201
▁school	-8.49242
▁conditions	-8.49367
▁car	-8.49599
▁mean	-8.49671
▁increase	-8.49775
▁occur	-8.49895
▁forms	-8.50004
▁provide	-8.50437
▁produce	-8.50532
▁little	-8.50544
▁following	-8.50743
▁material	-8.50875
▁gas	-8.50881
▁produced	-8.51184
▁miles	-8.5168
▁early	-8.51689
▁occurs	-8.51689
▁areas	-8.5173
▁too	-8.51757
▁i	-8.51795
▁income	-8.52327
▁city	-8.52333
P	-8.52357
▁point	-8.52401
▁O	-8.5314
▁language	-8.53261
▁takes	-8.5327
▁week	-8.53273
▁power	-8.5347
▁50	-8.53568
▁location	-8.53664
▁variety	-8.53716
▁times	-8.53895
▁structure	-8.53958
▁—	-8.54403
▁popular	-8.54588
▁contain	-8.54663
▁So	-8.55008
▁animals	-8.55161
▁five	-8.55271
▁control	-8.55408
▁Earth	-8.55564
1	-8.55618
▁liver	-8.55733
▁nerve	-8.56001
▁country	-8.56048
▁inches	-8.56157
▁since	-8.56231
▁approximately	-8.56691
▁H	-8.56786
h	-8.57067
▁along	-8.57078
▁cancer	-8.57182
▁All	-8.57399
▁child	-8.57495
▁fee	-8.578
able	-8.57956
▁together	-8.57961
▁come	-8.58072
▁mg	-8.58105
(	-8.58172
is	-8.58353
T	-8.58608
▁North	-8.58805
▁[	-8.58809
en	-8.59156
▁carbon	-8.59688
▁women	-8.59722
▁living	-8.59839
▁credit	-8.60206
▁At	-8.60355
▁un	-8.60547
▁half	-8.60765
▁short	-8.60901
▁left	-8.60966
▁associated	-8.61315
▁region	-8.61425
▁list	-8.62067
H	-8.62181
▁South	-8.62192
▁America	-8.62298
B	-8.62327
▁comes	-8.6238
▁K	-8.63083
▁makes	-8.63309
▁add	-8.63494
▁median	-8.63495
▁1.	-8.63668
▁bone	-8.63724
▁various	-8.63852
▁fish	-8.63919
▁source	-8.64145
as	-8.6415
▁According	-8.64278
▁government	-8.64659
▁program	-8.6472
▁G	-8.6484
b	-8.65117
▁present	-8.65221
▁basic	-8.65353
▁give	-8.65388
▁grow	-8.65394
▁look	-8.65404
and	-8.65535
▁M	-8.65592
▁16	-8.65675
▁salt	-8.65873
▁states	-8.66273
▁eat	-8.66526
▁m	-8.66627
▁treat	-8.66783
it	-8.67034
▁unit	-8.67321
▁required	-8.67413
▁And	-8.67448
▁check	-8.67569
▁doctor	-8.67696
▁charge	-8.6797
▁cases	-8.6799
▁includes	-8.68037
▁longer	-8.68184
▁base	-8.68263
▁related	-8.6834
▁standard	-8.68569
▁/	-8.68659
▁making	-8.68683
▁project	-8.68691
▁especially	-8.68893
▁=	-8.69135
▁great	-8.6921
▁product	-8.69423
▁case	-8.6972
▁hair	-8.69825
▁problems	-8.69864
▁Definition	-8.7026
▁eye	-8.70291
▁salaries	-8.70384
▁de	-8.70865
▁value	-8.71066
▁names	-8.71143
▁growth	-8.71151
▁depends	-8.7137
▁risk	-8.71396
▁insurance	-8.71586
▁definition	-8.717
▁money	-8.71707
▁L	-8.71882
▁highest	-8.71917
▁complete	-8.72272
▁chicken	-8.72417
▁layer	-8.72505
▁however	-8.72658
▁animal	-8.72756
▁paid	-8.72795
▁What	-8.72974
▁length	-8.72985
▁:	-8.73103
L	-8.73224
ation	-8.73354
▁here	-8.73806
▁e	-8.73916
▁40	-8.74093
▁individual	-8.74093
▁run	-8.74369
▁she	-8.74375
▁law	-8.74462
▁25	-8.74598
▁Many	-8.74738
▁open	-8.74854
▁disorder	-8.74858
6	-8.75042
▁dry	-8.75062
E	-8.75071
▁factors	-8.75282
▁With	-8.75337
▁account	-8.75355
G	-8.7564
▁production	-8.75766
▁cold	-8.7578
▁sure	-8.76263
▁earn	-8.76352
▁better	-8.76359
▁effects	-8.76528
▁uses	-8.76557
▁That	-8.76682
▁materials	-8.76831
f	-8.76844
▁R	-8.76959
▁rock	-8.77471
▁services	-8.77497
▁line	-8.77527
▁Answer	-8.77589
▁formed	-8.77884
▁dog	-8.78087
▁population	-8.78126
▁local	-8.78325
▁able	-8.78801
▁Re	-8.78916
▁infections	-8.79145
▁done	-8.79416
▁put	-8.79445
°	-8.79448
▁No	-8.79551
▁loss	-8.79589
▁head	-8.79616
▁me	-8.79713
▁US	-8.80003
▁enough	-8.80072
ism	-8.80152
▁land	-8.80294
▁show	-8.80455
like	-8.80473
▁anywhere	-8.80813
▁By	-8.80872
▁soil	-8.8091
▁patients	-8.80932
▁addition	-8.81089
▁$	-8.81544
▁things	-8.81789
▁From	-8.81817
▁field	-8.8209
▁daily	-8.82112
▁While	-8.8231
▁green	-8.82385
▁having	-8.82487
▁lot	-8.82637
▁14	-8.82737
▁whole	-8.82746
▁wide	-8.82893
▁computer	-8.82963
▁tree	-8.83037
▁current	-8.8307
▁sea	-8.83128
▁Greek	-8.83207
▁origin	-8.83207
▁physical	-8.83252
▁cook	-8.83296
▁room	-8.83397
ion	-8.83454
▁inside	-8.8372
u	-8.83799
▁against	-8.83826
▁ground	-8.83903
▁history	-8.83978
▁near	-8.84011
▁black	-8.84034
ity	-8.84133
ia	-8.84266
▁move	-8.8458
▁diet	-8.84626
man	-8.84771
▁diseases	-8.84781
▁stomach	-8.84789
▁defined	-8.849
▁milk	-8.84983
▁six	-8.85099
▁simple	-8.85332
▁pan	-8.85508
▁membrane	-8.85529
▁calories	-8.85581
▁24	-8.85684
▁After	-8.85792
▁house	-8.85816
▁N	-8.85832
▁though	-8.85926
▁possible	-8.86124
▁something	-8.86369
▁code	-8.86391
▁earned	-8.86397
▁urine	-8.86441
▁always	-8.86545
▁fluid	-8.86558
▁study	-8.86567
▁born	-8.86621
▁damage	-8.86851
▁vitamin	-8.86877
▁60	-8.86975
▁referred	-8.87001
▁changes	-8.87013
▁primary	-8.87265
O	-8.8754
▁molecules	-8.87807
▁benefits	-8.87867
▁refers	-8.87945
—	-8.87947
▁require	-8.87958
▁results	-8.88349
▁away	-8.88545
▁provides	-8.88609
▁organisms	-8.88829
▁fact	-8.88841
▁17	-8.88967
▁Average	-8.89056
▁hormone	-8.89197
▁hand	-8.89276
▁central	-8.89291
▁medium	-8.8937
▁actually	-8.89458
▁minimum	-8.89548
▁click	-8.89584
▁typical	-8.89595
▁movement	-8.89844
▁countries	-8.90212
▁throughout	-8.90318
▁cooking	-8.90411
▁healthy	-8.90453
▁hard	-8.91017
▁working	-8.91061
▁proteins	-8.91185
▁additional	-8.91258
▁fees	-8.91468
▁gland	-8.91473
N	-8.91494
▁file	-8.91509
M	-8.91542
▁glucose	-8.92058
▁cover	-8.92442
▁others	-8.92554
▁once	-8.92577
▁upper	-8.92577
▁pre	-8.92606
le	-8.92665
▁hot	-8.92765
5	-8.93054
▁organs	-8.9307
▁quality	-8.93108
▁gene	-8.93188
W	-8.9319
▁needs	-8.93325
▁century	-8.93397
▁genetic	-8.93415
▁virus	-8.93583
▁space	-8.93597
▁egg	-8.93597
▁next	-8.94006
▁plan	-8.94054
▁useful	-8.94103
▁French	-8.94173
▁us	-8.94202
▁national	-8.94258
▁leaves	-8.94264
▁words	-8.94461
▁date	-8.94529
▁site	-8.94723
▁role	-8.94865
na	-8.94952
up	-8.94959
▁think	-8.94974
▁Other	-8.95052
▁fiber	-8.95185
▁+	-8.95326
▁km	-8.95425
▁Although	-8.95429
▁likely	-8.95451
▁California	-8.95609
▁said	-8.95756
▁men	-8.95845
▁humans	-8.95982
▁later	-8.96206
▁whether	-8.96237
▁among	-8.96501
▁rest	-8.96565
▁report	-8.9669
▁etc	-8.96807
▁cut	-8.96826
▁Latin	-8.96924
▁building	-8.96961
▁particular	-8.96992
▁larger	-8.97037
▁receive	-8.97291
▁terms	-8.97323
▁almost	-8.97362
▁ago	-8.97399
▁Do	-8.97537
▁consists	-8.97823
▁wall	-8.97891
▁turn	-8.97899
▁helps	-8.97971
▁tissues	-8.98073
▁going	-8.98093
▁effect	-8.98252
▁difference	-8.9826
co	-8.98327
▁See	-8.98394
▁Best	-8.9844
▁11	-8.98686
um	-8.98829
▁May	-8.98911
▁development	-8.98953
▁ranges	-8.99135
▁public	-8.99161
▁immune	-8.99217
▁support	-8.99268
▁create	-8.99291
▁prevent	-8.99303
ry	-8.99477
▁affect	-8.99567
▁systems	-8.99643
▁Australia	-8.99646
8	-8.99713
▁Each	-8.99827
▁needed	-8.99925
ine	-9.00036
▁did	-9.00075
▁wage	-9.00096
▁contact	-9.00184
▁vessels	-9.00433
▁Of	-9.00436
ness	-9.00558
▁course	-9.00578
▁drug	-9.00592
▁flow	-9.00731
▁Canada	-9.01084
▁thyroid	-9.01107
▁across	-9.01236
9	-9.01401
▁nervous	-9.01462
▁mouth	-9.01642
▁real	-9.01816
▁calcium	-9.01946
▁center	-9.02163
▁lead	-9.02179
▁n	-9.02442
▁13	-9.02454
▁reaction	-9.02664
▁itself	-9.02788
▁page	-9.02867
▁inflammation	-9.02872
V	-9.02944
▁Yes	-9.03178
▁Here	-9.03323
▁derived	-9.03328
▁social	-9.03348
▁remove	-9.0345
▁rare	-9.03458
▁internal	-9.03459
▁roast	-9.03523
·	-9.04093
▁position	-9.04193
▁female	-9.04258
time	-9.0426
▁complex	-9.04583
ra	-9.04689
▁National	-9.04799
▁Meaning	-9.04823
▁iron	-9.04835
▁x	-9.04949
I	-9.04956
▁Place	-9.04996
▁research	-9.05216
▁maximum	-9.05239
▁surgery	-9.05273
▁$1	-9.0536
▁kidney	-9.05464
ton	-9.05586
▁taken	-9.05591
▁property	-9.05617
▁York	-9.05622
▁return	-9.05641
▁Europe	-9.05688
ate	-9.0578
▁call	-9.05924
▁$2	-9.05924
▁joint	-9.06004
▁liquid	-9.06087
w	-9.06152
▁students	-9.06342
▁severe	-9.06556
▁Also	-9.06597
▁seeds	-9.06784
▁lungs	-9.06804
▁acids	-9.06846
▁why	-9.06918
▁RNA	-9.06957
▁education	-9.07167
ment	-9.0734
▁Africa	-9.07355
▁smaller	-9.07373
▁My	-9.07647
▁industry	-9.07654
▁directly	-9.07729
st	-9.07805
▁grams	-9.07856
▁say	-9.07982
▁cannot	-9.08031
▁First	-9.08147
▁kind	-9.08325
▁World	-9.08505
▁molecule	-9.08679
▁class	-9.08794
te	-9.08935
▁determine	-9.09
▁tract	-9.0911
▁method	-9.09251
▁reduce	-9.09265
▁composed	-9.09291
▁develop	-9.09429
▁c	-9.09608
▁temperatures	-9.09621
▁someone	-9.09657
▁outside	-9.09658
▁height	-9.09855
▁Act	-9.10065
▁problem	-9.10068
▁adults	-9.10169
▁far	-9.10207
▁cycle	-9.1023
▁man	-9.1025
▁functions	-9.10336
▁metal	-9.10389
▁doesn	-9.10396
▁training	-9.10433
▁deep	-9.10453
▁elements	-9.10592
▁created	-9.1084
R	-9.10879
▁works	-9.11013
▁University	-9.11017
▁activity	-9.11069
▁close	-9.11236
▁spread	-9.11296
▁birth	-9.11491
▁application	-9.1195
el	-9.11975
▁death	-9.1205
▁glands	-9.12051
▁north	-9.12296
▁added	-9.12614
▁answer	-9.12632
▁easy	-9.12736
▁today	-9.12914
▁third	-9.13285
7	-9.13311
▁really	-9.13326
▁seen	-9.13608
▁installation	-9.13628
▁allow	-9.13629
ta	-9.1376
▁V	-9.13852
▁rates	-9.13865
▁mass	-9.13999
▁although	-9.14018
ist	-9.14056
▁male	-9.14116
▁War	-9.14255
▁key	-9.14285
▁State	-9.14382
▁prices	-9.14634
▁responsible	-9.14679
▁play	-9.14692
▁taking	-9.14767
▁X	-9.15021
▁substance	-9.15032
▁south	-9.15058
▁estimate	-9.15097
▁dose	-9.15163
▁sources	-9.15181
▁Click	-9.15253
▁varies	-9.15315
▁groups	-9.1544
The	-9.15523
▁labor	-9.15702
▁fruit	-9.1596
▁Salary	-9.15985
tic	-9.16005
est	-9.16015
at	-9.16198
▁special	-9.16216
ar	-9.16218
▁measure	-9.1634
▁store	-9.16343
▁market	-9.16354
▁middle	-9.16652
▁W	-9.16707
▁simply	-9.17233
▁vegetables	-9.17645
ol	-9.1765
▁medicine	-9.17655
▁expect	-9.17672
▁alcohol	-9.1772
one	-9.17854
▁series	-9.17871
▁Cost	-9.18006
▁card	-9.18049
▁season	-9.18131
▁probably	-9.18185
▁professional	-9.18224
▁cholesterol	-9.18226
▁easily	-9.18312
▁p	-9.18436
▁earth	-9.18681
▁environment	-9.18681
▁German	-9.18696
▁members	-9.18833
▁noun	-9.18873
▁direct	-9.1888
▁bones	-9.18939
▁feel	-9.19033
▁brown	-9.19036
▁starting	-9.19076
▁cooked	-9.19096
▁essential	-9.19166
▁original	-9.19183
▁India	-9.19372
▁carry	-9.19407
▁trees	-9.19543
▁yellow	-9.19576
age	-9.19704
▁named	-9.2006
▁shape	-9.20194
▁pounds	-9.20294
▁minerals	-9.20307
▁21	-9.20327
v	-9.20363
▁Add	-9.20365
▁allows	-9.20425
▁bottom	-9.20638
year	-9.20728
▁choose	-9.21063
▁fever	-9.21178
ma	-9.21193
▁blue	-9.21301
▁device	-9.21426
▁‘	-9.21566
▁speed	-9.21678
▁co	-9.21837
▁network	-9.21843
▁apply	-9.21942
▁built	-9.22098
▁increased	-9.22117
▁offer	-9.22133
▁b	-9.22163
▁concrete	-9.22211
▁active	-9.22508
▁t	-9.22567
ive	-9.22632
▁traditional	-9.22687
▁g	-9.22695
▁let	-9.22767
▁$3	-9.22783
▁Use	-9.228
▁patient	-9.22811
▁companies	-9.22828
no	-9.22952
▁office	-9.23041
▁contract	-9.23178
▁ability	-9.23188
▁sign	-9.23564
▁serious	-9.23599
▁post	-9.23642
▁strong	-9.23725
▁widely	-9.23765
▁ways	-9.2393
▁therapy	-9.23932
am	-9.24138
0	-9.24158
la	-9.2422
ian	-9.24329
▁stay	-9.24458
▁nutrients	-9.24594
z	-9.2463
ur	-9.24708
▁jobs	-9.24801
▁necessary	-9.24848
▁adult	-9.24923
▁hourly	-9.25013
▁developed	-9.25051
ne	-9.25193
▁pork	-9.25259
▁appear	-9.25267
▁sub	-9.25375
▁rather	-9.25402
▁2015	-9.25464
et	-9.25478
▁Because	-9.25535
▁management	-9.2572
▁response	-9.25766
▁spinal	-9.25891
▁expensive	-9.259
▁shows	-9.25959
▁City	-9.25974
de	-9.2605
▁warm	-9.26172
▁became	-9.26173
▁19	-9.26402
▁regular	-9.2642
▁act	-9.26795
▁tests	-9.26841
▁injury	-9.26915
▁Texas	-9.27031
ty	-9.27085
▁fresh	-9.27099
▁processes	-9.27128
▁pregnancy	-9.27742
▁organism	-9.27905
▁reach	-9.2797
▁element	-9.28001
ch	-9.28003
▁syndrome	-9.28059
▁online	-9.28095
▁young	-9.28251
▁upon	-9.28295
▁travel	-9.28303
▁island	-9.28377
▁dioxide	-9.28468
▁More	-9.28502
▁normally	-9.28506
▁drugs	-9.28508
▁hormones	-9.28618
▁$100	-9.28815
▁matter	-9.28976
▁written	-9.29056
▁Asia	-9.29126
▁extra	-9.29134
▁root	-9.29156
▁table	-9.29245
▁clear	-9.29319
▁nucleus	-9.29379
▁dogs	-9.29397
▁solution	-9.29527
▁front	-9.29617
▁sun	-9.30091
▁cord	-9.30111
▁brand	-9.30257
▁late	-9.30344
▁expected	-9.30424
▁soft	-9.30568
▁neck	-9.30581
ling	-9.30634
▁f	-9.30638
▁wood	-9.30789
▁People	-9.30797
▁covered	-9.30861
▁River	-9.30973
▁older	-9.31083
▁legal	-9.31089
▁begin	-9.31223
▁action	-9.31404
▁IRA	-9.31414
▁beans	-9.3155
–	-9.31616
▁symbol	-9.31659
▁amino	-9.31672
▁amounts	-9.3172
▁phone	-9.31724
▁Since	-9.31758
ie	-9.31808
▁primarily	-9.3202
▁2012	-9.32092
▁personal	-9.32101
▁medication	-9.32108
▁thing	-9.3212
▁mineral	-9.32248
▁federal	-9.32286
▁past	-9.32359
▁China	-9.32449
▁substances	-9.32526
▁$50	-9.32699
▁perform	-9.32761
▁requires	-9.32766
ter	-9.32813
▁modern	-9.32916
▁break	-9.32957
▁big	-9.32975
▁organic	-9.32979
▁night	-9.33061
▁released	-9.33144
▁slightly	-9.33147
▁mixture	-9.3325
▁involved	-9.33257
▁college	-9.3326
also	-9.33382
▁organ	-9.33442
▁combination	-9.33469
▁beef	-9.33479
ized	-9.3349
▁equal	-9.3358
▁entire	-9.33622
▁reported	-9.33639
▁designed	-9.33662
▁design	-9.33665
▁rich	-9.33691
▁cup	-9.33743
▁financial	-9.33799
of	-9.33813
]	-9.3387
▁rocks	-9.33879
▁minute	-9.34078
▁recommended	-9.34171
▁$10	-9.34203
▁Our	-9.3434
▁disorders	-9.34359
▁paper	-9.34382
▁access	-9.34414
▁double	-9.3452
▁Once	-9.34523
▁multiple	-9.34542
▁content	-9.34589
ro	-9.34612
▁J	-9.34707
▁member	-9.34735
▁pound	-9.34867
▁°	-9.34899
▁growing	-9.34991
▁County	-9.35075
▁safe	-9.35113
▁learn	-9.35206
▁1/2	-9.35206
▁divided	-9.35208
▁him	-9.35301
▁$5	-9.35665
day	-9.35821
▁weather	-9.35908
▁unique	-9.35909
▁units	-9.3599
ite	-9.36079
▁Co	-9.36121
▁effective	-9.36122
▁never	-9.36173
▁San	-9.36458
▁During	-9.36468
▁section	-9.36478
▁practice	-9.36541
▁lowest	-9.36547
▁compound	-9.36674
less	-9.36715
▁potential	-9.36734
▁again	-9.36735
▁0	-9.36826
▁De	-9.36912
▁Sea	-9.36969
▁requirements	-9.36979
▁programs	-9.37024
▁fall	-9.37132
▁website	-9.37429
▁fast	-9.37549
▁John	-9.37572
▁intestine	-9.37585
▁sound	-9.37609
▁leave	-9.37799
il	-9.37899
▁motor	-9.37966
▁compared	-9.38088
▁highly	-9.38135
▁British	-9.38137
▁floor	-9.38177
▁score	-9.38211
▁West	-9.38219
▁ancient	-9.38283
Y	-9.38327
▁diabetes	-9.38494
▁electrical	-9.38503
▁mainly	-9.38516
▁portion	-9.38572
▁getting	-9.38766
▁culture	-9.38943
▁properties	-9.39011
▁build	-9.39073
▁limit	-9.3928
▁Island	-9.393
rs	-9.39422
lo	-9.39443
▁gives	-9.39619
▁July	-9.39724
▁teeth	-9.39864
▁eyes	-9.40101
▁try	-9.40143
▁balance	-9.4024
▁interest	-9.40322
▁model	-9.40406
▁taste	-9.40436
▁distance	-9.40468
▁eating	-9.40572
▁already	-9.406
▁refrigerator	-9.4067
▁supply	-9.40995
▁Report	-9.41069
▁cat	-9.41108
▁chronic	-9.41116
▁listed	-9.41194
ous	-9.41223
▁St	-9.41316
▁reason	-9.41346
▁procedure	-9.4135
▁anti	-9.41617
▁solid	-9.41716
▁sense	-9.41844
▁box	-9.41961
▁bit	-9.41987
▁records	-9.42012
mo	-9.42136
▁music	-9.42178
based	-9.42178
▁organization	-9.42232
▁thin	-9.42267
▁seed	-9.4227
▁buy	-9.42499
▁produces	-9.4253
▁basis	-9.42532
▁President	-9.42729
▁fuel	-9.42738
▁structures	-9.42861
▁vehicle	-9.42928
▁quickly	-9.42942
▁dark	-9.42975
▁private	-9.42983
▁included	-9.43022
▁enter	-9.43054
▁45	-9.43106
▁stone	-9.43206
▁January	-9.43232
▁estimated	-9.43259
▁arthritis	-9.43302
land	-9.4337
▁enzyme	-9.43488
▁native	-9.43512
▁compounds	-9.43554
▁mind	-9.43723
▁About	-9.43732
di	-9.43744
▁true	-9.43744
▁arteries	-9.43786
▁plus	-9.43811
▁cheese	-9.43895
▁hold	-9.43918
▁thick	-9.43948
▁seven	-9.44132
▁90	-9.44148
▁digestive	-9.44149
▁tell	-9.44176
▁step	-9.44322
▁face	-9.44553
▁thought	-9.44579
▁ft	-9.44587
▁April	-9.44624
▁volume	-9.44674
▁features	-9.44721
▁Germany	-9.44738
▁greater	-9.44744
▁carbohydrates	-9.4482
▁Indian	-9.44999
▁d	-9.45107
line	-9.45121
▁purpose	-9.45146
▁affects	-9.45154
▁capital	-9.45179
▁quite	-9.45216
▁version	-9.45339
▁70	-9.45344
▁question	-9.45384
▁exercise	-9.45415
▁October	-9.45421
▁East	-9.45447
▁individuals	-9.45458
▁article	-9.45516
://	-9.45647
▁naturally	-9.45688
▁art	-9.45732
▁mostly	-9.45762
▁town	-9.45994
▁causing	-9.45998
▁says	-9.46321
ex	-9.46324
▁hydrogen	-9.46379
▁(1	-9.46382
▁object	-9.46393
▁looking	-9.46552
▁separate	-9.46648
▁bond	-9.46673
▁butter	-9.46713
▁increases	-9.46752
▁stored	-9.46801
▁completely	-9.46802
me	-9.4681
▁refer	-9.46872
+	-9.46921
ca	-9.47075
▁view	-9.47141
li	-9.47188
ting	-9.4726
ies	-9.47275
▁read	-9.47353
▁plate	-9.47378
▁bad	-9.47397
▁limited	-9.474
▁release	-9.4752
▁pass	-9.4755
▁vitamins	-9.47643
▁record	-9.47702
▁via	-9.47746
▁won	-9.47855
▁began	-9.47897
▁characterized	-9.47899
▁atoms	-9.4791
▁instead	-9.47972
▁28	-9.48034
▁factor	-9.48079
▁nature	-9.48156
▁containing	-9.4838
▁transfer	-9.48396
▁shown	-9.48412
▁formula	-9.48423
ally	-9.48429
▁England	-9.48468
ul	-9.48547
▁subject	-9.48611
▁sweet	-9.48801
▁offers	-9.48918
▁80	-9.48972
▁sodium	-9.49104
▁provided	-9.49165
▁Mexico	-9.49212
▁book	-9.49225
▁respiratory	-9.49308
▁bacterial	-9.49354
▁worth	-9.49355
▁joints	-9.49383
▁cm	-9.49545
ary	-9.49624
▁employee	-9.49663
ization	-9.49745
▁vaccine	-9.49975
▁flat	-9.50043
son	-9.50237
▁nurse	-9.50253
▁June	-9.50284
▁significant	-9.50297
▁force	-9.50324
▁option	-9.50532
▁climate	-9.50562
▁chain	-9.50614
▁career	-9.50776
▁software	-9.508
▁nerves	-9.50877
):	-9.50916
▁game	-9.50939
▁pepper	-9.51085
▁spend	-9.51256
▁majority	-9.51304
▁relatively	-9.51308
▁nearly	-9.51331
term	-9.5134
12	-9.51355
▁video	-9.51507
J	-9.51963
▁war	-9.5198
▁summer	-9.51981
▁lymph	-9.51993
▁35	-9.52309
▁regions	-9.52368
▁dollars	-9.52455
▁select	-9.52612
10	-9.52811
▁license	-9.52843
▁She	-9.52909
▁atmosphere	-9.52988
▁baking	-9.53041
▁tuition	-9.53146
▁drive	-9.53206
ant	-9.5324
▁smooth	-9.53249
for	-9.53321
▁ear	-9.53333
▁France	-9.53347
▁flowers	-9.53382
▁further	-9.53479
▁slow	-9.53483
▁science	-9.53555
▁kidneys	-9.53732
▁came	-9.53749
▁activities	-9.53794
▁Great	-9.53809
▁community	-9.53883
▁throat	-9.53883
▁scale	-9.53885
▁viruses	-9.53974
▁style	-9.54032
▁idea	-9.54042
▁self	-9.54053
▁genes	-9.54076
▁sold	-9.54181
▁monthly	-9.54197
▁address	-9.5421
▁goes	-9.54379
▁$30	-9.5446
▁$20	-9.54599
▁begins	-9.54629
▁tend	-9.54694
▁mid	-9.54732
ti	-9.54737
▁am	-9.54752
▁difficult	-9.5476
do	-9.5476
▁Labor	-9.54897
▁Spanish	-9.54931
▁Be	-9.54951
▁protect	-9.54976
▁purchase	-9.55041
▁signs	-9.55119
▁payment	-9.55136
▁share	-9.55148
▁$15	-9.55152
▁Top	-9.55218
▁describe	-9.55218
▁infected	-9.55231
▁August	-9.55272
▁numbers	-9.55274
▁love	-9.55297
▁walls	-9.55575
▁European	-9.55658
▁points	-9.55688
▁visit	-9.55802
▁Florida	-9.55873
os	-9.55991
▁moving	-9.55993
▁image	-9.55994
▁genus	-9.56006
▁applied	-9.56029
▁clean	-9.56134
▁o	-9.56237
▁cavity	-9.56305
▁employees	-9.56362
▁drink	-9.56516
▁nursing	-9.56594
id	-9.56667
per	-9.5668
▁billion	-9.56685
▁east	-9.56777
▁Old	-9.56901
▁woman	-9.56902
▁net	-9.56927
nd	-9.56949
▁agent	-9.57066
▁international	-9.57067
▁loan	-9.57141
▁construction	-9.57175
▁install	-9.57255
▁illness	-9.57279
▁commercial	-9.57333
▁enzymes	-9.57382
▁tall	-9.5743
▁search	-9.57435
▁rice	-9.57455
▁bring	-9.57567
▁200	-9.57584
▁consider	-9.57687
▁west	-9.57769
▁2014	-9.57785
▁particularly	-9.57828
▁Fahrenheit	-9.5785
▁chest	-9.57898
▁song	-9.57969
▁mother	-9.58081
▁court	-9.58098
▁$4	-9.5811
▁sleep	-9.58133
▁negative	-9.5815
▁crust	-9.58165
▁sales	-9.58182
▁theory	-9.58285
40	-9.5832
▁mild	-9.5844
▁waste	-9.5845
▁involves	-9.58454
▁glass	-9.58463
▁Health	-9.58471
▁film	-9.58487
00	-9.58513
▁ten	-9.58561
▁currency	-9.58614
▁Congress	-9.58621
▁presence	-9.5864
▁Home	-9.58687
▁leg	-9.58764
▁fibers	-9.58813
▁team	-9.58868
▁stop	-9.58876
▁repair	-9.59142
▁depend	-9.59199
▁Go	-9.59366
▁bank	-9.59412
▁started	-9.59421
_	-9.59441
be	-9.59469
▁famous	-9.59564
▁Not	-9.59604
▁beginning	-9.59685
▁outer	-9.59685
▁positive	-9.59719
▁title	-9.59743
▁received	-9.59829
▁System	-9.59894
▁artery	-9.59962
▁actual	-9.60085
da	-9.60085
▁sauce	-9.60136
▁Windows	-9.60183
▁therefore	-9.60245
▁fruits	-9.60359
▁colors	-9.60584
▁policy	-9.60616
▁map	-9.60632
▁affected	-9.6065
▁strength	-9.60715
▁window	-9.60723
▁fine	-9.60758
▁ever	-9.60826
▁pro	-9.60844
▁pool	-9.60845
▁recent	-9.61122
▁maintain	-9.61196
▁understand	-9.61204
▁official	-9.61206
▁flavor	-9.61246
▁Name	-9.61526
▁http	-9.61737
▁roughly	-9.61861
by	-9.62173
▁planet	-9.62227
▁rise	-9.62341
▁corn	-9.6245
▁expenses	-9.62462
▁powder	-9.62606
30	-9.6262
▁eight	-9.62634
▁languages	-9.62724
▁lines	-9.62729
▁500	-9.6275
▁stage	-9.62795
▁Both	-9.62816
▁bachelor	-9.62863
▁inner	-9.6289
▁La	-9.631
▁serving	-9.63124
▁currently	-9.63137
▁di	-9.63211
▁Its	-9.63258
▁Like	-9.63311
▁overall	-9.63329
▁Step	-9.63339
▁wild	-9.63343
▁Al	-9.63405
▁dental	-9.6343
▁coast	-9.6345
▁surname	-9.63496
▁southern	-9.635
▁figure	-9.63593
▁river	-9.63646
▁electricity	-9.63785
ce	-9.63824
ge	-9.63955
▁ingredients	-9.63999
▁bonds	-9.64064
▁whose	-9.64116
▁legs	-9.64149
▁winter	-9.64166
▁Symptoms	-9.6421
ba	-9.6426
X	-9.64316
▁claim	-9.64326
▁Food	-9.64349
▁layers	-9.64373
▁Medical	-9.64418
▁component	-9.64517
▁options	-9.6479
▁installed	-9.64802
▁dish	-9.64885
▁characteristics	-9.64896
▁reactions	-9.64944
80	-9.6498
▁screen	-9.65001
▁running	-9.6503
▁behavior	-9.65134
▁places	-9.65356
▁Con	-9.65559
▁popularity	-9.65718
▁described	-9.65727
ad	-9.65815
▁ice	-9.6601
▁student	-9.66145
▁technology	-9.66185
ri	-9.6621
.00	-9.66216
▁High	-9.66245
▁follow	-9.66435
▁replacement	-9.66445
▁foreign	-9.6645
▁performed	-9.66603
▁equipment	-9.6663
▁piece	-9.66654
▁September	-9.66669
▁rights	-9.6674
ah	-9.66777
▁International	-9.66805
▁*	-9.6685
▁believe	-9.66881
see	-9.66987
▁northern	-9.67051
▁March	-9.67097
▁percentage	-9.67108
▁formation	-9.67111
▁juice	-9.67196
▁African	-9.67292
▁Italian	-9.67302
▁established	-9.67304
▁girl	-9.67344
▁avoid	-9.67593
▁workers	-9.67685
▁parents	-9.67693
▁swelling	-9.67765
▁properly	-9.67881
▁potatoes	-9.67898
▁wind	-9.67903
▁Central	-9.67914
▁fire	-9.67934
ated	-9.67934
▁held	-9.67947
▁nose	-9.67967
▁raw	-9.68055
▁behind	-9.6808
▁starts	-9.68089
▁button	-9.68189
un	-9.68269
▁storage	-9.68405
▁link	-9.68443
▁medications	-9.68469
▁leading	-9.68561
▁plastic	-9.68665
▁feed	-9.6871
▁mi	-9.68736
▁2010	-9.68808
such	-9.68824
▁mountain	-9.6883
▁Or	-9.6894
▁exchange	-9.69081
].	-9.69081
▁took	-9.69093
▁host	-9.69148
▁attached	-9.69183
▁passed	-9.69193
▁tea	-9.6926
▁transport	-9.69281
▁final	-9.69331
ir	-9.69428
▁ocean	-9.69554
▁$200	-9.69618
▁$25	-9.69622
▁star	-9.69773
▁steps	-9.69824
▁UK	-9.69944
▁values	-9.70028
▁Source	-9.70066
▁components	-9.70092
▁improve	-9.7011
▁2013	-9.70131
ted	-9.70235
▁Car	-9.70376
▁round	-9.70597
▁Red	-9.70701
▁frequently	-9.70785
▁wine	-9.7089
▁horse	-9.70923
▁Sun	-9.70928
▁prior	-9.70946
▁Washington	-9.7095
▁sex	-9.7095
▁becomes	-9.70986
▁knee	-9.70994
▁London	-9.71044
▁roof	-9.71101
▁save	-9.71118
▁text	-9.7142
▁benefit	-9.71659
go	-9.71674
▁bar	-9.71726
▁valve	-9.71891
▁attack	-9.71962
▁status	-9.7199
▁survey	-9.72077
▁girls	-9.72112
▁tropical	-9.72216
▁appearance	-9.72272
▁fatty	-9.72297
▁items	-9.72341
▁Pacific	-9.72369
▁testing	-9.72387
▁Bureau	-9.72391
▁Abuse	-9.72414
▁flu	-9.72428
ka	-9.72437
▁Another	-9.72483
▁potassium	-9.72495
ating	-9.72498
min	-9.72518
▁stress	-9.72521
▁mix	-9.72815
▁Water	-9.72901
▁guide	-9.72915
▁cool	-9.73043
▁board	-9.73077
▁inch	-9.73116
con	-9.73117
▁House	-9.7317
▁neurons	-9.73216
▁Na	-9.73264
▁22	-9.73271
im	-9.73292
▁lack	-9.73331
▁performance	-9.73339
▁Ro	-9.73384
▁measured	-9.73458
▁solar	-9.73896
▁taxes	-9.74034
▁ratio	-9.74075
▁Roth	-9.74187
itis	-9.74234
▁registered	-9.74241
▁Code	-9.74279
▁bread	-9.743
▁spine	-9.74302
den	-9.74334
▁electric	-9.74369
▁$500	-9.74417
▁lung	-9.74554
▁spring	-9.7457
▁serve	-9.74584
▁reference	-9.74591
▁bladder	-9.74618
ent	-9.74739
▁frequency	-9.74748
▁web	-9.74918
▁master	-9.74918
▁schools	-9.75051
▁heavy	-9.75066
▁meet	-9.75149
▁continue	-9.75218
▁document	-9.75262
▁future	-9.75379
▁Then	-9.75402
ner	-9.75418
▁$1,000	-9.75486
20	-9.75501
▁Chinese	-9.75511
▁trade	-9.75513
▁·	-9.75575
▁bowl	-9.75611
▁flower	-9.75621
ish	-9.75682
ft	-9.75694
▁grill	-9.75714
▁fungi	-9.7573
▁radiation	-9.75731
▁$6	-9.7589
▁originally	-9.75911
▁arm	-9.75912
▁Mo	-9.75922
▁Statistics	-9.75926
▁count	-9.7601
▁examples	-9.76097
▁analysis	-9.76142
▁got	-9.76225
▁stock	-9.76249
▁Y	-9.76254
▁votes	-9.76271
▁10%	-9.76277
▁Depend	-9.76294
▁God	-9.76306
yl	-9.76315
▁character	-9.76319
▁anything	-9.76367
▁Irish	-9.76435
▁appears	-9.76466
▁direction	-9.76484
▁party	-9.76607
▁distribution	-9.7664
25	-9.76647
▁Get	-9.76703
▁followed	-9.76765
▁Italy	-9.76789
▁alone	-9.76858
ˈ	-9.76879
▁replace	-9.76886
▁thus	-9.76907
mm	-9.76918
▁rule	-9.76925
which	-9.76927
▁roots	-9.76932
▁diameter	-9.7703
▁gets	-9.77037
▁65	-9.77149
▁clinical	-9.77233
▁resulting	-9.77256
▁pet	-9.77364
▁fully	-9.77392
▁hospital	-9.7748
▁bag	-9.7761
▁band	-9.77641
▁Dr	-9.77703
va	-9.77727
▁classified	-9.77786
▁connective	-9.77795
▁veins	-9.77895
ide	-9.77899
▁300	-9.77913
▁removed	-9.77974
▁respiration	-9.78033
▁tooth	-9.78043
▁protection	-9.78102
▁son	-9.78131
▁Now	-9.78139
▁Service	-9.78184
▁Two	-9.78252
▁Japan	-9.78391
▁View	-9.78424
▁Vitamin	-9.78462
U	-9.7847
▁Ocean	-9.78481
▁December	-9.78611
▁branch	-9.78627
▁proper	-9.78668
▁cities	-9.78714
▁grains	-9.78943
▁Department	-9.78993
▁birds	-9.79026
▁Social	-9.79094
▁Di	-9.79124
▁excess	-9.79128
▁breed	-9.79159
▁50%	-9.79225
▁wedding	-9.79227
▁Blood	-9.79351
▁father	-9.79366
▁annually	-9.79714
dy	-9.79738
▁gold	-9.79754
▁abnormal	-9.8005
▁broken	-9.80171
▁Remove	-9.80185
▁drop	-9.80203
em	-9.80239
▁Check	-9.80349
▁meal	-9.80356
▁Even	-9.80359
▁correct	-9.80388
▁placed	-9.804
▁budget	-9.80437
▁extremely	-9.80531
foot	-9.80536
▁copy	-9.80632
▁Air	-9.80721
▁machine	-9.8073
▁choice	-9.80744
▁existing	-9.80774
▁yourself	-9.80865
▁sand	-9.80897
▁$8	-9.80978
▁event	-9.81091
▁tube	-9.81161
▁Park	-9.81299
....	-9.81336
▁details	-9.81398
▁sides	-9.81491
▁themselves	-9.81544
▁chemicals	-9.81678
▁estate	-9.817
▁rain	-9.81707
▁sequence	-9.81829
▁Find	-9.81837
▁paint	-9.81871
▁paying	-9.81878
▁applications	-9.81885
ac	-9.81975
▁doing	-9.81991
▁cross	-9.81997
▁breast	-9.82032
▁fats	-9.82158
▁garden	-9.82208
▁recorded	-9.82209
▁door	-9.82257
▁charges	-9.8231
▁concentration	-9.82361
he	-9.82404
▁grown	-9.82436
▁studies	-9.82548
▁White	-9.82562
50	-9.82643
▁bill	-9.82688
▁purposes	-9.82844
▁engine	-9.82868
▁cellular	-9.82869
▁bodies	-9.829
▁steak	-9.82957
▁chart	-9.83061
▁equivalent	-9.83181
▁knowledge	-9.83243
shaped	-9.83331
▁dis	-9.83336
▁Just	-9.83367
▁ask	-9.83368
▁23	-9.83385
▁covers	-9.83581
▁measures	-9.83594
▁cash	-9.83607
▁zone	-9.83701
▁turkey	-9.83751
▁passport	-9.83755
▁urinary	-9.83798
ha	-9.83836
▁couple	-9.83932
▁Association	-9.8394
▁Make	-9.83967
▁remain	-9.83973
ana	-9.84167
▁security	-9.84194
▁sheet	-9.84216
▁external	-9.84219
▁Kingdom	-9.84227
▁isn	-9.84298
▁motion	-9.84406
▁Ka	-9.84529
▁political	-9.84537
▁impact	-9.84547
▁employer	-9.84607
▁initial	-9.8461
▁Note	-9.84636
▁runs	-9.84657
▁story	-9.84712
▁hepatitis	-9.84718
pe	-9.8476
▁Let	-9.84839
▁boys	-9.84904
▁pieces	-9.84907
▁fixed	-9.84925
15	-9.8494
▁wear	-9.84965
▁grass	-9.84989
▁combined	-9.8508
▁reasons	-9.85127
▁stores	-9.85243
▁core	-9.85261
▁letter	-9.85321
▁depression	-9.85485
▁freezer	-9.85495
out	-9.85555
▁served	-9.85573
▁General	-9.85574
*	-9.8562
▁represents	-9.85642
ley	-9.85804
men	-9.85823
▁specifically	-9.85894
▁Over	-9.85949
▁yet	-9.85965
▁Z	-9.85969
▁charged	-9.85987
▁connected	-9.86014
▁sample	-9.86096
▁ensure	-9.86275
,000	-9.86388
▁rules	-9.86391
▁laws	-9.86498
▁viral	-9.86501
▁wave	-9.86545
▁II	-9.86547
▁email	-9.86694
▁battery	-9.86699
▁steel	-9.86715
▁instance	-9.86871
▁treated	-9.86893
70	-9.8694
▁Pro	-9.86961
▁gain	-9.86976
▁remains	-9.8698
▁flour	-9.87001
▁writing	-9.87103
▁ring	-9.87146
▁waves	-9.87183
▁con	-9.87293
▁Common	-9.87405
ster	-9.87429
▁block	-9.87553
▁exposure	-9.87589
www	-9.87667
▁evidence	-9.87695
▁Before	-9.87794
ron	-9.87867
▁Security	-9.88091
▁lives	-9.88114
▁Cook	-9.88249
▁distinct	-9.88264
▁November	-9.88265
▁surrounding	-9.88364
▁skills	-9.88402
▁intake	-9.88434
▁firm	-9.88472
▁atom	-9.88501
▁files	-9.88528
▁$40	-9.88535
▁hands	-9.88539
▁Union	-9.88728
▁relative	-9.88807
▁islands	-9.88935
▁Le	-9.88958
▁pot	-9.88998
▁$7	-9.89011
▁shoulder	-9.89046
▁particles	-9.89189
▁Western	-9.89189
▁meters	-9.89327
ga	-9.89509
▁determined	-9.89585
▁sell	-9.89612
ology	-9.89643
▁western	-9.89713
▁indicate	-9.89757
▁beautiful	-9.8984
▁reduced	-9.89885
▁chromosome	-9.89889
▁parent	-9.89899
▁vision	-9.89908
▁Black	-9.89912
▁pancreas	-9.89944
▁diarrhea	-9.89999
ance	-9.90028
▁pronounced	-9.90078
▁tender	-9.90171
▁Mar	-9.9018
▁His	-9.90199
▁Internet	-9.90254
▁abdominal	-9.9027
▁kept	-9.90271
▁carries	-9.90461
▁garlic	-9.90575
▁2011	-9.90603
▁processing	-9.90614
▁$300	-9.90629
▁2000	-9.90642
▁reports	-9.90658
ful	-9.90731
▁families	-9.90786
▁chromosomes	-9.90803
▁(2	-9.9102
▁Celsius	-9.91084
▁resources	-9.91137
▁pregnant	-9.91154
▁variable	-9.91216
▁relationship	-9.91267
way	-9.91304
▁feature	-9.91307
▁en	-9.91376
▁president	-9.91414
▁150	-9.91488
▁acute	-9.91535
▁rash	-9.91598
j	-9.91624
▁twice	-9.91647
▁pattern	-9.91692
▁discovered	-9.9173
▁bathroom	-9.91828
▁1000	-9.91859
▁75	-9.91918
po	-9.91969
▁stem	-9.92102
▁tiny	-9.92167
▁kitchen	-9.92239
tin	-9.92264
▁copper	-9.92318
not	-9.92334
▁Day	-9.92424
▁Japanese	-9.92429
▁multi	-9.92485
▁driving	-9.9255
▁changed	-9.92567
▁kinds	-9.9268
free	-9.92686
90	-9.92689
▁El	-9.92697
ase	-9.92713
▁deficiency	-9.92724
▁USA	-9.92754
▁February	-9.92837
▁acts	-9.929
▁Full	-9.92924
▁oral	-9.92962
▁introduced	-9.93226
pa	-9.93245
▁insulin	-9.93251
pro	-9.93303
▁anxiety	-9.93321
▁heating	-9.93349
▁walk	-9.93421
▁plays	-9.93436
▁phosphate	-9.93482
▁120	-9.93484
▁focus	-9.93486
▁thermometer	-9.9354
▁Hebrew	-9.93576
▁methods	-9.93581
▁producing	-9.93694
▁Share	-9.93731
▁opening	-9.93739
red	-9.93757
se	-9.93785
▁ready	-9.93788
▁setting	-9.9379
▁$150	-9.93833
▁Constitution	-9.93994
▁salmon	-9.94009
▁College	-9.94017
▁Their	-9.94029
ci	-9.94066
▁safety	-9.94083
▁pink	-9.94102
▁lining	-9.94182
▁ideal	-9.94217
▁magnesium	-9.94232
▁mental	-9.94242
▁entry	-9.94283
lin	-9.9429
▁Generally	-9.94379
▁Roman	-9.94465
▁King	-9.94477
▁metabolism	-9.94486
▁greatly	-9.94498
ak	-9.94502
▁connect	-9.94521
▁scientific	-9.94523
▁port	-9.94535
▁(19	-9.94548
▁biological	-9.94626
▁nuclear	-9.94763
▁Pre	-9.94773
▁goods	-9.94801
▁user	-9.94831
▁worked	-9.94862
▁yeast	-9.94933
▁ATP	-9.94965
▁cleaning	-9.94968
▁TV	-9.95051
▁looks	-9.95136
▁tool	-9.95178
▁Middle	-9.95202
▁failure	-9.95229
75	-9.9525
osis	-9.95258
ni	-9.95303
▁micro	-9.95313
▁note	-9.95366
ium	-9.9552
▁perfect	-9.95641
▁mixed	-9.95645
▁nation	-9.95766
60	-9.95799
▁fit	-9.95921
if	-9.95924
▁digestion	-9.95931
▁al	-9.95956
▁thousands	-9.95979
▁Can	-9.96039
▁identify	-9.96195
oc	-9.96226
▁independent	-9.96243
▁Don	-9.96257
▁Australian	-9.96314
▁customer	-9.96383
▁$9	-9.9641
que	-9.96474
▁previous	-9.96496
▁differences	-9.96538
state	-9.96557
▁eastern	-9.96582
▁whereas	-9.96613
▁boil	-9.96693
▁send	-9.96694
▁faster	-9.96726
▁Any	-9.9674
▁cortex	-9.96811
▁military	-9.97
ee	-9.97003
▁lose	-9.97077
▁nodes	-9.97255
▁ex	-9.97305
ler	-9.9737
▁photo	-9.97398
▁everything	-9.97408
▁Center	-9.97438
▁k	-9.97453
▁Me	-9.975
▁aid	-9.97514
19	-9.97516
▁apart	-9.97568
▁Bay	-9.97594
▁olive	-9.97632
▁Lake	-9.9764
▁mortgage	-9.97652
▁issues	-9.97664
▁Sometimes	-9.97681
▁immediately	-9.9771
▁breathing	-9.97762
▁grows	-9.97773
▁onto	-9.97805
▁periods	-9.97898
▁bird	-9.97934
▁hatch	-9.97973
▁flight	-9.9803
▁menu	-9.98247
▁electrons	-9.9831
end	-9.98352
▁26	-9.9838
▁decrease	-9.98411
▁providing	-9.98501
▁pair	-9.98641
▁convert	-9.98674
▁lay	-9.98823
▁founded	-9.98999
▁boy	-9.99066
▁Spain	-9.99124
▁contrast	-9.99135
▁Virginia	-9.99152
bo	-9.9918
▁approved	-9.99332
▁minor	-9.99349
▁broad	-9.99352
▁occurring	-9.99363
▁soon	-9.994
old	-9.99504
▁events	-9.996
▁varieties	-9.99691
▁economic	-9.99784
▁ranging	-9.99808
▁Republic	-9.99833
▁spoken	-9.99993
▁Northern	-10
ver	-10.0005
▁player	-10.001
▁powerful	-10.0014
▁Airport	-10.0014
▁devices	-10.0018
▁Information	-10.0019
▁Company	-10.0019
▁container	-10.0024
▁hemoglobin	-10.0026
▁contribute	-10.0028
▁pure	-10.003
▁happens	-10.0035
▁division	-10.0047
▁unless	-10.005
▁cats	-10.005
sh	-10.0051
▁exactly	-10.0051
▁alternative	-10.0052
▁coverage	-10.0059
13	-10.006
▁Please	-10.006
▁tongue	-10.0061
▁forest	-10.0068
▁Under	-10.0073
▁Q	-10.0074
▁engineering	-10.0077
▁plasma	-10.0085
▁influence	-10.0085
mer	-10.0089
▁lost	-10.009
▁lies	-10.0091
▁describes	-10.0094
▁semi	-10.0096
from	-10.01
▁earnings	-10.0102
▁obtain	-10.0108
▁stands	-10.0114
▁vegetable	-10.0124
▁School	-10.0129
▁customers	-10.0133
▁agreement	-10.014
▁message	-10.0147
▁(3	-10.0152
▁shell	-10.0152
▁tri	-10.0158
▁sq	-10.0159
▁category	-10.0161
▁Ca	-10.0167
▁memory	-10.0171
▁mammals	-10.0182
▁contagious	-10.0192
▁stand	-10.0205
▁Un	-10.0215
ize	-10.0217
▁cream	-10.0217
ning	-10.0232
▁retirement	-10.0234
▁mm	-10.0244
▁radio	-10.0244
▁appropriate	-10.0263
▁county	-10.027
▁calculate	-10.0272
▁specialized	-10.0285
▁vote	-10.0303
ke	-10.0304
au	-10.0305
▁nitrogen	-10.0305
▁skeletal	-10.0306
▁expression	-10.0307
▁Bo	-10.031
▁collection	-10.0326
▁Confidence	-10.0329
▁Origin	-10.0332
▁package	-10.0338
▁household	-10.0344
sa	-10.0351
▁William	-10.0354
▁published	-10.0355
▁consisting	-10.0369
▁except	-10.0376
-1	-10.0377
▁grain	-10.038
▁adding	-10.038
▁prescription	-10.0396
▁bleeding	-10.0398
▁phrase	-10.0399
▁forming	-10.04
▁maintenance	-10.0403
ative	-10.0404
▁target	-10.0416
▁recommend	-10.0418
▁cents	-10.042
▁colon	-10.0423
▁believed	-10.0429
14	-10.043
rich	-10.0432
▁executive	-10.0444
▁32	-10.0446
▁Man	-10.0451
▁press	-10.0455
▁Edit	-10.0456
▁smell	-10.0459
▁foil	-10.0463
▁developing	-10.0481
▁phase	-10.0484
▁driveway	-10.0493
▁cartilage	-10.0494
▁Time	-10.0495
▁characteristic	-10.0499
▁wages	-10.05
▁prepared	-10.0501
▁adjective	-10.0503
▁giving	-10.0504
16	-10.0516
▁database	-10.0522
▁notice	-10.0524
▁pH	-10.0525
▁heal	-10.0531
tri	-10.0533
▁frozen	-10.0535
▁inter	-10.0539
▁desert	-10.0544
▁dairy	-10.0548
▁mechanical	-10.0562
▁allowed	-10.0562
▁operating	-10.0565
▁sit	-10.0567
▁domestic	-10.0571
▁becoming	-10.0582
▁constant	-10.0585
▁flag	-10.0587
▁global	-10.0588
$	-10.0588
▁represent	-10.0593
▁gases	-10.0595
vi	-10.0595
ph	-10.0598
▁hip	-10.0612
▁removal	-10.0613
▁Ne	-10.0616
▁absorb	-10.0626
▁bile	-10.0627
Z	-10.063
▁Form	-10.0634
les	-10.0638
▁Learn	-10.064
▁babies	-10.0651
▁plans	-10.0652
▁owner	-10.0657
▁Keep	-10.0659
▁manager	-10.0666
▁IRS	-10.0667
▁picture	-10.0674
ard	-10.0675
▁Part	-10.0678
▁cough	-10.0687
▁easier	-10.0693
▁receptors	-10.0695
▁48	-10.0698
▁issue	-10.0703
▁tab	-10.0709
▁Open	-10.0709
▁Medicare	-10.0717
▁synthesis	-10.0723
▁coat	-10.0733
▁exist	-10.0735
▁th	-10.0739
stone	-10.0744
▁James	-10.0751
▁Americans	-10.0752
▁females	-10.0754
▁deal	-10.0761
▁reading	-10.0766
▁road	-10.0773
▁concept	-10.0776
▁r	-10.078
ise	-10.0785
▁Pay	-10.0798
▁2015.	-10.0799
▁tail	-10.0803
▁ions	-10.0806
▁remaining	-10.0807
▁opposite	-10.0807
▁touch	-10.0809
▁physician	-10.0815
▁completed	-10.082
▁antibodies	-10.0822
▁learning	-10.083
ja	-10.0834
▁calculated	-10.0834
rd	-10.0835
▁yearly	-10.0835
▁signal	-10.0835
▁write	-10.0836
▁ribs	-10.0842
▁composition	-10.0847
▁calculator	-10.0853
▁Today	-10.0862
▁Per	-10.0863
▁males	-10.0865
▁sale	-10.0866
▁functional	-10.0866
▁painful	-10.0868
▁seat	-10.087
can	-10.087
▁numerous	-10.0871
op	-10.0873
▁app	-10.0877
▁fabric	-10.088
▁homes	-10.088
▁Overview	-10.0881
▁density	-10.0889
ten	-10.0893
▁Examples	-10.0902
▁wheat	-10.0906
▁questions	-10.0909
▁Office	-10.0909
▁feeling	-10.091
▁closely	-10.0915
▁Take	-10.0921
▁reaches	-10.093
▁consist	-10.0934
▁finish	-10.0936
▁kids	-10.0941
▁algae	-10.0946
▁anterior	-10.0947
▁abdomen	-10.0954
▁$12	-10.096
▁ages	-10.0963
▁sent	-10.0963
▁provider	-10.0966
▁orange	-10.0974
ile	-10.0977
der	-10.0979
▁assistant	-10.0988
▁purchased	-10.0991
▁enjoy	-10.1009
▁vital	-10.101
▁ingredient	-10.101
▁secondary	-10.1017
▁exact	-10.1022
▁fight	-10.1023
▁super	-10.1025
ya	-10.1025
▁attention	-10.1026
▁driver	-10.103
▁station	-10.1035
▁Therefore	-10.1041
▁verb	-10.1042
▁Select	-10.1048
▁diagnosis	-10.1048
▁visible	-10.105
▁cytoplasm	-10.1053
5,000	-10.1055
▁Facebook	-10.1062
▁linked	-10.1067
▁grade	-10.1072
▁nine	-10.1076
▁Federal	-10.1078
▁Human	-10.1084
ure	-10.1089
inch	-10.1089
▁society	-10.109
▁border	-10.109
▁exam	-10.1092
▁kg	-10.1097
▁wait	-10.1098
▁increasing	-10.1099
▁contraction	-10.1106
dL	-10.1106
▁died	-10.1109
,500	-10.1118
▁investment	-10.1125
▁classes	-10.113
side	-10.1134
my	-10.1136
▁400	-10.1138
▁ham	-10.1139
▁invented	-10.1143
▁dead	-10.1149
▁players	-10.1151
za	-10.1152
▁accounts	-10.1153
=	-10.1157
▁Zealand	-10.1159
▁civil	-10.1167
▁Bank	-10.1167
▁hit	-10.1168
▁$5,000	-10.1169
but	-10.1171
▁else	-10.1171
▁resting	-10.1173
▁goal	-10.1181
▁l	-10.1189
▁moisture	-10.119
▁neuron	-10.1192
▁variation	-10.1195
car	-10.121
▁flows	-10.1213
▁Group	-10.122
▁dominant	-10.1231
▁permanent	-10.1236
▁plates	-10.1239
▁oldest	-10.124
▁please	-10.1242
▁Civil	-10.1243
▁En	-10.1248
28	-10.1254
ping	-10.1256
▁Business	-10.1258
▁tile	-10.1261
▁transmitted	-10.1261
▁36	-10.1261
▁CO	-10.127
▁significantly	-10.1273
▁coffee	-10.1285
▁toward	-10.1286
chi	-10.1287
▁pump	-10.1289
▁psychology	-10.1291
▁seconds	-10.1292
&	-10.1294
▁lamb	-10.1301
▁Bake	-10.1301
▁capacity	-10.1302
▁stones	-10.1307
▁planning	-10.1308
▁controlled	-10.131
▁beta	-10.1313
▁Preheat	-10.1314
▁Southern	-10.1317
▁Court	-10.1323
▁column	-10.1327
▁Type	-10.1328
▁sensory	-10.1329
▁Blue	-10.1341
▁h	-10.1345
▁resistance	-10.1345
▁nuts	-10.1346
▁Ireland	-10.1355
▁cap	-10.1359
▁Number	-10.1361
▁media	-10.1364
▁toxic	-10.1369
▁chance	-10.1369
ial	-10.1372
▁poor	-10.1373
▁played	-10.138
▁Is	-10.1384
▁approach	-10.1387
▁excellent	-10.1387
▁industrial	-10.1387
tion	-10.139
▁residents	-10.1394
▁refund	-10.141
▁ends	-10.1418
▁leaf	-10.1418
▁images	-10.1422
▁fridge	-10.1429
▁dried	-10.1436
▁item	-10.1447
32	-10.1448
▁lemon	-10.1455
▁symptom	-10.1459
▁mobile	-10.1461
▁Canadian	-10.1463
▁users	-10.1469
▁signals	-10.1469
▁delivery	-10.1472
▁Islands	-10.1473
▁agents	-10.1475
▁pituitary	-10.1478
▁talk	-10.1479
▁Using	-10.148
▁detect	-10.1484
▁creating	-10.1487
18	-10.149
▁measurement	-10.15
11	-10.1501
ae	-10.1504
▁starch	-10.1506
▁employment	-10.1512
▁associate	-10.1512
);	-10.1517
▁output	-10.1522
▁went	-10.1522
▁dependent	-10.153
ang	-10.1531
▁incubation	-10.1539
▁receives	-10.1543
▁earlier	-10.1552
▁Lo	-10.1556
▁foundation	-10.1556
▁sexual	-10.1557
▁review	-10.1559
ina	-10.1563
wood	-10.1569
back	-10.1571
▁bake	-10.159
▁Li	-10.1598
▁former	-10.1608
▁$60	-10.1609
▁forests	-10.1611
▁supplements	-10.1613
▁Read	-10.1613
▁estimates	-10.1617
▁texture	-10.1626
▁penalty	-10.163
▁controls	-10.1639
▁instructions	-10.1644
▁Long	-10.1655
ut	-10.1656
▁Alaska	-10.1656
▁objects	-10.1661
▁linear	-10.1662
ə	-10.1664
▁width	-10.1671
▁dietary	-10.1673
▁arms	-10.1674
▁pulmonary	-10.1677
▁recently	-10.1682
▁marketing	-10.1687
▁lived	-10.1689
▁technique	-10.1689
▁v	-10.1694
▁employed	-10.1706
▁Green	-10.1707
▁supplies	-10.1713
▁George	-10.1713
▁soluble	-10.1715
▁airport	-10.1723
▁Ha	-10.1724
35	-10.1727
▁Life	-10.1733
▁pairs	-10.1734
Q	-10.1735
▁transmission	-10.1736
▁follows	-10.1738
▁comparison	-10.1739
85	-10.1746
▁Georgia	-10.1747
▁supplement	-10.1751
▁signed	-10.1759
▁desired	-10.1759
▁replaced	-10.1763
▁consumption	-10.1763
▁quick	-10.1764
▁branches	-10.1766
▁serves	-10.1766
▁biggest	-10.1769
level	-10.1775
▁mile	-10.1779
▁insects	-10.178
▁metals	-10.1787
▁strand	-10.1794
▁$0	-10.1795
▁offered	-10.1796
-3	-10.18
▁Vi	-10.1803
▁continent	-10.1805
▁identified	-10.1806
▁bright	-10.181
▁track	-10.1811
é	-10.1811
▁tumor	-10.1815
▁accounting	-10.1815
▁speech	-10.1819
ot	-10.1824
▁bowel	-10.1827
45	-10.183
▁originated	-10.1832
▁spent	-10.1837
▁dangerous	-10.1843
hour	-10.1846
▁exposed	-10.1849
▁Microsoft	-10.1855
▁eventually	-10.186
▁Britain	-10.1863
▁PC	-10.187
▁certified	-10.1872
▁membranes	-10.1874
▁y	-10.1878
▁wet	-10.1879
▁w	-10.1884
▁damaged	-10.1884
▁Ex	-10.1885
▁History	-10.1885
▁remember	-10.189
▁collected	-10.1896
▁survive	-10.1896
In	-10.1905
▁straight	-10.1908
▁extreme	-10.1911
▁recognized	-10.1914
▁lab	-10.1916
ray	-10.192
▁Costs	-10.192
▁moves	-10.1922
ER	-10.1924
▁nothing	-10.1927
▁moon	-10.1929
▁aluminum	-10.1932
▁tips	-10.1933
lu	-10.1933
▁fill	-10.1936
▁Russia	-10.1937
izing	-10.1939
▁2013,	-10.194
ring	-10.1941
mi	-10.1945
ence	-10.1945
▁Non	-10.195
▁gross	-10.1951
mon	-10.1954
so	-10.1954
bi	-10.1955
▁Thus	-10.1956
▁la	-10.1962
▁muscular	-10.1964
▁happen	-10.1967
▁burn	-10.1971
▁Education	-10.1978
▁Ad	-10.1979
▁marine	-10.1985
▁bacterium	-10.1992
▁wire	-10.1993
▁drinking	-10.1995
▁sites	-10.1997
▁pulse	-10.1999
▁figures	-10.2002
▁Carolina	-10.2009
▁Plant	-10.2014
▁contribution	-10.2015
▁rent	-10.2017
called	-10.2027
▁moderate	-10.2033
▁processed	-10.2041
▁letters	-10.2053
▁mark	-10.2056
▁cultural	-10.206
▁27	-10.2061
▁scan	-10.2067
▁Tri	-10.2068
▁Google	-10.2069
▁brought	-10.207
▁Total	-10.2071
▁manufacturing	-10.2071
cal	-10.2072
▁tools	-10.2075
ene	-10.2076
▁deposit	-10.2081
▁certification	-10.2087
▁kilometers	-10.2088
▁procedures	-10.2093
▁connection	-10.2093
▁situated	-10.2094
▁limits	-10.2097
▁BLS	-10.2099
▁Post	-10.2108
▁allergic	-10.2113
▁biology	-10.2115
▁communication	-10.2119
wa	-10.212
▁staff	-10.2123
▁autoimmune	-10.2129
ab	-10.2129
▁350	-10.213
▁vomiting	-10.2131
▁beats	-10.2131
▁$2,000	-10.2135
▁usage	-10.2137
38	-10.2142
▁recipe	-10.2147
▁variant	-10.2147
▁Usually	-10.2156
▁compensation	-10.2156
▁trying	-10.216
▁visual	-10.217
paid	-10.2173
▁Star	-10.2177
▁weakness	-10.2188
▁Amendment	-10.219
▁university	-10.2191
▁narrow	-10.2193
io	-10.221
si	-10.2214
34	-10.2215
▁Nurse	-10.2218
▁$75	-10.2223
hi	-10.2224
▁renal	-10.2225
ward	-10.223
▁sugars	-10.2233
▁Inc	-10.2233
▁coal	-10.2243
▁indicates	-10.2243
▁cubic	-10.2248
▁issued	-10.2249
▁tip	-10.2264
▁garage	-10.2272
ata	-10.2273
▁Page	-10.2274
▁understanding	-10.2275
▁cardiac	-10.2278
▁coming	-10.2282
▁Law	-10.2283
▁carried	-10.2285
▁eligible	-10.2288
▁Typically	-10.2289
17	-10.229
▁forward	-10.229
▁volcano	-10.2295
▁morning	-10.2296
board	-10.2306
▁electron	-10.2307
▁situation	-10.2307
▁demand	-10.2309
we	-10.2309
▁Those	-10.231
▁Standard	-10.2313
▁Only	-10.2315
65	-10.2323
▁contractor	-10.2323
24	-10.2331
▁decide	-10.2332
▁chloride	-10.2332
▁reached	-10.2333
▁burning	-10.2333
ck	-10.2333
▁environmental	-10.2334
▁spot	-10.2336
▁u	-10.2336
eg	-10.234
▁split	-10.2344
▁filing	-10.2348
▁pick	-10.2357
▁led	-10.2362
▁Bar	-10.237
▁harmful	-10.2378
▁structural	-10.2379
ea	-10.2381
,”	-10.2387
all	-10.2398
▁surgical	-10.2399
▁mail	-10.2399
▁rib	-10.24
▁academic	-10.2416
▁beyond	-10.2416
95	-10.2417
▁uterus	-10.242
▁peak	-10.2425
▁licensed	-10.2427
▁ca	-10.2432
ric	-10.2436
▁disc	-10.2448
ap	-10.2449
▁Care	-10.245
▁slowly	-10.2456
▁duct	-10.2456
26	-10.2463
▁humidity	-10.2463
▁doctors	-10.247
▁$35	-10.2472
use	-10.2474
▁pretty	-10.2477
▁Web	-10.2477
▁Hi	-10.248
▁Atlantic	-10.2482
▁$14	-10.2485
▁weigh	-10.2497
▁infectious	-10.2498
▁bases	-10.2501
▁payments	-10.2503
ella	-10.2508
27	-10.2509
▁carbohydrate	-10.251
ification	-10.2512
▁voice	-10.2514
ier	-10.2517
▁nationwide	-10.252
▁movements	-10.2522
off	-10.2524
▁%	-10.2525
▁mature	-10.2526
▁spray	-10.2527
▁silver	-10.2529
▁decision	-10.253
▁Mac	-10.2531
▁Good	-10.2531
▁magnetic	-10.2531
▁eaten	-10.2532
▁posterior	-10.2533
▁eukaryotic	-10.2545
▁raise	-10.2551
▁facility	-10.2552
▁critical	-10.2555
about	-10.2556
▁ship	-10.2563
▁friend	-10.2571
with	-10.2572
▁gram	-10.2572
▁mountains	-10.2572
▁Introduction	-10.2574
om	-10.2575
▁leads	-10.2579
oid	-10.258
▁trip	-10.258
▁Credit	-10.2585
▁pull	-10.2589
▁covering	-10.2593
▁laboratory	-10.2607
▁metabolic	-10.261
▁trust	-10.2617
ability	-10.2618
▁premium	-10.2619
29	-10.2624
ng	-10.2625
▁huge	-10.2632
▁successful	-10.2632
36	-10.2637
▁facts	-10.2643
▁poly	-10.2643
related	-10.2648
▁vinegar	-10.2653
▁Unlike	-10.2655
▁closed	-10.2656
▁dance	-10.2672
▁converted	-10.2676
▁books	-10.2677
▁detailed	-10.2677
port	-10.2678
che	-10.268
▁raised	-10.268
▁mono	-10.268
▁ball	-10.2682
▁vs	-10.2687
▁seems	-10.2688
▁yard	-10.269
▁$10,000	-10.2692
▁obtained	-10.2694
▁postings	-10.2694
US	-10.2695
▁roasting	-10.2702
▁locations	-10.2704
▁Enter	-10.2707
▁panel	-10.271
▁forces	-10.2716
▁Up	-10.2724
▁bloodstream	-10.2725
▁extension	-10.2727
▁breath	-10.2729
▁Cover	-10.2734
▁$400	-10.2735
▁250	-10.2736
55	-10.2737
▁mutation	-10.2749
▁accurate	-10.2752
▁favorite	-10.2753
▁define	-10.2761
▁zip	-10.2761
▁Ta	-10.2762
▁nausea	-10.2763
▁agencies	-10.2771
▁stable	-10.2771
▁antibiotics	-10.2772
▁settings	-10.2772
▁anyone	-10.2773
▁BC	-10.2779
▁(1)	-10.2781
CO	-10.2783
33	-10.2784
▁receptor	-10.2787
▁sperm	-10.2789
ham	-10.2791
ny	-10.2795
▁absorbed	-10.2795
▁fairly	-10.2801
▁race	-10.2805
▁profit	-10.2807
▁sports	-10.2808
▁menstrual	-10.2809
ber	-10.2811
▁towards	-10.2816
▁healing	-10.2816
ow	-10.2819
ified	-10.2823
▁percentile	-10.2823
▁Photo	-10.2832
lic	-10.2832
▁Board	-10.2834
▁preparation	-10.2841
▁cable	-10.2843
▁HIV	-10.2847
▁retail	-10.2851
▁iPhone	-10.2863
▁rose	-10.2869
ze	-10.2874
▁everyone	-10.2875
▁passes	-10.2877
▁economy	-10.2879
including	-10.2883
▁Set	-10.2884
over	-10.2885
▁fan	-10.2887
ities	-10.2889
▁format	-10.2891
▁$11	-10.2892
▁Egypt	-10.2895
▁fungus	-10.29
▁Se	-10.2904
ists	-10.2904
▁31	-10.2915
▁speak	-10.2922
▁Project	-10.2923
▁prefer	-10.2923
sis	-10.2929
ator	-10.2933
▁acre	-10.2943
nt	-10.2944
▁experienced	-10.2955
▁List	-10.2955
▁Description	-10.296
ko	-10.2962
▁Normal	-10.2963
▁compare	-10.2967
▁fatigue	-10.2968
▁agency	-10.2968
▁frame	-10.2968
▁breakdown	-10.2968
▁Tax	-10.2976
99	-10.2979
▁cotton	-10.2983
▁manage	-10.2983
▁abundant	-10.299
▁Well	-10.2992
▁anemia	-10.2993
▁Mediterranean	-10.2998
net	-10.3
▁vein	-10.3
▁graduate	-10.3002
▁falls	-10.3006
▁Salaries	-10.3013
fish	-10.3013
▁die	-10.3016
▁enable	-10.302
▁respectively	-10.3026
▁(4	-10.3031
▁1,000	-10.3033
▁hearing	-10.3037
▁certificate	-10.3047
▁Start	-10.3049
▁Plan	-10.3053
▁superior	-10.3055
▁peripheral	-10.3063
▁ion	-10.3068
▁2009	-10.3069
hu	-10.3075
98	-10.3077
▁rack	-10.3079
▁regulate	-10.308
▁lava	-10.308
▁absorption	-10.3081
▁molecular	-10.3085
▁custom	-10.3085
▁index	-10.3085
▁strain	-10.3086
▁wish	-10.3088
ps	-10.3093
▁tank	-10.3095
▁Every	-10.3098
▁bi	-10.3098
▁volcanic	-10.3102
od	-10.3103
▁television	-10.3104
▁married	-10.3112
▁Science	-10.3118
▁Below	-10.312
▁ro	-10.3123
22	-10.3124
▁Baby	-10.3132
▁cent	-10.3137
▁display	-10.314
▁$3,000	-10.3144
▁trans	-10.3146
▁giant	-10.3146
ries	-10.3147
▁ounces	-10.3152
▁stream	-10.3152
▁spelling	-10.3154
▁dishes	-10.3166
low	-10.3167
▁sentence	-10.317
39	-10.3171
▁gallon	-10.3172
▁attacks	-10.3172
▁technician	-10.3173
ical	-10.3182
▁photosynthesis	-10.3184
▁doses	-10.3186
▁contributions	-10.3193
▁seem	-10.3194
▁moved	-10.3198
▁steam	-10.3199
▁underlying	-10.32
▁origins	-10.3202
▁auto	-10.3205
▁edge	-10.3207
▁Research	-10.3216
▁depth	-10.3221
▁Class	-10.3221
tor	-10.323
known	-10.3231
▁meter	-10.3233
ola	-10.3236
▁Eastern	-10.3238
▁organelles	-10.3243
▁kill	-10.3255
▁statement	-10.326
bar	-10.3263
▁thickness	-10.3264
▁hyper	-10.3264
▁bed	-10.3273
▁st	-10.3277
▁MRI	-10.3285
▁vessel	-10.3286
▁operation	-10.3293
2.	-10.3293
lan	-10.3295
zo	-10.3298
▁Low	-10.3298
▁path	-10.3301
▁rarely	-10.3303
▁prominent	-10.3308
▁Heat	-10.3309
▁photos	-10.331
▁sounds	-10.3315
▁operations	-10.3321
▁adrenal	-10.3322
ura	-10.333
▁circuit	-10.3331
▁filled	-10.3332
▁Rating	-10.3334
▁habitat	-10.3335
▁positions	-10.3336
▁daughter	-10.3342
▁29	-10.3354
▁accepted	-10.3359
RA	-10.3363
▁treatments	-10.3363
▁synthetic	-10.3364
▁filter	-10.3365
▁prescribed	-10.3366
▁allowing	-10.3368
▁endocrine	-10.3371
▁prepare	-10.3375
▁consume	-10.3377
▁2008	-10.3377
mg	-10.3377
ula	-10.3378
▁orbit	-10.3378
▁Manager	-10.3379
▁rid	-10.3379
,400	-10.338
▁Wikipedia	-10.3387
▁schedule	-10.3388
▁divide	-10.3394
▁smallest	-10.3395
▁worldwide	-10.3403
▁rental	-10.3407
▁professionals	-10.3408
▁0.	-10.3415
▁earns	-10.3419
▁facilities	-10.3421
▁description	-10.3422
▁(5	-10.3429
ru	-10.343
▁soy	-10.343
▁valid	-10.3434
▁friends	-10.344
▁Scottish	-10.344
▁classification	-10.3446
▁intended	-10.3448
▁Census	-10.3449
▁background	-10.3451
ped	-10.3457
▁advanced	-10.346
▁mo	-10.3471
▁centre	-10.3473
▁opened	-10.3479
▁load	-10.3481
▁claims	-10.3485
▁sunlight	-10.3489
org	-10.3507
▁Sp	-10.3508
▁personality	-10.3509
21	-10.3514
▁belongs	-10.3516
▁fence	-10.3517
▁cast	-10.3524
▁Ar	-10.3527
▁Dutch	-10.3528
▁polymerase	-10.3532
▁inherited	-10.3534
▁meals	-10.3534
▁Po	-10.3536
▁collagen	-10.3536
▁Mount	-10.3544
▁projects	-10.3546
▁oxide	-10.3548
▁gum	-10.355
▁180	-10.355
ey	-10.3553
▁changing	-10.3556
▁$16	-10.3569
▁inflammatory	-10.3571
▁$18	-10.3572
▁cheaper	-10.3576
▁fly	-10.3577
2%	-10.3578
▁ranked	-10.3581
▁somewhat	-10.3582
▁album	-10.3586
▁courses	-10.3587
▁Heart	-10.3603
▁longest	-10.3604
▁sore	-10.3611
-19	-10.3617
▁request	-10.3618
ins	-10.3618
▁Sa	-10.3629
▁leader	-10.363
▁capable	-10.3631
▁beer	-10.3632
▁generic	-10.3633
▁headache	-10.3636
▁$13	-10.3646
tal	-10.3647
▁colleges	-10.365
▁spending	-10.365
▁achieve	-10.3655
▁gift	-10.3656
▁Light	-10.3661
▁Ra	-10.3663
▁Pa	-10.3664
▁officer	-10.3665
▁$250	-10.3665
▁teacher	-10.3666
▁context	-10.3669
▁lateral	-10.3669
▁instrument	-10.367
37	-10.367
▁scientists	-10.3681
▁separated	-10.3687
▁standards	-10.3688
▁(#	-10.369
▁deck	-10.3694
▁bio	-10.3695
-2	-10.3695
tu	-10.3697
64	-10.37
▁wrong	-10.3704
▁aren	-10.3704
▁differ	-10.3707
▁lobe	-10.3714
▁sp	-10.3714
▁55	-10.3732
ven	-10.3737
vo	-10.3742
▁fossil	-10.3742
▁Rights	-10.3743
▁excessive	-10.3743
31	-10.3744
▁vascular	-10.3744
▁generation	-10.3745
▁Though	-10.3745
▁gray	-10.3746
▁Hawaii	-10.3761
usually	-10.3762
▁holds	-10.3768
▁Massachusetts	-10.3773
▁extract	-10.3777
▁lbs	-10.3782
▁debt	-10.3787
▁park	-10.3788
▁otherwise	-10.3789
▁conversion	-10.3794
▁Free	-10.3798
▁surgeon	-10.3801
our	-10.3802
▁Los	-10.3821
▁belong	-10.3842
▁circulation	-10.3842
▁earning	-10.3845
▁exists	-10.3852
▁bear	-10.3854
▁cerebral	-10.3856
▁pop	-10.3861
▁lymphatic	-10.3872
▁tear	-10.3872
▁Age	-10.3877
▁modified	-10.3879
▁temp	-10.3883
▁largely	-10.3893
23	-10.3896
▁Amazon	-10.3896
▁rapidly	-10.3899
▁se	-10.3907
▁documents	-10.3914
▁nest	-10.3933
▁client	-10.3934
▁author	-10.3935
▁treating	-10.3937
tra	-10.3938
oma	-10.3941
▁2014,	-10.3943
▁formal	-10.3945
her	-10.3949
▁Greece	-10.395
▁criminal	-10.395
▁capillaries	-10.3958
▁lb	-10.3961
▁statistics	-10.3964
don	-10.3966
▁CA	-10.3966
rate	-10.3967
▁success	-10.3969
46	-10.397
▁Turn	-10.3973
▁closer	-10.3973
▁combine	-10.3978
▁nutrition	-10.3982
▁electronic	-10.3984
▁Energy	-10.3985
▁interior	-10.3987
▁Robert	-10.3987
▁replication	-10.3996
▁asked	-10.3996
▁hundred	-10.4
▁Government	-10.4002
▁transcription	-10.4005
▁Causes	-10.4008
▁Next	-10.402
▁rough	-10.4021
▁qualify	-10.4023
▁20%	-10.4024
gi	-10.4025
▁honey	-10.4029
▁younger	-10.403
▁fun	-10.4045
▁Area	-10.4047
▁patent	-10.4052
let	-10.4054
▁digital	-10.4062
▁residential	-10.4069
more	-10.4077
▁carbs	-10.4079
ria	-10.4081
▁secreted	-10.4082
▁rapid	-10.4085
▁assets	-10.4086
▁RE	-10.4088
▁shingles	-10.4089
▁principal	-10.409
▁shower	-10.4105
▁potato	-10.4108
hr	-10.4109
▁$80	-10.4111
▁yogurt	-10.4112
44	-10.4113
72	-10.4113
▁par	-10.4116
▁therapist	-10.4119
▁boundary	-10.4122
▁fields	-10.4127
ose	-10.4133
▁granite	-10.4134
▁moist	-10.4134
▁Program	-10.4134
▁possibly	-10.4141
▁snow	-10.4142
ino	-10.4145
▁angle	-10.4149
▁unusual	-10.4152
▁involve	-10.4155
▁breaks	-10.4158
pi	-10.4167
▁extent	-10.417
▁bath	-10.417
▁movie	-10.4173
▁Institute	-10.4176
▁speaking	-10.4179
▁healthcare	-10.4182
▁plural	-10.4182
ding	-10.4183
▁links	-10.4185
fer	-10.4187
▁relieve	-10.4187
▁100%	-10.4187
▁domain	-10.4187
▁dense	-10.4188
▁Bi	-10.419
▁cow	-10.4194
fa	-10.4194
▁command	-10.4196
▁blocks	-10.4199
▁manner	-10.4199
▁centuries	-10.4201
mb	-10.4203
act	-10.4206
▁techniques	-10.4206
qui	-10.4209
▁creates	-10.421
▁Insurance	-10.421
▁undergraduate	-10.421
▁tumors	-10.4212
▁extended	-10.4219
▁canal	-10.4222
field	-10.4223
istic	-10.4223
▁Bill	-10.4224
▁hear	-10.4232
ct	-10.4233
▁lasts	-10.4235
▁oils	-10.4239
▁Mail	-10.424
▁dosage	-10.4244
▁suggests	-10.4247
▁shot	-10.4248
▁Test	-10.4248
▁nurses	-10.4249
▁Mexican	-10.425
▁1.5	-10.4253
▁Services	-10.4253
▁quarter	-10.4256
▁fourth	-10.4258
▁mentioned	-10.4259
▁steaks	-10.4264
▁drain	-10.4265
▁told	-10.4265
▁Columbia	-10.427
▁NOT	-10.427
▁sum	-10.4275
lon	-10.4278
▁Her	-10.4279
ble	-10.4286
▁$19	-10.4287
▁profile	-10.4288
▁usual	-10.4289
▁$1,500	-10.4289
house	-10.4294
▁returns	-10.4299
ns	-10.4303
▁Between	-10.4304
▁handle	-10.431
▁owners	-10.4317
▁hundreds	-10.4319
▁marrow	-10.4326
▁keeping	-10.4327
▁meanings	-10.4327
▁Ni	-10.4334
▁categories	-10.4338
▁poisoning	-10.4341
%	-10.4341
▁patterns	-10.4345
▁sizes	-10.4349
ell	-10.4353
▁milligrams	-10.4355
▁mode	-10.4356
LE	-10.4357
▁ma	-10.4366
.50	-10.4369
▁stroke	-10.4372
47	-10.4377
▁novel	-10.4379
▁Wall	-10.4382
▁voltage	-10.4385
▁colour	-10.4388
▁counter	-10.4389
▁zinc	-10.439
▁polar	-10.4396
cho	-10.4402
IN	-10.4402
water	-10.4405
▁stars	-10.4405
▁print	-10.4413
ger	-10.4415
▁gel	-10.4418
▁coli	-10.4418
▁breeds	-10.4422
ade	-10.4427
▁quantity	-10.4429
ud	-10.443
gon	-10.4433
▁vi	-10.4433
▁Medicine	-10.4435
▁Control	-10.4444
▁mitochondria	-10.4446
100	-10.4449
▁membership	-10.4456
▁Install	-10.4457
▁intestines	-10.4458
ki	-10.4465
▁unknown	-10.4466
down	-10.4468
▁Port	-10.4472
49	-10.4478
▁Turkey	-10.4481
▁blend	-10.4488
▁Da	-10.4488
▁intestinal	-10.4489
▁develops	-10.4491
▁prostate	-10.4491
▁medicines	-10.4492
06	-10.4493
▁Images	-10.45
▁oz	-10.4501
kin	-10.4503
▁paste	-10.4504
▁explain	-10.4504
▁recovery	-10.4505
▁Family	-10.451
▁saturated	-10.4534
▁familiar	-10.4534
▁leaving	-10.4534
▁liability	-10.4539
▁pigment	-10.4541
▁golden	-10.4543
▁sedimentary	-10.4543
▁Sub	-10.4544
▁bound	-10.4548
▁feeding	-10.4552
▁Making	-10.4554
▁protective	-10.4554
▁cutting	-10.4556
▁bridge	-10.4556
▁sets	-10.4558
▁shorter	-10.4561
▁dollar	-10.4563
▁disability	-10.4565
▁microwave	-10.4569
56	-10.4571
▁regularly	-10.4571
▁Mountains	-10.4575
▁corner	-10.4577
SA	-10.4578
cha	-10.4582
▁pneumonia	-10.4582
▁carpet	-10.4583
▁boiling	-10.4586
▁volcanoes	-10.4588
edit	-10.4591
▁(18	-10.4593
▁2,000	-10.4597
▁magma	-10.4601
6%	-10.4602
neurotransmitter	-10.4611
7%	-10.4616
type	-10.4626
▁poultry	-10.4631
▁department	-10.4632
▁turning	-10.4632
▁nasal	-10.4637
▁Example	-10.4639
▁Three	-10.464
▁battle	-10.4644
▁metres	-10.4648
IC	-10.4648
▁hotel	-10.4654
▁marked	-10.4663
▁circle	-10.4665
top	-10.467
▁homeowners	-10.4675
97	-10.4675
▁train	-10.4682
▁showing	-10.4683
▁suggest	-10.469
MS	-10.4691
▁reduction	-10.4699
▁examination	-10.4702
▁lots	-10.4711
▁Administration	-10.4716
▁Muscle	-10.4722
pt	-10.4722
▁David	-10.4723
▁historical	-10.4724
ius	-10.4725
▁Carbon	-10.4727
▁esophagus	-10.4727
▁injuries	-10.4734
▁territory	-10.4734
ville	-10.4739
ions	-10.4739
▁didn	-10.4741
▁Su	-10.4744
09	-10.4745
▁asphalt	-10.4747
▁extend	-10.475
▁Am	-10.475
▁Early	-10.475
▁helpful	-10.4754
▁nutrient	-10.4756
ED	-10.4758
ran	-10.4759
uc	-10.4768
73	-10.4769
▁2011,	-10.4771
03	-10.4774
▁shallow	-10.4774
▁Russian	-10.4777
79	-10.4779
▁Apple	-10.478
08	-10.4783
▁Search	-10.4786
▁chemistry	-10.4795
▁Out	-10.4796
66	-10.4796
▁Range	-10.4796
▁syrup	-10.4797
▁Arabic	-10.4797
▁chops	-10.4805
▁crystals	-10.4807
▁cattle	-10.4815
▁shares	-10.4822
ible	-10.4822
ane	-10.4829
▁scores	-10.4832
▁lease	-10.4833
pre	-10.4839
▁frequent	-10.4839
▁Lu	-10.4842
▁watch	-10.4843
jo	-10.4846
▁Valley	-10.4846
▁teachers	-10.4852
▁precipitation	-10.4852
▁literature	-10.4855
▁mucus	-10.4855
ox	-10.4857
▁potentially	-10.4859
▁digest	-10.4861
▁server	-10.4862
▁continuous	-10.4862
▁Fe	-10.4871
▁Chicago	-10.4883
▁monitor	-10.4887
ib	-10.4888
▁contained	-10.489
▁tough	-10.489
▁Foods	-10.4901
68	-10.4905
▁shall	-10.4906
▁rainfall	-10.491
▁Save	-10.4912
▁Ga	-10.4914
amine	-10.4919
▁shaped	-10.4923
▁mph	-10.4925
mp	-10.4925
▁owned	-10.4926
Re	-10.4926
▁nor	-10.4928
▁continental	-10.4928
king	-10.4929
▁adopted	-10.493
▁Dictionary	-10.4933
▁attempt	-10.4938
▁nucleotides	-10.4942
▁extends	-10.4945
▁businesses	-10.4947
▁stick	-10.4952
▁heard	-10.4955
▁agree	-10.4957
▁bite	-10.4957
5%	-10.4966
ING	-10.4969
▁sort	-10.4977
▁ventricle	-10.4977
▁sick	-10.4979
▁painting	-10.498
gen	-10.4991
▁soda	-10.4994
▁Roast	-10.4997
▁1/4	-10.5004
48	-10.5006
▁wound	-10.5008
▁cars	-10.501
▁expressed	-10.5012
▁overtime	-10.5015
▁occasionally	-10.5019
▁withdrawal	-10.502
▁technicians	-10.502
▁Treatment	-10.5021
42	-10.5024
▁annum	-10.5026
▁Where	-10.5027
ai	-10.5028
▁meats	-10.503
▁Ba	-10.5031
▁saw	-10.5032
▁Management	-10.5039
▁mood	-10.5039
▁meant	-10.504
▁engineer	-10.504
▁automatically	-10.5043
▁requirement	-10.5046
▁stages	-10.5046
▁Put	-10.505
▁involving	-10.5052
▁sensitive	-10.5053
▁reproductive	-10.5057
▁surrounded	-10.5063
▁destination	-10.5065
▁selection	-10.5065
▁equation	-10.5066
▁switch	-10.5076
43	-10.5078
▁belt	-10.5085
▁rub	-10.5089
▁Children	-10.509
▁games	-10.5091
▁Native	-10.5092
▁Second	-10.5096
▁enters	-10.5096
▁thinking	-10.5099
▁peas	-10.51
▁affecting	-10.5103
▁IP	-10.5107
▁chief	-10.5108
▁purple	-10.5109
07	-10.5115
▁atomic	-10.5116
▁Berlin	-10.5118
▁respect	-10.512
▁Senate	-10.5123
▁Rock	-10.5126
▁snake	-10.5128
▁shop	-10.5129
▁injection	-10.5131
96	-10.5136
▁mar	-10.5136
▁vapor	-10.5136
ica	-10.5138
▁gallbladder	-10.5141
▁spectrum	-10.5141
▁label	-10.5142
▁bo	-10.515
▁decay	-10.515
▁$600	-10.5152
▁Disease	-10.5159
▁loose	-10.516
▁surfaces	-10.5161
▁Assistant	-10.5169
▁boundaries	-10.5169
▁Angeles	-10.5171
LA	-10.5172
▁basically	-10.5174
▁cups	-10.5174
▁Often	-10.5175
▁2)	-10.5177
▁HR	-10.5178
AL	-10.5188
▁greatest	-10.5189
▁pi	-10.5194
▁igneous	-10.5201
▁hope	-10.5204
▁Arizona	-10.5206
▁funds	-10.5215
▁Season	-10.5218
tus	-10.5224
▁identity	-10.5225
▁selected	-10.5226
▁consumer	-10.5227
3.	-10.5228
▁rises	-10.523
▁diagnose	-10.5233
▁Pennsylvania	-10.5234
▁reproduction	-10.524
▁Instead	-10.5241
▁shock	-10.5243
▁wife	-10.5244
▁pasta	-10.5246
some	-10.5247
▁measuring	-10.5253
▁match	-10.5257
▁Figure	-10.5257
▁removing	-10.5258
9%	-10.526
▁religion	-10.526
ita	-10.5263
▁Ohio	-10.5263
▁et	-10.5264
▁employers	-10.5265
▁Chi	-10.5267
▁antigen	-10.5274
▁weak	-10.5277
▁Treaty	-10.5279
▁File	-10.5282
▁reducing	-10.5284
▁tendon	-10.529
▁Men	-10.529
▁urethra	-10.5291
▁gluten	-10.5296
non	-10.5298
that	-10.5306
▁police	-10.531
led	-10.5312
89	-10.5321
fin	-10.5323
bra	-10.5337
▁joined	-10.5338
▁authority	-10.534
▁te	-10.5341
▁skillet	-10.5344
nic	-10.5345
▁Cor	-10.5348
uff	-10.5349
▁coronary	-10.5351
▁promote	-10.5353
▁trait	-10.5356
▁beauty	-10.5358
▁basement	-10.5358
▁Oldest	-10.536
▁Data	-10.5363
76	-10.5366
▁$45	-10.5367
▁vast	-10.5371
▁savings	-10.5371
▁aorta	-10.5378
74	-10.5378
▁tendons	-10.5381
▁Thomas	-10.5382
▁Army	-10.5385
▁Colorado	-10.5391
ob	-10.5394
92	-10.5398
ena	-10.5403
▁Asian	-10.5404
▁emergency	-10.541
▁flooring	-10.5411
▁160	-10.5415
tes	-10.5415
▁deposits	-10.5425
ship	-10.5426
▁$17	-10.5431
head	-10.5434
nes	-10.5435
▁elected	-10.5435
square	-10.5438
work	-10.5442
▁join	-10.5449
ris	-10.5461
▁cuisine	-10.5463
▁onion	-10.5468
▁mis	-10.5471
▁para	-10.5475
▁bottle	-10.5477
▁Anti	-10.5477
▁functioning	-10.5482
▁odor	-10.5482
▁Whether	-10.5482
rin	-10.5483
▁windows	-10.5485
58	-10.5485
59	-10.5487
▁puppy	-10.5487
▁classic	-10.5488
▁conduct	-10.549
▁1980	-10.5491
sized	-10.5492
▁zero	-10.5492
▁manufactured	-10.5494
▁allele	-10.5496
▁lawn	-10.5497
▁Scotland	-10.5502
▁fluids	-10.5508
▁1960	-10.5508
▁apple	-10.5509
78	-10.5511
▁qualified	-10.5514
▁plane	-10.5514
rum	-10.5515
▁600	-10.5516
▁2006	-10.5517
88	-10.5517
▁plenty	-10.5521
ual	-10.5522
▁crime	-10.5522
uk	-10.5523
▁relief	-10.5526
▁gender	-10.5527
▁folder	-10.5527
▁uncommon	-10.553
1,	-10.5538
▁Rate	-10.5539
ip	-10.5541
▁ta	-10.5542
▁perhaps	-10.5548
▁cure	-10.5559
▁Ko	-10.5559
▁ADVERTISEMENT	-10.556
▁kingdom	-10.5567
▁password	-10.557
high	-10.5571
ig	-10.5584
▁Empire	-10.5589
▁protects	-10.5592
▁buying	-10.5602
▁selling	-10.5604
▁organizations	-10.5606
86	-10.5607
▁king	-10.5607
▁wrap	-10.5612
q	-10.5614
▁solutions	-10.5622
▁horses	-10.5624
▁parties	-10.5626
▁im	-10.5629
▁chains	-10.5634
▁director	-10.5636
▁engineers	-10.5636
▁Mountain	-10.5636
▁Ke	-10.5637
▁met	-10.5639
▁goals	-10.5643
▁slab	-10.5644
par	-10.5645
▁manufacturer	-10.5645
▁Moon	-10.5648
▁onions	-10.5649
▁urban	-10.5652
▁assistants	-10.5658
▁insert	-10.566
▁vehicles	-10.5661
▁connects	-10.5662
▁regardless	-10.5665
▁corporation	-10.5669
▁actions	-10.567
▁Charles	-10.5671
▁ounce	-10.5672
▁2013.	-10.5672
▁rivers	-10.5676
41	-10.5676
2,	-10.5676
▁receiving	-10.5678
83	-10.5678
▁Zip	-10.5683
▁deduction	-10.5683
69	-10.5687
▁drinks	-10.5688
▁tablets	-10.5693
▁cultures	-10.5697
▁optic	-10.5698
▁finished	-10.5699
Getty	-10.5704
▁gave	-10.5704
▁turned	-10.5707
▁pages	-10.5708
▁association	-10.5712
ular	-10.5713
▁literally	-10.5714
▁religious	-10.5714
8%	-10.5716
▁aspects	-10.5717
▁row	-10.5723
▁models	-10.5723
▁latest	-10.5727
▁33	-10.5728
▁confused	-10.573
▁stretch	-10.573
▁Work	-10.5732
▁generate	-10.5732
▁mantle	-10.5733
▁characters	-10.5734
▁Map	-10.5734
▁Hepatitis	-10.5737
du	-10.5737
▁Coast	-10.5737
▁hole	-10.5738
▁Gold	-10.5746
mus	-10.5747
ned	-10.5752
▁wrist	-10.5752
▁le	-10.5754
▁caffeine	-10.5757
▁ligament	-10.5757
▁nutritional	-10.5759
▁ideas	-10.5759
▁consumed	-10.5761
sp	-10.5762
▁nucleotide	-10.5764
▁advantage	-10.5766
▁2007	-10.5766
▁contracts	-10.5766
▁soap	-10.5771
▁peace	-10.5771
emia	-10.5773
▁football	-10.5774
▁baked	-10.5778
▁registration	-10.5781
▁2004	-10.5786
4.	-10.5787
▁finger	-10.5788
▁administration	-10.5793
▁Prince	-10.5802
77	-10.5802
▁shared	-10.5808
▁filling	-10.5809
▁1990	-10.5809
▁cha	-10.5829
kg	-10.5838
ole	-10.5839
ala	-10.5843
▁turns	-10.5846
▁string	-10.5847
▁hire	-10.5848
▁trial	-10.5849
▁Pe	-10.5849
▁entirely	-10.5851
▁chocolate	-10.5851
▁$50,000	-10.5854
▁senior	-10.5856
It	-10.5862
▁visa	-10.5872
▁holding	-10.5874
▁swollen	-10.5876
▁suitable	-10.5878
▁na	-10.5882
▁Mark	-10.5884
▁previously	-10.5894
▁ticket	-10.5895
”.	-10.5895
▁Brown	-10.5902
▁Francisco	-10.5902
▁38	-10.5902
ford	-10.5903
name	-10.5904
▁managers	-10.5905
▁partial	-10.5919
ks	-10.592
▁spots	-10.5926
▁ultrasound	-10.5937
▁walking	-10.5937
▁clay	-10.5941
▁Related	-10.5946
▁Wi	-10.5949
▁gap	-10.595
▁practices	-10.5951
▁catch	-10.5956
cy	-10.5956
▁cards	-10.5958
▁tubes	-10.596
fe	-10.5967
▁37	-10.5969
life	-10.5969
▁ha	-10.597
▁Dis	-10.5971
gastrointestinal	-10.5972
▁planets	-10.5976
▁dust	-10.598
▁antibiotic	-10.5982
▁Call	-10.5984
▁interesting	-10.5987
dia	-10.5988
▁download	-10.5991
91	-10.5997
▁attorney	-10.5997
▁freeze	-10.5999
▁Last	-10.6001
ates	-10.6001
▁Certified	-10.6003
▁efficient	-10.6006
▁brush	-10.6011
▁Oregon	-10.6013
▁Summary	-10.6013
▁fewer	-10.6014
▁clothing	-10.6015
▁District	-10.6023
sta	-10.6024
▁thousand	-10.6026
▁elevation	-10.6028
▁1970	-10.603
▁smoke	-10.6031
cle	-10.6033
▁da	-10.6033
▁Ja	-10.6034
▁Iron	-10.6038
▁mutations	-10.6038
▁advice	-10.6039
▁copies	-10.6039
lar	-10.6041
ons	-10.6041
vent	-10.6042
▁perennial	-10.6044
▁diagnosed	-10.6051
len	-10.6053
▁Paris	-10.6053
▁deliver	-10.6062
▁protected	-10.6069
▁somewhere	-10.6069
▁Women	-10.6069
▁tap	-10.607
▁2012.	-10.6071
tel	-10.6072
▁Disney	-10.6074
▁nail	-10.6074
▁applies	-10.6075
93	-10.608
▁aircraft	-10.6081
▁Pan	-10.6083
▁era	-10.6084
▁operate	-10.6085
▁entity	-10.6085
CA	-10.6089
▁Illinois	-10.609
▁default	-10.609
▁lake	-10.609
▁mold	-10.6091
▁restaurant	-10.6101
▁temperate	-10.6105
▁Guide	-10.6106
▁stool	-10.6106
▁barrier	-10.6107
▁codes	-10.611
▁emotional	-10.611
▁epithelium	-10.6115
ung	-10.6116
▁traits	-10.6117
▁cooling	-10.6119
▁Michigan	-10.6121
▁truck	-10.6122
soluble	-10.6123
▁specialty	-10.6129
▁sharp	-10.6129
▁2-3	-10.613
▁province	-10.6132
▁fraction	-10.6134
-10	-10.6135
▁Back	-10.614
▁harm	-10.6145
TA	-10.6153
▁quartz	-10.6156
0.	-10.6163
▁transportation	-10.6166
▁beneath	-10.6172
▁dissolved	-10.6174
ada	-10.6176
▁Types	-10.6177
▁Chemical	-10.6183
▁lean	-10.6186
▁duration	-10.6188
ised	-10.6189
▁interested	-10.6189
▁biome	-10.6197
▁Jersey	-10.6198
sion	-10.62
▁(6	-10.6202
▁inspection	-10.6204
▁Te	-10.6204
tis	-10.6205
ach	-10.6205
▁90%	-10.6213
▁wrote	-10.6214
▁holiday	-10.6217
▁terminal	-10.6217
▁exception	-10.6219
▁landscape	-10.6219
▁diverse	-10.6222
▁lift	-10.6226
▁ones	-10.6228
▁stems	-10.6231
ets	-10.6232
▁announced	-10.6237
.]	-10.6238
▁$20,000	-10.6238
ju	-10.624
▁sheep	-10.6241
,600	-10.6242
▁encyclopedia	-10.6245
IP	-10.6245
AP	-10.6247
▁sharing	-10.6249
▁collect	-10.6256
▁$100,000	-10.6257
▁bigger	-10.6257
▁bean	-10.6258
▁CD	-10.6258
ker	-10.6267
▁Installation	-10.6268
▁boat	-10.6273
▁sensation	-10.6281
▁closing	-10.6282
▁mechanism	-10.6285
▁actor	-10.6286
▁distributed	-10.6301
▁antibody	-10.6308
4%	-10.631
▁lo	-10.6314
▁wireless	-10.6314
▁alpha	-10.632
gg	-10.6322
▁necessarily	-10.6323
ther	-10.6324
▁2.5	-10.6324
▁Small	-10.6327
▁expense	-10.6328
▁ceiling	-10.6328
▁closest	-10.633
▁village	-10.6331
▁ears	-10.6334
▁offering	-10.6337
▁fuels	-10.6339
▁trunk	-10.6339
▁revenue	-10.6339
▁Inter	-10.634
▁wheel	-10.6342
▁session	-10.6344
▁rheumatoid	-10.6344
▁flexible	-10.6345
▁72	-10.6345
▁Gaelic	-10.6348
▁genome	-10.635
▁peel	-10.6355
PA	-10.6359
pp	-10.6362
▁recessive	-10.6371
▁hospitals	-10.6373
▁binding	-10.6375
▁Street	-10.6376
▁route	-10.6383
▁League	-10.639
▁elbow	-10.6392
▁drivers	-10.6392
▁£1	-10.6393
▁prey	-10.6397
▁consumers	-10.6398
▁fur	-10.6401
▁comprehensive	-10.6406
▁herbs	-10.6413
▁bull	-10.6422
▁kilometres	-10.6424
▁union	-10.6424
▁technical	-10.6429
▁wax	-10.6433
▁#	-10.6435
▁Book	-10.6435
▁Brazil	-10.6438
▁fermentation	-10.644
▁Mu	-10.6442
▁messages	-10.6442
▁beneficial	-10.6445
▁fundamental	-10.6445
▁Paul	-10.6445
▁span	-10.6446
cent	-10.645
▁Gu	-10.6451
▁worker	-10.6451
ney	-10.6453
▁wanted	-10.6453
▁vet	-10.646
▁]	-10.6461
MA	-10.6464
,300	-10.6466
▁corporate	-10.6475
▁farm	-10.6476
▁Cal	-10.6476
▁Si	-10.6476
▁traffic	-10.6477
▁gradually	-10.6479
▁translation	-10.6481
▁fair	-10.6484
cul	-10.6495
▁thigh	-10.6497
▁Pain	-10.6497
▁acquired	-10.6497
▁Boston	-10.6499
▁fingers	-10.6503
▁applying	-10.6506
▁clients	-10.6508
▁citizens	-10.6511
▁moment	-10.6517
▁saliva	-10.6519
well	-10.6519
▁concerned	-10.6522
,800	-10.6525
▁Bio	-10.6528
▁segment	-10.6528
▁$22	-10.6528
▁$30,000	-10.6528
▁juices	-10.6529
▁industries	-10.653
▁Trans	-10.6534
▁essentially	-10.6534
▁Ma	-10.6539
▁dates	-10.654
▁carrier	-10.6545
▁Pi	-10.6546
▁settlement	-10.6548
▁stated	-10.6553
▁Ho	-10.6554
idae	-10.6555
ik	-10.6556
▁embryo	-10.6557
▁specified	-10.6557
▁Land	-10.6563
▁polymer	-10.6565
▁sink	-10.657
▁distinctive	-10.657
▁meeting	-10.6574
▁scar	-10.6574
▁complications	-10.6578
▁herb	-10.6579
pen	-10.6579
era	-10.658
▁bonus	-10.6581
▁extensive	-10.6582
▁dictionary	-10.6587
▁crystal	-10.659
▁officially	-10.6594
oo	-10.6596
▁sudden	-10.6599
▁ligaments	-10.66
cm	-10.6605
▁district	-10.6605
▁recipes	-10.661
▁reduces	-10.6618
▁2014.	-10.6618
▁duties	-10.6622
▁news	-10.6623
▁zones	-10.6633
▁Body	-10.6634
ren	-10.6636
▁gallons	-10.6644
▁Natural	-10.6644
made	-10.6646
▁sections	-10.6648
▁Power	-10.665
▁weekly	-10.6655
▁plain	-10.6657
▁85	-10.6658
▁semester	-10.666
▁Wood	-10.666
ill	-10.6661
▁yield	-10.6661
mar	-10.6663
▁mRNA	-10.6665
green	-10.6668
ag	-10.6669
▁salts	-10.6669
▁jaw	-10.6672
▁variations	-10.6674
▁marriage	-10.6676
54	-10.6677
▁standing	-10.668
▁tick	-10.6681
▁cervical	-10.6681
▁Based	-10.6687
▁Henry	-10.6687
▁Hu	-10.6687
▁cloth	-10.6689
▁officers	-10.6696
▁Table	-10.6698
▁34	-10.6698
▁intense	-10.6698
,700	-10.6702
▁crops	-10.6704
▁exceed	-10.671
▁regional	-10.6715
▁RN	-10.6726
▁neutral	-10.6736
▁teaching	-10.6737
▁cement	-10.6738
pl	-10.6739
▁fund	-10.6746
▁hypothalamus	-10.6747
▁effort	-10.6749
▁Nursing	-10.675
▁bus	-10.6762
AS	-10.6764
▁reflex	-10.6766
▁Beach	-10.6769
tr	-10.6771
▁housing	-10.6775
61	-10.6776
57	-10.6776
▁contaminated	-10.6777
▁regarding	-10.6777
▁progress	-10.6779
▁constipation	-10.678
▁flights	-10.6784
▁Noun	-10.6787
▁singer	-10.679
▁resistant	-10.6793
▁pine	-10.6796
▁policies	-10.6797
▁Ph	-10.6799
▁playing	-10.6799
▁crown	-10.6806
mal	-10.6807
ware	-10.6808
IT	-10.6811
▁inferior	-10.6815
▁browser	-10.6816
▁listing	-10.6819
▁circulatory	-10.6824
▁permit	-10.6826
▁aged	-10.6828
▁allergies	-10.683
ging	-10.683
tro	-10.6832
▁neuro	-10.6832
ST	-10.6833
ec	-10.6833
lum	-10.6836
▁fear	-10.6837
1.	-10.6839
▁stir	-10.6841
▁calls	-10.6842
▁spices	-10.6845
▁register	-10.6846
vis	-10.6847
ong	-10.685
▁regulation	-10.6851
▁Ancient	-10.6853
▁immunity	-10.6863
set	-10.6867
▁ovulation	-10.6869
▁conventional	-10.6871
▁(2)	-10.6872
▁represented	-10.6873
▁Several	-10.6874
ho	-10.6874
▁breeding	-10.6877
▁respond	-10.6879
▁PA	-10.688
▁drops	-10.688
▁interface	-10.688
94	-10.6887
▁lime	-10.6889
cus	-10.6892
▁pricing	-10.6896
▁impulses	-10.6897
▁2005	-10.6903
,200	-10.6904
▁prison	-10.6905
▁Che	-10.6908
▁Ten	-10.6909
part	-10.691
▁Fire	-10.6911
▁disk	-10.6911
▁pale	-10.6915
ES	-10.6918
▁lupus	-10.6919
air	-10.6924
▁Desert	-10.6924
71	-10.6931
AC	-10.6951
▁Gulf	-10.6953
▁practical	-10.6956
▁remodel	-10.6956
▁Lincoln	-10.6958
cro	-10.6959
▁Major	-10.6962
▁matrix	-10.6964
▁importance	-10.6964
▁Show	-10.6965
▁hybrid	-10.6973
▁discharge	-10.6975
▁passing	-10.6975
▁ˈ	-10.6984
▁earliest	-10.6986
▁mine	-10.6987
▁resource	-10.6987
▁Price	-10.6989
▁buildings	-10.6991
▁epithelial	-10.7002
01	-10.7002
▁vertebrae	-10.7008
▁tells	-10.701
▁strands	-10.7011
▁thumb	-10.7011
▁toxins	-10.7011
▁ne	-10.7013
▁sweat	-10.7013
▁traditionally	-10.7018
▁finding	-10.7022
tter	-10.7025
▁bulb	-10.7026
▁IT	-10.7027
tain	-10.7028
▁swimming	-10.7028
▁Transfer	-10.7029
▁occurred	-10.703
▁determining	-10.7031
▁teaspoon	-10.7031
▁tension	-10.7031
▁Grand	-10.704
▁centers	-10.704
ens	-10.7045
▁coating	-10.7046
AR	-10.7053
62	-10.7054
▁symbols	-10.7055
American	-10.7056
▁Hindu	-10.7058
▁Renaissance	-10.7059
▁periodic	-10.7061
▁lifestyle	-10.7062
ji	-10.7062
English	-10.7067
▁colored	-10.7067
▁varying	-10.707
▁phylum	-10.707
▁complexity	-10.7072
▁Annual	-10.7076
▁mission	-10.7079
▁situations	-10.7082
▁Wales	-10.7085
▁Press	-10.7089
▁millions	-10.7092
▁severity	-10.7093
▁vertical	-10.7097
▁ethnic	-10.7097
▁push	-10.7099
▁guidelines	-10.7099
63	-10.71
▁Follow	-10.7101
▁itching	-10.7101
▁Network	-10.7105
▁em	-10.7106
▁pollen	-10.7106
▁Real	-10.7108
TM	-10.7108
▁pa	-10.7109
▁flowering	-10.7113
born	-10.7113
▁coastal	-10.7114
▁multiply	-10.7114
▁sky	-10.7115
dis	-10.7115
▁Remember	-10.7116
ano	-10.7121
▁parallel	-10.7121
▁icon	-10.7126
▁unlike	-10.7127
▁forensic	-10.7127
▁Names	-10.7128
▁generated	-10.7129
▁recover	-10.713
sy	-10.7135
ep	-10.7135
▁Store	-10.714
02	-10.7145
▁concern	-10.7149
▁iodine	-10.715
▁temporary	-10.715
bound	-10.7154
▁Michael	-10.7156
▁tends	-10.7167
▁difficulty	-10.7168
▁Line	-10.7169
▁geographic	-10.7173
▁palm	-10.7175
long	-10.7175
▁$70	-10.7177
▁Caribbean	-10.7184
▁fashion	-10.7185
▁appeared	-10.7194
az	-10.7194
han	-10.7195
▁defense	-10.7196
▁lifetime	-10.7196
▁tenderloin	-10.7201
▁capsule	-10.7205
▁Society	-10.7207
▁continues	-10.7215
▁determines	-10.7216
▁proposed	-10.7221
▁irregular	-10.7224
▁reality	-10.7228
▁Venus	-10.7232
val	-10.7232
▁organized	-10.7233
▁banks	-10.7233
ek	-10.7233
▁tested	-10.7237
▁powers	-10.724
▁nice	-10.7249
▁commission	-10.7249
▁circumstances	-10.725
84	-10.7254
▁min	-10.7257
▁finance	-10.7259
you	-10.726
▁Location	-10.7265
▁observed	-10.7269
des	-10.727
▁manufacture	-10.7271
▁input	-10.7272
▁carbonate	-10.7278
▁colonies	-10.7278
▁2001	-10.7278
log	-10.728
▁roll	-10.728
▁sole	-10.7281
▁maintaining	-10.7282
▁2002	-10.7282
▁ch	-10.7282
▁Christian	-10.7284
▁acidic	-10.7285
▁institutions	-10.7287
82	-10.729
▁Card	-10.729
▁ID	-10.7293
▁discomfort	-10.7294
fat	-10.7295
▁educational	-10.7298
▁releases	-10.7299
gar	-10.7305
▁axon	-10.7307
ight	-10.7308
▁occupation	-10.7311
form	-10.7312
▁Force	-10.7322
tan	-10.7326
87	-10.7327
▁thoracic	-10.7327
▁fork	-10.7327
▁$21	-10.7329
ving	-10.733
▁coconut	-10.7334
▁ka	-10.7336
▁loop	-10.7336
▁benchmark	-10.734
▁bulk	-10.734
53	-10.7351
▁carrying	-10.7356
▁helping	-10.7357
▁Community	-10.7357
▁desire	-10.7358
▁wash	-10.736
▁appetite	-10.7363
▁Rose	-10.7369
▁sa	-10.7371
▁identical	-10.7373
▁42	-10.7374
▁abuse	-10.7375
gov	-10.7378
▁unable	-10.7379
▁asthma	-10.7385
▁tomatoes	-10.7385
▁experts	-10.7386
▁freedom	-10.7394
▁£	-10.7398
▁institution	-10.7398
▁pictures	-10.74
▁opposed	-10.74
ub	-10.7403
▁toilet	-10.7412
▁(10	-10.7413
▁ducts	-10.7418
3,	-10.7427
▁detail	-10.7428
▁0.5	-10.7431
▁preferred	-10.7434
▁rabbit	-10.7438
▁equator	-10.7439
▁Public	-10.7443
▁Gas	-10.7448
▁profession	-10.7448
▁lu	-10.7448
month	-10.7454
▁Jo	-10.7455
ue	-10.7456
▁spleen	-10.7457
▁alternate	-10.7457
▁vinyl	-10.7457
▁plug	-10.7458
▁lid	-10.7461
light	-10.7462
▁cuts	-10.7463
▁worse	-10.7463
▁roles	-10.7464
▁Bridge	-10.7464
▁Road	-10.7465
▁].	-10.7466
4,	-10.7469
▁artist	-10.7469
are	-10.7471
▁overnight	-10.7472
▁filed	-10.7473
▁benign	-10.7479
▁Chicken	-10.7481
▁Sha	-10.7482
▁template	-10.7487
▁directed	-10.7489
▁substitute	-10.7493
▁vaginal	-10.7493
ever	-10.7498
▁Much	-10.7498
▁deer	-10.7499
▁THE	-10.7501
▁spouse	-10.7502
▁pen	-10.7502
▁architecture	-10.751
▁bought	-10.751
▁worms	-10.7518
▁Ben	-10.7527
cc	-10.7527
▁kWh	-10.7528
▁transaction	-10.7531
▁secretion	-10.7536
aw	-10.7537
▁nearby	-10.7538
▁MD	-10.754
▁weighs	-10.7546
AT	-10.7548
▁trauma	-10.7551
lam	-10.7553
▁secure	-10.7553
▁Cu	-10.7557
▁$4,000	-10.7558
▁fibrous	-10.7559
▁houses	-10.756
ery	-10.7562
▁restaurants	-10.7563
▁po	-10.7564
▁trigger	-10.7567
▁Without	-10.7567
▁Dental	-10.757
▁parasites	-10.7572
▁Stone	-10.7572
language	-10.7574
ama	-10.7575
▁Rh	-10.7575
▁Big	-10.7578
▁pipe	-10.7584
▁task	-10.7586
▁Oil	-10.7586
▁independence	-10.7587
▁curve	-10.7588
ug	-10.759
▁fungal	-10.7591
▁patio	-10.7594
▁yards	-10.7594
▁z	-10.7595
▁allowance	-10.7602
3%	-10.7605
▁Within	-10.7606
▁noted	-10.7609
▁Temperature	-10.7612
▁5%	-10.7614
▁lists	-10.7619
ice	-10.762
▁Bachelor	-10.762
▁Different	-10.7629
▁persons	-10.7629
▁Plants	-10.7631
▁prevents	-10.7631
▁chosen	-10.7631
▁channel	-10.7632
bit	-10.7638
▁Tuition	-10.7641
▁routine	-10.7646
RE	-10.7649
pan	-10.7649
qua	-10.7651
ez	-10.7653
▁frost	-10.7654
81	-10.7655
6,	-10.766
ID	-10.7664
▁radioactive	-10.7665
▁Lyme	-10.7672
▁assist	-10.7673
▁hence	-10.7675
▁sylls	-10.7676
▁Par	-10.7679
▁Less	-10.7687
▁seal	-10.7693
▁Look	-10.7696
▁Cat	-10.7697
iv	-10.7698
▁cheap	-10.7699
▁rank	-10.7704
5°	-10.7706
▁loans	-10.7711
▁advance	-10.7711
▁efficiency	-10.7713
▁edible	-10.7713
▁$24	-10.7714
▁Rome	-10.7719
ture	-10.7721
▁Due	-10.7727
▁cloud	-10.7731
-6	-10.7731
▁140	-10.7732
▁transferred	-10.7733
▁pack	-10.7735
ax	-10.7736
▁cake	-10.7737
▁shapes	-10.7742
▁covalent	-10.7743
▁Degree	-10.7744
▁anaerobic	-10.7751
▁Cl	-10.7754
▁hypo	-10.7755
▁Art	-10.7756
▁Language	-10.7758
▁Choose	-10.7759
▁competitive	-10.7765
-12	-10.7766
▁administrative	-10.7768
,900	-10.7772
▁communities	-10.7786
▁stiffness	-10.7787
▁boost	-10.7787
▁arranged	-10.7787
OS	-10.779
▁duty	-10.7792
▁fracture	-10.7795
▁suffer	-10.78
▁aware	-10.7812
▁fifth	-10.7812
▁tasks	-10.7812
-5	-10.7812
▁sister	-10.7813
▁rod	-10.7816
▁spice	-10.7816
▁Fort	-10.7818
▁expand	-10.7823
▁trace	-10.7832
▁Welcome	-10.7835
▁opportunity	-10.7835
▁$2,500	-10.7838
▁replacing	-10.7841
▁presented	-10.7843
gy	-10.7844
▁cardiovascular	-10.7847
▁Council	-10.7853
▁stain	-10.7857
▁nucleic	-10.7859
▁meningitis	-10.7865
▁Lee	-10.7866
▁freezing	-10.7866
▁hydro	-10.787
▁altitude	-10.7872
▁Dec	-10.7875
▁$28	-10.7875
▁geographical	-10.7875
1%	-10.7877
▁nails	-10.7877
▁lifespan	-10.7878
▁musical	-10.7882
▁Word	-10.7885
▁2010,	-10.7888
▁ankle	-10.789
▁Child	-10.789
▁clearly	-10.7891
▁thermal	-10.7893
▁ordered	-10.7894
carbon	-10.7899
▁25%	-10.7899
yn	-10.7901
uri	-10.7905
▁furniture	-10.7908
▁strategy	-10.7908
▁lipid	-10.7913
▁notes	-10.7921
▁sac	-10.7923
▁lipids	-10.7924
▁absence	-10.7927
▁upload	-10.7929
▁reaching	-10.793
▁nations	-10.7933
▁relating	-10.7933
mes	-10.7933
▁beach	-10.7935
▁rear	-10.7937
▁limestone	-10.794
▁800	-10.7945
▁systemic	-10.7945
▁Located	-10.7948
dl	-10.7949
▁plaque	-10.7953
▁decreased	-10.7958
ack	-10.7958
▁j	-10.7961
lie	-10.7963
▁Corporation	-10.7964
▁Income	-10.7964
▁decisions	-10.7965
▁illnesses	-10.7966
▁relevant	-10.797
▁interaction	-10.797
inflammatory	-10.7971
▁Bacteria	-10.7974
▁allergy	-10.7976
▁corresponding	-10.7982
▁Directions	-10.7983
this	-10.7983
▁creation	-10.7983
IA	-10.7983
▁$800	-10.7986
▁Mor	-10.7992
▁cancers	-10.7996
iness	-10.7999
▁Year	-10.8002
▁crop	-10.8007
▁Short	-10.8008
lot	-10.8009
▁tobacco	-10.8014
ory	-10.8015
▁guarantee	-10.8015
▁Drug	-10.8015
▁boiled	-10.8015
▁screening	-10.8016
▁LDL	-10.8017
▁amendment	-10.802
▁partner	-10.8023
die	-10.8027
▁satellite	-10.8029
▁Financial	-10.8032
▁Mary	-10.8035
▁decided	-10.8039
▁principles	-10.804
▁skill	-10.8041
▁decades	-10.8042
cre	-10.8042
▁spirit	-10.8043
uring	-10.8045
how	-10.8055
▁circular	-10.8057
▁trachea	-10.8058
▁indicated	-10.806
illa	-10.806
▁Party	-10.8061
▁1950	-10.8069
▁irritation	-10.807
▁relation	-10.8073
▁CT	-10.8074
▁skeleton	-10.8075
▁calorie	-10.8075
▁reproduce	-10.8079
▁tape	-10.808
▁snakes	-10.8081
meter	-10.8087
▁FDA	-10.809
▁coldest	-10.809
nal	-10.8091
▁trained	-10.8093
▁oceanic	-10.8094
▁tomato	-10.8099
▁killed	-10.8099
▁Outlook	-10.8101
▁prime	-10.8105
bu	-10.8108
▁greenhouse	-10.8109
▁tin	-10.8113
fi	-10.8123
3,000	-10.8126
▁Min	-10.8126
▁composite	-10.8126
▁studied	-10.8126
52	-10.8126
▁Solar	-10.8127
▁microorganisms	-10.8128
▁carrots	-10.8129
▁aerobic	-10.8135
▁trend	-10.8138
▁secret	-10.8139
▁sitting	-10.8141
▁ride	-10.8142
ara	-10.8145
▁crab	-10.8145
▁bind	-10.8145
▁Direct	-10.8151
▁reverse	-10.8154
cing	-10.8155
▁/ˈ	-10.8163
▁laptop	-10.8164
▁shipping	-10.8165
▁USD	-10.8165
▁holes	-10.8167
▁onset	-10.8168
,000.	-10.8169
▁apartment	-10.8175
▁leather	-10.8177
▁Visit	-10.8177
ku	-10.8179
iz	-10.8179
ette	-10.818
▁indicator	-10.8183
▁2016	-10.8184
▁log	-10.8185
▁sufficient	-10.8185
▁illegal	-10.8189
▁discover	-10.8193
▁epi	-10.8196
▁creatinine	-10.8198
▁axis	-10.8201
▁skull	-10.8202
ulation	-10.8205
▁supports	-10.8206
▁effectively	-10.8207
▁Ti	-10.8214
▁printer	-10.8215
ov	-10.8216
▁Weight	-10.8216
▁transplant	-10.8218
-18	-10.8221
▁administered	-10.8221
▁airline	-10.8223
▁calendar	-10.8227
lia	-10.8228
▁express	-10.8231
▁Try	-10.8231
ological	-10.8236
▁Corn	-10.8244
▁3-4	-10.8244
▁46	-10.8247
▁www	-10.8247
▁averages	-10.8248
▁Key	-10.8251
▁invention	-10.8253
▁pole	-10.8261
4,000	-10.8262
▁acres	-10.8264
▁strains	-10.8268
▁belief	-10.8269
▁conditioning	-10.8269
▁diagnostic	-10.8272
▁squash	-10.8272
▁Physical	-10.8272
▁childhood	-10.8273
▁fix	-10.8274
▁bands	-10.8274
▁attend	-10.8275
▁pit	-10.8276
▁adjacent	-10.8278
▁bark	-10.8279
▁researchers	-10.8284
▁imaging	-10.8285
▁lactose	-10.8286
67	-10.8289
▁immediate	-10.8297
▁vent	-10.8297
ball	-10.8298
▁Sch	-10.8298
▁pension	-10.8304
▁Mix	-10.8307
van	-10.8307
▁10,000	-10.8309
▁Battle	-10.831
▁providers	-10.8313
▁vagina	-10.8314
▁$15,000	-10.8315
▁binds	-10.8315
▁Indonesia	-10.8317
▁buyer	-10.8318
▁30%	-10.832
▁Color	-10.8323
▁reflect	-10.8326
ear	-10.833
▁Skin	-10.8333
▁rating	-10.8337
▁pe	-10.8338
▁sulfate	-10.8342
▁VA	-10.8344
▁AD	-10.8346
qu	-10.8347
▁lawyer	-10.8348
▁trouble	-10.8349
cin	-10.8353
▁inventory	-10.8354
▁enhance	-10.8357
▁absolute	-10.8361
cer	-10.8362
▁referr	-10.8362
▁stronger	-10.8365
▁Singapore	-10.8368
▁Contact	-10.8368
▁asset	-10.8371
▁accept	-10.8372
most	-10.8372
▁Fish	-10.8372
▁fl	-10.8373
▁1%	-10.8374
▁Calcium	-10.8381
▁evolved	-10.8385
▁specialist	-10.8386
▁acting	-10.8386
▁adj	-10.8386
▁club	-10.839
▁recommends	-10.8393
▁shade	-10.8395
▁Indiana	-10.8395
▁petroleum	-10.84
▁proof	-10.8404
▁silicon	-10.8405
▁tablespoon	-10.8406
med	-10.8407
▁conflict	-10.8413
graph	-10.8415
▁Print	-10.8417
▁everyday	-10.8419
▁travels	-10.8421
▁comfortable	-10.8421
▁Survey	-10.8426
▁bitter	-10.8429
▁environments	-10.8431
▁continued	-10.8433
▁Har	-10.8434
ero	-10.8434
▁explains	-10.8436
-20	-10.8436
▁camera	-10.8438
▁funeral	-10.8439
▁telephone	-10.8439
▁Bra	-10.8441
▁decreases	-10.8441
▁detected	-10.8442
▁GPA	-10.8442
km	-10.8444
▁artificial	-10.8445
▁bears	-10.8446
▁aspect	-10.8448
▁graph	-10.8449
▁ra	-10.845
ock	-10.8452
▁phosphorus	-10.8452
▁discount	-10.8454
▁Cell	-10.8454
▁Du	-10.8456
AD	-10.8457
▁jump	-10.8459
▁beat	-10.846
▁rhythm	-10.8461
▁Hall	-10.8469
▁Associate	-10.8469
ima	-10.847
.”	-10.847
▁diagram	-10.8472
▁Sunday	-10.8474
▁talking	-10.8476
▁facial	-10.8478
▁tattoo	-10.8478
▁Having	-10.8479
IS	-10.8479
▁physicians	-10.8483
▁equals	-10.8485
▁felt	-10.8485
▁dough	-10.8487
▁$65	-10.8491
$1	-10.8494
▁conducted	-10.8497
▁dizziness	-10.8498
▁franchise	-10.8498
▁breaking	-10.8499
▁adds	-10.85
cut	-10.8501
▁silk	-10.8505
▁assume	-10.8508
▁trusted	-10.851
▁Bur	-10.8512
▁Pet	-10.8512
This	-10.8517
▁entered	-10.8517
rie	-10.8522
▁Why	-10.8525
▁barley	-10.8526
▁averaged	-10.8526
▁slide	-10.8528
ans	-10.8529
▁heated	-10.853
▁App	-10.8532
mic	-10.8536
har	-10.8539
▁Point	-10.8542
▁grew	-10.8545
51	-10.8545
▁brick	-10.8547
▁lymphocytes	-10.8547
▁1999	-10.8548
star	-10.8548
▁Mi	-10.855
▁Cancer	-10.8551
▁seller	-10.8551
▁anesthesia	-10.8553
▁infect	-10.8553
▁Tom	-10.8556
9.	-10.8557
▁keeps	-10.8557
▁Col	-10.8557
▁finally	-10.856
▁offices	-10.8563
▁Weather	-10.8564
▁Lord	-10.8564
OL	-10.8567
▁breakfast	-10.8577
zi	-10.8577
▁versions	-10.8578
▁sentences	-10.8582
▁god	-10.8584
▁freshwater	-10.8585
table	-10.8589
▁empty	-10.859
▁Among	-10.859
▁Mars	-10.8593
▁interview	-10.8597
▁Golden	-10.8597
▁marks	-10.8598
mat	-10.8599
▁mushrooms	-10.86
▁sector	-10.86
▁52	-10.8601
▁Cold	-10.8602
▁preventing	-10.8603
bol	-10.8604
▁epidermis	-10.8612
right	-10.8617
art	-10.8618
▁breathe	-10.8619
▁transition	-10.862
▁entering	-10.862
▁Jack	-10.8624
▁Section	-10.863
▁Poly	-10.8632
▁Jupiter	-10.8638
▁Egyptian	-10.8641
▁brief	-10.8642
▁Genetic	-10.8643
▁installing	-10.8643
▁elevated	-10.8644
▁Size	-10.8645
▁TO	-10.8645
▁adjust	-10.8647
▁$26	-10.8647
▁competition	-10.8649
▁ozone	-10.8651
▁eruption	-10.8654
▁Auto	-10.8656
▁serum	-10.8657
NA	-10.8658
tail	-10.8658
▁tight	-10.8659
OP	-10.8662
▁39	-10.8662
▁valuable	-10.8662
▁hardware	-10.8664
ev	-10.8664
▁anatomy	-10.8667
▁ob	-10.8667
ou	-10.8668
▁Such	-10.8668
▁infants	-10.8674
cur	-10.8675
▁explore	-10.8682
▁Concrete	-10.8683
▁vertebrates	-10.8684
▁gestation	-10.8684
▁instruments	-10.8689
▁diem	-10.8692
▁extracted	-10.8699
▁variables	-10.8702
▁Help	-10.8703
▁Four	-10.8704
▁Johnson	-10.8706
ute	-10.8708
▁relationships	-10.8708
▁parking	-10.8713
▁TB	-10.8716
▁regarded	-10.8717
▁tons	-10.8718
▁gut	-10.8722
▁tradition	-10.8722
▁occupational	-10.8722
ini	-10.8724
▁draw	-10.8726
▁arrive	-10.873
via	-10.8735
▁himself	-10.8736
▁lie	-10.8737
▁mu	-10.8745
▁smoking	-10.8749
▁Super	-10.8751
▁nuclei	-10.8753
▁soup	-10.8753
▁golf	-10.8757
▁principle	-10.8761
▁cramps	-10.8762
▁pelvic	-10.8763
▁reticulum	-10.8763
▁gently	-10.8763
▁accompanied	-10.8769
▁evaluate	-10.8772
▁bearing	-10.8772
SS	-10.8772
▁seek	-10.8777
rk	-10.8779
▁fitness	-10.8779
▁attach	-10.8783
▁80%	-10.8784
▁Nations	-10.8785
▁particle	-10.8803
OR	-10.8806
▁utility	-10.881
▁pitch	-10.8813
ient	-10.8813
▁hotels	-10.8817
▁ease	-10.8818
▁ulcers	-10.8821
▁massive	-10.8822
▁Doctor	-10.8822
▁diaphragm	-10.8823
▁survival	-10.8823
▁salad	-10.8824
▁Tu	-10.883
▁Soviet	-10.883
▁salivary	-10.8831
▁spin	-10.8835
▁ended	-10.8835
troph	-10.8837
▁Bible	-10.8843
▁jewelry	-10.8844
▁Arctic	-10.8844
▁carefully	-10.8844
aka	-10.8847
▁hollow	-10.885
.”.	-10.885
▁eliminate	-10.8853
ele	-10.8853
ros	-10.8859
late	-10.886
▁gravel	-10.8863
▁Mr	-10.8863
▁Hill	-10.8866
amp	-10.8868
▁Cap	-10.8868
▁psychological	-10.8877
▁simmer	-10.8877
▁planting	-10.8878
▁Church	-10.8884
1,000	-10.8884
▁Eye	-10.8885
▁peppers	-10.8885
▁teams	-10.8885
rus	-10.8896
▁Mc	-10.8899
▁Queen	-10.89
▁extraction	-10.8904
▁exclusive	-10.8904
care	-10.8906
▁cage	-10.8907
▁gasoline	-10.8911
cl	-10.8916
▁Nile	-10.8917
▁furnace	-10.8918
ram	-10.892
▁insulation	-10.8921
▁gone	-10.8923
▁vacuum	-10.8925
▁honor	-10.8932
dra	-10.8932
▁Netherlands	-10.8938
▁legislation	-10.8938
▁widespread	-10.8939
cia	-10.894
▁Typical	-10.8945
▁du	-10.8946
▁Ontario	-10.8952
▁OF	-10.8958
▁Celtic	-10.8959
ay	-10.8962
▁reasonable	-10.8967
▁infant	-10.8969
▁brake	-10.897
lands	-10.897
▁rural	-10.8973
▁alkaline	-10.8973
grade	-10.8974
▁ribosomes	-10.8975
ground	-10.898
▁communicate	-10.8986
▁machines	-10.8987
▁$55	-10.8989
▁Median	-10.8993
fo	-10.8993
▁supporting	-10.9
▁Commission	-10.9002
rr	-10.9002
▁grey	-10.9003
▁deals	-10.9008
▁Job	-10.9008
▁laser	-10.9008
eb	-10.901
04	-10.9014
▁distinguish	-10.9014
▁fishing	-10.9018
▁pronunciation	-10.9021
▁Para	-10.9021
▁tightly	-10.9021
▁rising	-10.9021
▁church	-10.9023
▁taxable	-10.9024
▁heater	-10.9024
▁MA	-10.9027
▁shoes	-10.9029
▁directions	-10.9031
▁concentrated	-10.9034
▁vaccines	-10.9037
▁isolated	-10.9038
▁Benefits	-10.9039
▁chair	-10.9044
▁duck	-10.9046
▁leafy	-10.905
▁pets	-10.9052
PS	-10.9053
▁contents	-10.9054
▁inserted	-10.9054
▁progressive	-10.9056
▁deductible	-10.9061
▁Travel	-10.9062
▁termed	-10.9063
▁platform	-10.9065
7,	-10.9066
▁Sam	-10.9066
SD	-10.9068
▁Hard	-10.9069
▁(2000	-10.9073
▁Pour	-10.9073
▁possess	-10.9075
gate	-10.9076
lt	-10.9078
▁wolf	-10.9078
▁partially	-10.9079
▁$23	-10.9082
▁seizures	-10.9084
▁performing	-10.9086
▁tub	-10.9087
CC	-10.9087
▁$29	-10.9088
▁Victoria	-10.9089
▁stays	-10.909
▁correctly	-10.909
▁Sodium	-10.909
▁ultimately	-10.9094
▁error	-10.9094
ett	-10.9096
cost	-10.9102
▁safely	-10.9103
▁wings	-10.9105
▁2003	-10.9105
▁whom	-10.9109
▁populations	-10.911
▁atrium	-10.9112
▁tiger	-10.9113
5.	-10.9114
ix	-10.9115
▁USDA	-10.9116
ff	-10.9118
▁Euro	-10.9128
▁brother	-10.9128
▁artists	-10.913
▁marijuana	-10.9131
▁recording	-10.9132
▁cognitive	-10.9134
body	-10.9145
▁USB	-10.9145
cell	-10.9151
▁league	-10.9151
ick	-10.9152
05	-10.9153
▁decline	-10.9156
▁learners	-10.9159
▁remote	-10.9159
▁hired	-10.9161
▁Royal	-10.9162
▁dream	-10.9165
▁pathway	-10.9166
▁rubber	-10.9167
2,000	-10.9168
▁poem	-10.9173
▁responsibility	-10.9173
2)	-10.9173
▁pin	-10.9175
▁street	-10.9176
▁obvious	-10.918
▁intensity	-10.9181
ori	-10.9184
▁influenced	-10.9187
ii	-10.9187
▁bacon	-10.9188
ogen	-10.9193
▁putting	-10.9194
▁NFL	-10.9195
▁messenger	-10.9199
▁diploma	-10.92
tation	-10.9201
▁residency	-10.9201
▁secrete	-10.9201
▁Master	-10.9203
▁com	-10.9205
▁considerably	-10.9209
▁initially	-10.9215
▁velocity	-10.9215
▁worn	-10.9215
ew	-10.9217
▁Martin	-10.9221
▁sheets	-10.9222
▁sulfur	-10.9223
▁floors	-10.9227
▁vaccination	-10.9229
▁Peninsula	-10.9229
▁establish	-10.9234
▁Music	-10.9235
▁pelvis	-10.9236
▁resin	-10.9238
▁III	-10.9241
▁ancestor	-10.9243
▁shelter	-10.9244
▁shelf	-10.9244
range	-10.9245
▁goat	-10.9245
CH	-10.9246
mail	-10.925
▁practitioner	-10.925
ments	-10.9252
ani	-10.9254
til	-10.926
▁internet	-10.9266
▁(8	-10.9266
▁450	-10.9271
7,000	-10.9277
white	-10.9277
▁99	-10.9283
rn	-10.9285
▁wool	-10.9286
▁outdoor	-10.9288
▁rabbits	-10.9291
ify	-10.9294
▁cycles	-10.9297
▁Ru	-10.9298
aceae	-10.93
▁Organization	-10.9307
▁planted	-10.9312
▁spiritual	-10.9313
▁44	-10.9316
▁genre	-10.9316
▁redness	-10.9317
▁strongly	-10.9317
▁bags	-10.932
▁Club	-10.9321
▁sport	-10.9322
▁tablet	-10.9322
▁camp	-10.9323
read	-10.9327
▁census	-10.9328
▁mouse	-10.9329
▁ionic	-10.9329
▁lens	-10.9334
▁Return	-10.9336
▁Shi	-10.9337
▁poison	-10.9337
▁microscopic	-10.9338
▁colony	-10.9339
▁whatever	-10.9341
▁metric	-10.9343
bel	-10.9347
▁[2	-10.9348
▁Wa	-10.935
berg	-10.9351
▁defines	-10.9356
▁Prices	-10.9357
▁Basic	-10.9358
▁sensor	-10.9359
▁abbreviation	-10.9363
▁examine	-10.9363
▁pollution	-10.9364
▁AND	-10.9366
▁#1	-10.9371
▁thread	-10.9374
IL	-10.9375
▁assessment	-10.9375
▁$27	-10.9378
▁Pat	-10.9379
▁consistent	-10.9379
lor	-10.9384
▁dedicated	-10.9385
▁stuff	-10.9388
▁representative	-10.9389
▁Despite	-10.9392
▁resident	-10.9394
oli	-10.9395
▁dam	-10.9396
▁suit	-10.9397
▁Mer	-10.9398
▁happy	-10.9399
▁false	-10.9399
▁delicious	-10.9399
▁assistance	-10.94
▁su	-10.9402
▁Normally	-10.9406
▁quantities	-10.9406
▁ownership	-10.9407
▁updated	-10.941
ography	-10.941
▁considering	-10.9414
SE	-10.9414
▁saying	-10.9417
▁Sal	-10.9419
▁Rub	-10.9421
▁Houston	-10.9421
▁shrimp	-10.9421
▁retina	-10.9426
▁cremation	-10.9428
▁;	-10.9429
▁ending	-10.943
▁lock	-10.9433
point	-10.9435
▁mucous	-10.9435
▁interact	-10.9437
ME	-10.9438
▁1920	-10.9438
▁2011.	-10.9439
▁combines	-10.9439
▁laid	-10.9444
▁pathogens	-10.9444
▁traveling	-10.9445
▁lightly	-10.9449
▁$39	-10.945
▁Christ	-10.945
▁helped	-10.9453
▁lender	-10.9456
▁edges	-10.9463
▁philosophy	-10.9464
▁parathyroid	-10.9464
.99	-10.9464
▁acne	-10.9464
▁Seattle	-10.9464
▁Executive	-10.9471
▁dinner	-10.9471
▁checks	-10.9471
yourself	-10.9474
▁articles	-10.9478
▁concentrations	-10.9478
▁bipolar	-10.9478
▁Fees	-10.9481
▁win	-10.9481
▁Ki	-10.9483
▁rotation	-10.9484
▁valves	-10.9484
▁Director	-10.9485
wing	-10.9487
▁arrangement	-10.949
▁Maryland	-10.9493
▁fatal	-10.9498
▁speakers	-10.95
▁assigned	-10.9507
▁oxidation	-10.9507
▁LLC	-10.9508
▁pie	-10.9508
6,000	-10.9508
box	-10.9513
▁arch	-10.9514
▁wonder	-10.9518
▁republic	-10.9522
lus	-10.9523
▁$125	-10.9524
▁mustard	-10.953
▁exit	-10.953
▁arc	-10.953
Ma	-10.9533
▁transform	-10.9533
▁opportunities	-10.9536
▁spinach	-10.9536
▁Dry	-10.9538
sk	-10.9543
▁cu	-10.9545
▁discuss	-10.9546
▁Cut	-10.9548
▁melting	-10.955
▁(/ˈ	-10.9551
RO	-10.9554
▁dynamic	-10.9554
▁Plus	-10.9556
▁3.5	-10.9557
▁cellulose	-10.9563
▁colorless	-10.9568
noun	-10.9569
▁psychologist	-10.9571
▁($1	-10.9572
▁iTunes	-10.9572
▁osteoarthritis	-10.9572
▁brands	-10.9573
▁doors	-10.9578
▁confirm	-10.9585
▁borders	-10.9588
▁lakes	-10.959
▁returned	-10.9594
▁arrival	-10.9594
▁ahead	-10.9594
▁125	-10.9596
▁towns	-10.9602
▁Motor	-10.9602
▁insect	-10.9602
thy	-10.9608
dor	-10.9608
▁exterior	-10.9609
ave	-10.9609
▁recognize	-10.9612
▁router	-10.9614
▁fault	-10.9615
▁passage	-10.9617
▁tiles	-10.9621
▁cal	-10.9622
▁Professional	-10.9623
▁framework	-10.9624
style	-10.9625
▁Town	-10.9627
▁gl	-10.9627
▁(7	-10.9628
nu	-10.9628
▁Change	-10.9628
▁genetically	-10.9629
▁clot	-10.9629
▁coil	-10.9634
▁delivered	-10.9636
▁1-2	-10.9637
▁bay	-10.9638
hand	-10.9643
▁germ	-10.9645
EC	-10.9649
sia	-10.9653
ious	-10.9654
▁eukaryotes	-10.9655
▁backbone	-10.9656
▁draft	-10.9657
SP	-10.9657
▁protocol	-10.966
▁classical	-10.9665
mit	-10.9667
AN	-10.967
7.	-10.9674
▁campaign	-10.9674
▁readily	-10.9675
▁Micro	-10.9676
sen	-10.9677
▁belonging	-10.9678
▁southwest	-10.969
▁Peru	-10.9692
▁estrogen	-10.9696
▁constructed	-10.9697
▁limb	-10.9699
▁CH	-10.9699
▁regulations	-10.97
▁130	-10.9702
▁oceans	-10.9703
▁foam	-10.9705
▁distinguished	-10.9707
▁glue	-10.971
▁Vietnam	-10.9711
law	-10.9714
▁metamorphic	-10.9719
▁comprises	-10.9721
▁certainly	-10.9721
▁definitely	-10.9722
▁chi	-10.9724
▁$33	-10.9725
▁Jan	-10.9726
▁Sugar	-10.9726
▁Pass	-10.9729
▁rings	-10.973
▁Sc	-10.9732
▁identification	-10.9733
▁careful	-10.9736
▁discussion	-10.9738
▁headaches	-10.9741
An	-10.9744
▁networks	-10.9744
▁syll	-10.9745
▁bonuses	-10.9754
▁update	-10.9755
▁amazing	-10.9756
▁dorsal	-10.9756
▁Monday	-10.9756
▁sexually	-10.9757
▁simplest	-10.976
▁dentist	-10.9763
▁phenomenon	-10.9763
▁defect	-10.9764
▁ver	-10.9765
▁gravity	-10.9766
▁Dallas	-10.977
▁existence	-10.9771
▁accredited	-10.9775
▁49	-10.9775
▁expansion	-10.9778
▁kilowatt	-10.9778
▁ranks	-10.9778
▁inorganic	-10.978
▁Tweet	-10.9785
ake	-10.9789
▁40%	-10.9791
▁47474	-10.9793
▁Ge	-10.9795
matic	-10.9798
bin	-10.9799
▁Modern	-10.98
▁sausage	-10.98
▁array	-10.9801
ctor	-10.9801
▁145	-10.9801
▁ceramic	-10.9808
▁chamber	-10.9811
▁convey	-10.9815
▁Bull	-10.9816
▁choices	-10.9818
▁Net	-10.9824
▁$90	-10.9824
▁proportion	-10.9831
cu	-10.9836
MP	-10.984
▁Prime	-10.9842
sign	-10.9844
▁Continental	-10.9845
▁complicated	-10.9845
▁15%	-10.9846
▁writer	-10.9847
▁delay	-10.9849
mine	-10.9852
▁$700	-10.9853
▁pharmacist	-10.9856
weight	-10.9857
▁derives	-10.9859
▁chickens	-10.9864
▁differs	-10.9865
▁basin	-10.9867
▁granted	-10.9874
▁entitled	-10.9876
▁transmit	-10.9877
▁divorce	-10.9879
▁Additional	-10.9883
▁surrounds	-10.9887
▁tried	-10.989
▁inflamed	-10.989
▁math	-10.989
ky	-10.989
EL	-10.9892
especially	-10.9896
▁Salmonella	-10.9897
▁Special	-10.9898
▁sinus	-10.9903
▁Persian	-10.9906
ides	-10.9908
▁react	-10.991
▁audit	-10.9918
▁serotonin	-10.992
▁cor	-10.992
▁pharmacy	-10.9927
▁Th	-10.9928
▁suggested	-10.9929
▁panels	-10.9929
▁dwarf	-10.993
yr	-10.9931
any	-10.9934
▁si	-10.9935
▁1998	-10.9937
▁Hospital	-10.9937
▁Za	-10.9938
▁medial	-10.9939
▁underground	-10.9939
▁election	-10.994
▁spores	-10.9943
▁Are	-10.9944
▁destroy	-10.9945
war	-10.9946
▁aim	-10.9949
▁Ce	-10.9949
▁packages	-10.9953
▁dress	-10.9953
▁claimed	-10.9959
▁Missouri	-10.9965
▁Ask	-10.9968
▁Cross	-10.9969
▁booster	-10.9972
▁Certain	-10.9973
Me	-10.9975
▁keyboard	-10.9975
atory	-10.9975
▁Ci	-10.9976
▁$34	-10.9984
tru	-10.9987
▁platelets	-10.9991
▁moral	-10.9992
▁designated	-10.9993
▁Order	-10.9997
TP	-10.9999
▁Online	-10.9999
▁poll	-11.0001
▁forced	-11.0001
bs	-11.0003
▁puppies	-11.0003
▁Minnesota	-11.0003
▁Head	-11.0006
▁Ab	-11.0006
▁Alabama	-11.0011
▁tectonic	-11.0011
▁lighter	-11.0012
▁Gram	-11.0013
▁stimulates	-11.0014
ple	-11.0015
▁truth	-11.0018
▁Fa	-11.0023
▁Excel	-11.0027
▁fructose	-11.0027
▁Main	-11.0027
▁winds	-11.0029
▁capture	-11.003
▁Java	-11.0031
▁grand	-11.0034
click	-11.0034
nce	-11.0036
▁beverages	-11.004
▁Smith	-11.0041
▁worry	-11.0041
room	-11.0043
ml	-11.0044
▁mining	-11.0045
▁pad	-11.0045
EN	-11.0045
-8	-11.0049
▁62	-11.005
▁gear	-11.0051
▁Traditional	-11.0051
▁constantly	-11.0052
▁imp	-11.0055
▁horizontal	-11.0057
▁uniform	-11.0058
▁Hotel	-11.006
▁successfully	-11.0064
▁basal	-11.0067
▁Ya	-11.0067
▁yes	-11.0069
▁achieved	-11.007
▁2010.	-11.007
▁Salt	-11.0072
▁pays	-11.008
▁drainage	-11.0081
PI	-11.0082
8,000	-11.0082
▁drawn	-11.0085
▁fibrosis	-11.0087
▁oxygenated	-11.0091
ids	-11.0094
▁applicable	-11.0094
▁Facts	-11.0097
pel	-11.0097
ste	-11.0101
▁tone	-11.0101
▁info	-11.0102
▁1997	-11.0104
▁metropolitan	-11.0105
▁el	-11.0106
▁leak	-11.0107
▁$1,200	-11.0108
▁Large	-11.011
▁Oxygen	-11.011
▁Ver	-11.0111
▁import	-11.0118
ral	-11.0123
▁experiment	-11.0124
gra	-11.0127
ses	-11.0128
▁producer	-11.013
▁bills	-11.0131
▁massage	-11.0132
▁evenly	-11.0136
▁greens	-11.0136
OT	-11.0137
▁connecting	-11.014
▁hemisphere	-11.0141
▁Protein	-11.0141
▁Hawaiian	-11.0146
▁Zone	-11.0147
▁grant	-11.0147
▁residence	-11.0148
PO	-11.0151
▁needle	-11.0153
▁Side	-11.0156
▁Registered	-11.0157
▁checking	-11.0161
▁sores	-11.0161
▁HPV	-11.0161
▁experiences	-11.0162
▁compression	-11.0162
▁latitude	-11.0164
▁perspective	-11.0164
SI	-11.0166
gu	-11.0166
TH	-11.0167
▁audio	-11.0168
▁cr	-11.0169
▁Sand	-11.0169
▁therapists	-11.0172
▁physics	-11.0174
▁64	-11.0176
▁Run	-11.0177
▁Fi	-11.0179
▁Louis	-11.0187
▁cranial	-11.0187
▁evaluation	-11.019
▁Period	-11.0191
▁Shakespeare	-11.0192
ken	-11.0193
▁operates	-11.0194
ese	-11.0197
▁Bring	-11.0197
pound	-11.0199
▁IN	-11.0203
tre	-11.0203
▁Israel	-11.0204
▁universities	-11.0206
▁danger	-11.0209
▁Norway	-11.0211
▁introduction	-11.0218
▁computers	-11.022
Pro	-11.0223
▁ordinary	-11.0226
▁southeast	-11.0226
▁geography	-11.0226
rt	-11.0227
▁varied	-11.023
▁wants	-11.0231
▁transported	-11.0232
▁episode	-11.0235
▁lip	-11.0236
▁bonded	-11.0238
▁swim	-11.0241
▁Cha	-11.0241
▁cooler	-11.0244
▁brings	-11.025
▁injured	-11.0251
▁pour	-11.0251
▁metre	-11.0256
bone	-11.0258
ming	-11.0258
▁fastest	-11.0262
▁DO	-11.0264
▁chlorophyll	-11.0264
▁tablespoons	-11.0265
▁seafood	-11.0265
▁broker	-11.0266
▁Mid	-11.0267
town	-11.0268
▁Right	-11.0269
▁arise	-11.027
▁designs	-11.0271
▁adequate	-11.0273
TV	-11.0278
RI	-11.028
▁stories	-11.028
▁fertile	-11.028
▁oak	-11.0282
▁($	-11.0283
▁Region	-11.0284
bil	-11.0286
ari	-11.0288
oe	-11.029
active	-11.0292
▁assess	-11.0294
▁insoluble	-11.0295
▁Base	-11.0295
▁Bell	-11.0295
▁quote	-11.0296
▁credits	-11.03
▁diversity	-11.0304
▁conditioner	-11.0313
▁700	-11.0315
▁manufacturers	-11.0315
▁rooms	-11.0315
▁AM	-11.0317
▁predators	-11.0319
▁deviation	-11.0319
DI	-11.032
▁hardwood	-11.0322
▁rust	-11.0324
lip	-11.0324
▁Ri	-11.0324
OH	-11.0328
▁prevention	-11.033
▁iPad	-11.0335
▁basketball	-11.0335
▁improvement	-11.0335
▁Clinical	-11.0339
▁synthesized	-11.0341
▁cereals	-11.0342
▁endoplasmic	-11.0343
▁advertising	-11.0343
▁Exchange	-11.0343
▁$32	-11.0345
▁falling	-11.0345
ign	-11.0346
ET	-11.0347
▁ho	-11.0348
▁ml	-11.035
▁twenty	-11.0351
▁Students	-11.0351
positive	-11.0351
▁shift	-11.0353
▁atmospheric	-11.0355
▁readers	-11.0356
▁repeated	-11.0356
▁despite	-11.0358
arm	-11.0363
▁flood	-11.0364
▁styles	-11.0366
▁truly	-11.0366
▁confusion	-11.0366
ocytes	-11.0367
sometimes	-11.0367
▁Andrew	-11.0367
▁Computer	-11.0371
▁Cells	-11.0372
▁Answers	-11.0372
mel	-11.0373
▁deciduous	-11.0374
▁Thumb	-11.0374
▁ginger	-11.0374
▁escape	-11.0375
▁electromagnetic	-11.0376
▁patches	-11.0378
▁journey	-11.0381
▁sits	-11.0384
▁$25,000	-11.0385
▁belly	-11.0388
▁easiest	-11.039
▁tan	-11.0393
▁enclosed	-11.0397
▁poetry	-11.0399
▁Southeast	-11.0399
▁$40,000	-11.04
▁95	-11.0403
▁Kentucky	-11.0406
▁laying	-11.0406
▁multicellular	-11.0406
▁Answered	-11.0407
▁NO	-11.0408
▁Lower	-11.0408
▁visitors	-11.0411
▁PDF	-11.0414
▁understood	-11.0414
▁Sh	-11.0414
▁NBA	-11.0415
▁shrub	-11.0419
tar	-11.0421
▁Sky	-11.0423
▁citizen	-11.0423
▁$36	-11.0424
▁$31	-11.0426
bus	-11.0426
▁showed	-11.0427
▁comfort	-11.0427
▁affordable	-11.0431
▁legumes	-11.0435
tz	-11.0441
▁legally	-11.0441
▁59	-11.0442
▁Process	-11.0443
▁voluntary	-11.0444
▁organelle	-11.0444
▁$41	-11.0446
▁fasting	-11.0448
▁Mon	-11.0448
▁tuna	-11.0448
▁alter	-11.0449
▁factory	-11.0451
▁Tra	-11.0451
▁rainforest	-11.0451
▁dye	-11.0452
lb	-11.0453
▁1996	-11.0455
▁sediment	-11.0457
▁ill	-11.0459
▁deeper	-11.0463
▁dip	-11.0465
oon	-11.0468
▁destroyed	-11.0468
▁Louisiana	-11.0469
▁subspecies	-11.0469
▁literary	-11.047
▁calculation	-11.0475
▁markets	-11.0476
▁representation	-11.0476
▁DEFINITION	-11.0477
United	-11.0478
▁judge	-11.0478
tric	-11.0482
mas	-11.0483
▁advantages	-11.0485
▁summary	-11.0485
rated	-11.0489
▁overhead	-11.0489
▁Cy	-11.0489
▁slight	-11.049
▁Nu	-11.0491
cap	-11.0491
und	-11.0493
▁focuses	-11.0506
phosphate	-11.0509
CP	-11.0511
▁medulla	-11.0512
TC	-11.0515
ties	-11.0516
▁treaty	-11.0517
▁implant	-11.0523
▁Richard	-11.0524
▁Alcohol	-11.0525
▁mirror	-11.0525
▁Familiarity	-11.0525
▁partnership	-11.0525
▁junction	-11.0526
pin	-11.0526
▁latter	-11.0526
▁helix	-11.0527
duct	-11.053
tle	-11.0531
lis	-11.0532
▁views	-11.0535
▁strip	-11.0538
sha	-11.0539
▁stability	-11.0542
▁flesh	-11.0547
▁answers	-11.0548
▁Marine	-11.0549
ians	-11.055
▁Castle	-11.055
▁reporting	-11.0552
▁Station	-11.0557
class	-11.0558
▁appointment	-11.0558
Fi	-11.0559
▁Does	-11.056
▁Norman	-11.0562
▁Delta	-11.0566
▁contractions	-11.0567
▁hat	-11.0569
▁Hot	-11.0569
ost	-11.057
▁optimal	-11.0573
▁Dog	-11.0575
og	-11.0576
▁(0	-11.0577
▁maybe	-11.0578
▁scalp	-11.0581
▁evolution	-11.0587
▁northwest	-11.059
▁Account	-11.059
▁rays	-11.0595
ches	-11.0595
▁restore	-11.0598
ire	-11.0598
ations	-11.06
▁germinate	-11.0602
500	-11.0602
osa	-11.0605
sum	-11.0611
▁gun	-11.0612
▁fetus	-11.0614
bb	-11.0616
▁mini	-11.0617
HA	-11.0617
▁horn	-11.0618
▁criteria	-11.0621
▁Ly	-11.0628
▁Thyroid	-11.0629
chy	-11.0631
gas	-11.0631
EE	-11.0633
ore	-11.0639
▁Tap	-11.0644
▁calling	-11.0645
▁Supreme	-11.0646
▁indication	-11.0646
ago	-11.065
▁Training	-11.0653
▁spasms	-11.0653
▁comprised	-11.0654
▁slice	-11.0654
▁Expect	-11.0655
▁nephron	-11.0655
elle	-11.0656
▁$350	-11.0657
▁kit	-11.0658
▁newly	-11.0658
pha	-11.0659
berry	-11.066
▁launch	-11.0664
▁fried	-11.0664
▁heads	-11.0668
▁waiting	-11.0669
▁submit	-11.0678
▁bonding	-11.068
▁Acid	-11.0681
▁ethanol	-11.0683
▁$42	-11.0685
▁Will	-11.0685
▁Experience	-11.0686
▁Jewish	-11.069
▁Gar	-11.0694
▁Connecticut	-11.0694
▁apples	-11.0694
▁Em	-11.0695
▁diamond	-11.0697
▁workout	-11.0706
▁blow	-11.0707
▁col	-11.0708
▁dividing	-11.0711
▁deduct	-11.0712
▁ulcer	-11.0712
▁trademark	-11.0714
▁climates	-11.0717
▁Simply	-11.0719
▁reliable	-11.0719
▁Kansas	-11.0719
otic	-11.0722
BA	-11.0723
char	-11.0724
▁strep	-11.0725
▁channels	-11.0725
▁Pri	-11.0726
▁influenza	-11.0726
▁Sprinkle	-11.0727
▁adjusted	-11.0727
mor	-11.0729
▁upwards	-11.0734
▁lumbar	-11.0735
▁Reserve	-11.0735
▁cultivated	-11.0736
▁dirt	-11.0737
▁Dam	-11.0743
▁omega	-11.0743
▁Design	-11.0744
▁northeast	-11.0748
▁mainland	-11.0748
▁crude	-11.0753
threatening	-11.0754
▁triple	-11.0755
▁Born	-11.0762
even	-11.0762
▁ecosystem	-11.0763
week	-11.0763
▁valley	-11.0763
▁325	-11.0764
▁43	-11.0767
▁News	-11.077
-4	-11.0771
▁decade	-11.0772
▁priced	-11.0774
▁nickname	-11.0775
▁evening	-11.0777
▁integrated	-11.078
▁alloy	-11.0782
▁destruction	-11.0784
▁Peter	-11.0788
▁arrow	-11.0789
▁shells	-11.0789
they	-11.079
▁processor	-11.079
▁launched	-11.079
-$2	-11.0791
▁campus	-11.0793
round	-11.0794
av	-11.0795
▁Mississippi	-11.0801
▁veterinary	-11.0801
▁hiring	-11.0801
▁dating	-11.0805
De	-11.0808
▁Je	-11.081
sive	-11.0822
▁Live	-11.0822
▁worm	-11.0823
chin	-11.0825
▁mythology	-11.0826
▁balanced	-11.0826
▁(9	-11.0828
▁chloroplasts	-11.0829
▁Originally	-11.0831
▁Glucose	-11.0834
▁admission	-11.0834
▁predict	-11.0835
▁stimulate	-11.0835
tur	-11.0836
▁SI	-11.0836
▁controlling	-11.0837
▁Ed	-11.0837
▁Review	-11.0839
▁checked	-11.0841
▁offspring	-11.0842
DNA	-11.0843
▁defects	-11.0848
▁topic	-11.0849
▁substrate	-11.085
▁Always	-11.085
▁pumps	-11.085
▁uncovered	-11.0853
▁arts	-11.0857
▁Apply	-11.0857
del	-11.0858
▁vegetation	-11.0858
▁implies	-11.0858
▁discovery	-11.086
▁bedroom	-11.086
▁pulp	-11.086
▁Animal	-11.0861
▁focused	-11.0862
gue	-11.0863
▁separates	-11.0864
▁delete	-11.0864
▁ab	-11.0865
▁antioxidant	-11.0872
▁preheated	-11.0872
▁berries	-11.0874
▁agricultural	-11.0875
▁Joseph	-11.0875
▁attractive	-11.0876
▁bell	-11.0877
▁grape	-11.0878
ef	-11.0878
now	-11.0881
▁husband	-11.0883
▁sight	-11.0884
▁fed	-11.0891
▁microscope	-11.0892
aries	-11.0895
▁concepts	-11.0898
▁Level	-11.09
▁equity	-11.09
▁IV	-11.0904
▁Image	-11.0907
py	-11.0908
▁approval	-11.0908
▁flavour	-11.0908
▁bringing	-11.0908
▁Reported	-11.0909
nia	-11.0911
ye	-11.0911
▁Simple	-11.0911
▁courts	-11.0911
▁Play	-11.0917
xi	-11.0917
▁accident	-11.0917
▁nearest	-11.0918
rian	-11.0922
mate	-11.0923
▁Yellow	-11.0924
▁cabbage	-11.0925
▁Comp	-11.0925
▁dimensions	-11.0926
▁lesions	-11.0929
FA	-11.0929
ika	-11.0932
ably	-11.0935
PC	-11.0935
▁IQ	-11.0937
▁Comments	-11.094
▁translates	-11.0942
▁$49	-11.0942
▁PM	-11.0948
lets	-11.0951
specific	-11.0952
▁Las	-11.0954
▁margin	-11.0956
BS	-11.0957
▁purchasing	-11.0958
ash	-11.0961
▁explanation	-11.0966
▁Express	-11.0967
▁Saint	-11.0967
▁habitats	-11.0969
yo	-11.0969
ition	-11.0974
▁acronym	-11.0983
▁End	-11.0985
lock	-11.0985
▁56	-11.0989
▁$6,000	-11.0989
▁pancreatic	-11.0991
▁crack	-11.0993
▁Uses	-11.0993
▁fragments	-11.0993
hen	-11.0993
▁printing	-11.0993
-ˈ	-11.0996
▁tickets	-11.0996
Pa	-11.0998
▁supported	-11.0998
▁constitution	-11.1
▁formerly	-11.1002
▁Grant	-11.1007
▁debris	-11.1008
els	-11.101
▁maintained	-11.1012
▁rail	-11.1013
▁distinction	-11.1013
▁newborn	-11.1015
▁SE	-11.1015
▁candidate	-11.1016
▁ur	-11.1016
▁Democratic	-11.1017
▁instant	-11.1021
▁osteo	-11.1024
▁Tennessee	-11.1025
▁mechanisms	-11.1027
ich	-11.1028
▁donor	-11.1028
▁meta	-11.1028
To	-11.1031
▁evergreen	-11.1034
atic	-11.1035
test	-11.1036
▁hen	-11.1036
rol	-11.1038
isation	-11.1041
▁assembly	-11.1042
▁intermediate	-11.1042
▁Chile	-11.1043
cat	-11.1046
▁Chief	-11.1047
▁blocked	-11.1048
▁clothes	-11.1049
▁Ty	-11.1049
▁Wisconsin	-11.105
▁Nevada	-11.105
▁marble	-11.1051
▁measurements	-11.1051
rays	-11.1053
east	-11.1057
▁Sales	-11.1058
▁Game	-11.1062
▁participate	-11.1065
ologist	-11.1065
4)	-11.1067
▁exhaust	-11.1067
▁Miami	-11.1067
▁enlarged	-11.1071
▁learned	-11.1073
▁cavities	-11.1076
scale	-11.1076
▁1995	-11.1078
ora	-11.108
▁regulates	-11.1087
▁stimulus	-11.1093
PP	-11.1097
-9	-11.1098
gram	-11.11
▁inhabit	-11.1101
▁underneath	-11.1101
▁Watch	-11.1102
▁cluster	-11.1103
dom	-11.1104
▁songs	-11.1105
▁temporal	-11.1106
▁malaria	-11.1111
▁Poland	-11.1111
▁fertilizer	-11.1111
tive	-11.1114
▁perfectly	-11.1115
▁converts	-11.1119
▁blisters	-11.112
▁Nor	-11.112
▁ju	-11.1124
tax	-11.1125
▁athletes	-11.1126
▁pizza	-11.1126
ace	-11.1127
▁retain	-11.1131
▁drawing	-11.1134
ili	-11.1134
▁HDL	-11.1134
▁Sweden	-11.1135
▁combustion	-11.1135
▁implants	-11.1136
nus	-11.1137
▁samples	-11.1137
▁continents	-11.1138
▁Personal	-11.1142
▁heartbeat	-11.1145
▁psychologists	-11.1145
▁DC	-11.1145
▁bra	-11.1146
▁Wind	-11.115
▁Flag	-11.115
▁Support	-11.1152
▁Tea	-11.1154
ching	-11.1155
▁pl	-11.116
▁judgment	-11.116
▁suffering	-11.1161
▁fa	-11.1161
▁scales	-11.1164
aria	-11.1164
▁Uber	-11.1165
▁li	-11.1169
▁cyst	-11.1177
▁ovaries	-11.1178
▁random	-11.1179
▁Video	-11.1186
▁habit	-11.1186
size	-11.1187
▁subsequent	-11.1187
▁nitrate	-11.1188
▁scheme	-11.1188
▁Va	-11.1189
▁attachment	-11.119
▁harder	-11.1191
▁displayed	-11.1192
▁accumulation	-11.1195
▁fibre	-11.1197
▁clause	-11.1197
▁Down	-11.1197
▁risks	-11.1199
▁trading	-11.1203
▁hide	-11.1204
▁grasslands	-11.1204
vin	-11.1206
▁OK	-11.1208
▁mL	-11.1211
▁broccoli	-11.1212
▁vacation	-11.1213
50,000	-11.1215
▁comment	-11.1216
▁aquatic	-11.1217
int	-11.1218
▁differently	-11.122
▁41	-11.1221
▁solvent	-11.1223
rine	-11.1224
▁nu	-11.1224
▁renewal	-11.1225
▁proven	-11.1226
amide	-11.1226
▁french	-11.1229
▁chickenpox	-11.1229
omer	-11.1231
▁£2	-11.1231
▁Technician	-11.1232
▁Being	-11.1232
▁carriers	-11.1232
▁segments	-11.1233
▁70%	-11.1235
▁chemically	-11.1237
▁vector	-11.1238
▁exclusively	-11.1238
bed	-11.1238
▁dissolve	-11.1238
▁fans	-11.1239
▁manual	-11.1241
▁beaches	-11.1244
▁teach	-11.1246
UR	-11.1248
▁Compare	-11.1248
gin	-11.125
▁configuration	-11.1255
▁incubator	-11.1255
▁lunch	-11.1255
▁aging	-11.1257
ounce	-11.1262
▁siding	-11.1265
▁van	-11.1267
ms	-11.1268
▁conjunction	-11.1272
▁itchy	-11.1274
▁Ju	-11.1274
▁metallic	-11.1275
▁declared	-11.1276
fu	-11.1279
▁adenine	-11.1279
▁spaces	-11.128
▁Atlanta	-11.128
▁Edward	-11.1281
▁Tiger	-11.1283
▁jo	-11.1287
AM	-11.1287
▁alleles	-11.1288
▁expectancy	-11.129
▁lump	-11.1291
▁heel	-11.1292
▁larynx	-11.1293
▁attract	-11.1297
▁originates	-11.1298
▁poisonous	-11.1299
▁Local	-11.1299
▁Building	-11.1302
▁patch	-11.1302
▁glycogen	-11.1307
▁Char	-11.1314
▁mon	-11.1315
▁bike	-11.1316
▁predominantly	-11.1318
▁packaging	-11.1324
eth	-11.1324
▁burns	-11.1329
GI	-11.133
▁crucial	-11.1332
▁award	-11.1333
▁antioxidants	-11.1336
▁Have	-11.1337
▁turtles	-11.134
making	-11.1341
▁3,000	-11.1343
▁$38	-11.1346
ona	-11.1351
▁Engineer	-11.1356
logy	-11.1357
▁hereditary	-11.1359
▁Garden	-11.1359
▁$53	-11.136
▁$1000	-11.136
negative	-11.1365
▁awarded	-11.1365
▁bites	-11.1366
▁aromatic	-11.1368
eri	-11.137
,250	-11.1375
▁Elizabeth	-11.1376
▁bilirubin	-11.1376
▁departure	-11.1376
ira	-11.138
▁Friday	-11.1381
▁parasite	-11.1381
▁Sign	-11.1382
▁thymine	-11.1384
▁Global	-11.1385
flow	-11.1391
rad	-11.1393
▁goddess	-11.1393
▁hurt	-11.1394
▁dysfunction	-11.1397
▁flash	-11.1398
▁ash	-11.14
▁liter	-11.1402
▁methane	-11.1403
▁wonderful	-11.1404
▁broth	-11.1404
▁triglycerides	-11.1405
▁Chronic	-11.1411
▁citrus	-11.1411
▁$44	-11.1413
ants	-11.1414
▁NY	-11.1415
rous	-11.1418
TE	-11.1419
▁duodenum	-11.1419
▁feminine	-11.1419
ld	-11.1423
▁asparagus	-11.1428
▁superficial	-11.1428
ico	-11.143
▁AC	-11.1432
▁passive	-11.1433
▁applicants	-11.1434
▁tag	-11.1435
▁reform	-11.1437
▁shed	-11.1441
▁herpes	-11.1444
▁constitutional	-11.1445
▁Thailand	-11.1446
▁wa	-11.1447
▁Download	-11.1449
▁hill	-11.1454
▁twelve	-11.1454
▁founder	-11.1458
▁damp	-11.1461
▁Silver	-11.1464
▁missing	-11.1469
▁extending	-11.1473
▁bronchi	-11.1474
▁Application	-11.1474
DR	-11.1476
▁repeat	-11.1476
cot	-11.1477
rel	-11.1477
▁videos	-11.1478
▁abbreviated	-11.1479
▁appeal	-11.148
ency	-11.1483
rid	-11.1489
▁Pakistan	-11.149
▁craft	-11.1492
vy	-11.1496
NO	-11.1496
▁pills	-11.1497
phy	-11.1497
▁neighborhood	-11.1498
load	-11.1499
▁1880	-11.15
pet	-11.1501
▁Farm	-11.1504
▁oval	-11.1505
▁wing	-11.1508
lyn	-11.151
])	-11.1515
▁RA	-11.1515
▁discussed	-11.1516
▁tro	-11.152
▁feelings	-11.1521
▁License	-11.1523
▁justice	-11.1523
▁Surgery	-11.1525
▁hydroxide	-11.1525
▁magazine	-11.1525
▁leadership	-11.1526
pos	-11.1527
ction	-11.1527
▁$37	-11.1528
▁sized	-11.1529
▁senses	-11.1531
▁renew	-11.1533
▁staple	-11.1534
-14	-11.1539
▁Lymph	-11.1542
ida	-11.1545
ok	-11.155
▁inflation	-11.1552
▁clots	-11.1552
▁Malaysia	-11.1554
▁adapted	-11.1554
dic	-11.156
por	-11.156
▁qualities	-11.156
▁Cooking	-11.1564
▁upgrade	-11.1564
▁Santa	-11.1565
▁WA	-11.1567
mato	-11.1569
run	-11.1569
responsibilities	-11.1569
▁tourist	-11.1572
▁blog	-11.1572
▁vice	-11.1573
▁Living	-11.1573
▁1,500	-11.1574
▁Young	-11.1578
▁prokaryotic	-11.1578
▁resort	-11.1579
▁Turkish	-11.1582
▁buildup	-11.1586
▁completion	-11.1587
▁enterprise	-11.1587
▁Patients	-11.1588
▁universal	-11.1589
▁Space	-11.1592
▁ba	-11.1592
▁tar	-11.1595
▁Fo	-11.1595
▁Governor	-11.1596
▁theme	-11.1597
▁hottest	-11.1597
mark	-11.1599
▁dealer	-11.1599
▁governor	-11.1599
▁cone	-11.1603
eo	-11.1604
PM	-11.1604
▁aggregate	-11.1605
nit	-11.1606
▁Brand	-11.1607
ening	-11.1608
▁meets	-11.161
▁crystalline	-11.1611
cum	-11.1611
ami	-11.1612
▁expert	-11.1614
▁emotions	-11.1616
▁consuming	-11.1617
▁Development	-11.1618
▁episodes	-11.162
▁contractors	-11.1622
▁Christmas	-11.1623
RN	-11.1623
una	-11.1623
▁Internal	-11.1627
▁trim	-11.1627
▁Site	-11.1629
▁stretching	-11.1629
▁exhibit	-11.1631
▁versus	-11.1632
often	-11.1632
▁derivative	-11.1632
▁Posted	-11.1632
▁involuntary	-11.1633
▁lobes	-11.1638
▁compact	-11.1641
▁poet	-11.1643
▁dragon	-11.1644
▁clock	-11.1645
▁Server	-11.1645
▁hypertension	-11.1647
▁jet	-11.1648
▁Academy	-11.1649
▁ammonia	-11.1649
▁shopping	-11.165
▁Whole	-11.1651
▁Wild	-11.1652
su	-11.1652
filled	-11.1653
▁concerns	-11.1654
▁heavily	-11.1658
▁supplied	-11.1658
For	-11.166
▁54	-11.1661
▁virtually	-11.1664
▁birthday	-11.1665
▁Consider	-11.1667
▁1989	-11.1669
▁Tre	-11.1671
ogenic	-11.1674
▁regulated	-11.1675
ration	-11.1676
▁raising	-11.1676
▁signature	-11.1677
▁candidates	-11.1677
onic	-11.1681
base	-11.1683
colored	-11.1685
▁Chapter	-11.1686
▁(15	-11.1688
source	-11.169
▁Ford	-11.1694
▁numbness	-11.1695
▁Austria	-11.1696
▁indoor	-11.1696
▁Van	-11.1699
▁mat	-11.1699
▁grapes	-11.17
▁alcoholic	-11.1702
ON	-11.1702
▁(16	-11.1703
▁autonomic	-11.1704
▁cylinder	-11.1708
▁graduates	-11.171
och	-11.1712
▁medicinal	-11.1712
ural	-11.1713
▁warranty	-11.1716
she	-11.1716
IM	-11.1717
▁boiler	-11.1717
▁automatic	-11.1721
▁Clean	-11.1723
▁5-	-11.1726
▁Bear	-11.1726
CT	-11.1731
▁piano	-11.1731
cra	-11.1735
▁Welsh	-11.1737
▁Iceland	-11.1737
▁grocery	-11.1739
▁thrive	-11.1739
▁Falls	-11.1744
ux	-11.1747
▁dopamine	-11.1748
▁gained	-11.1755
▁asking	-11.1756
▁Oklahoma	-11.1757
▁chlorine	-11.1758
▁mate	-11.1758
▁CEO	-11.1758
▁calf	-11.176
▁Hand	-11.1761
▁obesity	-11.1766
▁drywall	-11.1768
▁interval	-11.177
▁tray	-11.177
ls	-11.1771
▁$85	-11.1772
▁noise	-11.1774
▁practitioners	-11.1775
protein	-11.1775
▁durable	-11.1776
▁(12	-11.1776
▁deserts	-11.1777
▁FL	-11.1779
profit	-11.1782
▁ko	-11.1783
▁Insert	-11.1785
▁Leave	-11.1785
▁knife	-11.1788
▁polymers	-11.1788
▁script	-11.1788
ched	-11.1789
hole	-11.1789
▁pulled	-11.1793
▁monitoring	-11.1794
▁Far	-11.1794
▁Hyper	-11.1794
▁agreed	-11.1797
ava	-11.1798
where	-11.1799
▁mucosa	-11.18
▁ACT	-11.1809
▁owe	-11.181
rick	-11.1812
▁Unfortunately	-11.1812
▁endangered	-11.1812
▁ships	-11.1813
▁seasons	-11.1814
▁consideration	-11.1815
▁gastric	-11.1818
▁1)	-11.1818
▁Portuguese	-11.1824
▁snack	-11.1825
fla	-11.1827
▁whales	-11.1829
▁Forest	-11.1829
▁towel	-11.183
wi	-11.1831
▁prokaryotes	-11.1833
▁refrigerated	-11.1836
▁51	-11.1836
▁Technology	-11.1839
▁aortic	-11.184
▁Bro	-11.184
▁Fat	-11.1841
▁opinion	-11.1844
▁reptiles	-11.1845
MR	-11.1845
avi	-11.1847
oy	-11.1847
▁terrestrial	-11.1848
▁explained	-11.185
▁110	-11.1852
▁Gene	-11.1853
▁wearing	-11.1854
Co	-11.1858
▁Unit	-11.186
▁leaders	-11.186
▁flying	-11.1863
▁rounded	-11.1865
nar	-11.1867
af	-11.1868
▁makeup	-11.1869
uck	-11.1869
▁forearm	-11.1876
▁abnormalities	-11.1877
▁fe	-11.188
▁scene	-11.1882
▁indirect	-11.1886
▁behavioral	-11.1887
▁shield	-11.1889
▁fo	-11.1889
▁earthquake	-11.189
▁slavery	-11.1891
▁genital	-11.1892
▁hang	-11.1892
ret	-11.1894
▁Therapy	-11.1894
▁Nerve	-11.1894
▁urea	-11.1895
▁node	-11.1899
▁Model	-11.1901
▁$52	-11.1901
IR	-11.1902
▁fighting	-11.1902
▁Additionally	-11.1903
▁Puerto	-11.1903
▁Jackson	-11.1904
▁Tree	-11.1906
▁lesser	-11.1906
▁physiological	-11.1911
▁repairs	-11.1918
▁laminate	-11.1918
▁hay	-11.192
▁radius	-11.1923
▁Plate	-11.1924
▁testosterone	-11.1926
▁ph	-11.1926
▁establishment	-11.1926
gal	-11.1928
▁aside	-11.1928
wan	-11.1929
▁scope	-11.1929
lay	-11.193
▁ancestors	-11.1931
▁Structure	-11.1931
▁peninsula	-11.1931
▁tuberculosis	-11.1931
▁Field	-11.1931
▁complementary	-11.1931
▁transactions	-11.1935
▁sap	-11.1936
tte	-11.1937
▁opioid	-11.194
3)	-11.1941
acy	-11.1941
▁speeds	-11.1942
▁perception	-11.1944
rite	-11.1949
▁Catholic	-11.1949
▁dehydration	-11.1949
▁reddish	-11.1949
▁flexibility	-11.1949
▁1930	-11.195
▁bid	-11.1952
▁mixing	-11.1955
▁universe	-11.1958
ional	-11.1959
▁crisp	-11.196
▁thoroughly	-11.1962
celled	-11.1963
ising	-11.1967
ancy	-11.1967
▁requiring	-11.1968
▁$60,000	-11.1972
lee	-11.1974
▁teaspoons	-11.1976
▁civilization	-11.1977
▁Little	-11.1977
▁Species	-11.1977
▁neither	-11.1977
▁approximate	-11.1979
▁erosion	-11.1986
▁Staphylococcus	-11.1986
▁inventor	-11.1988
▁minimal	-11.1988
▁AB	-11.1988
▁Settings	-11.199
TO	-11.1994
▁stimulation	-11.1995
▁guests	-11.2
grass	-11.2001
▁incorporated	-11.2003
▁guess	-11.2005
▁Hol	-11.2006
vel	-11.2007
▁vertebral	-11.2012
▁Switzerland	-11.2014
▁Frank	-11.2016
▁beliefs	-11.2018
▁melt	-11.202
▁triangle	-11.2023
▁375	-11.2027
▁altered	-11.2031
▁tables	-11.2031
▁drama	-11.2032
▁committee	-11.2032
▁peptide	-11.2037
▁mud	-11.2038
▁gelatin	-11.2041
▁Avoid	-11.2042
▁Jesus	-11.2042
app	-11.2042
▁rainforests	-11.2044
▁cleaner	-11.2045
▁stations	-11.2046
[	-11.2052
▁bars	-11.2054
▁parasitic	-11.2055
▁lips	-11.2056
▁chances	-11.2057
▁harsh	-11.2061
date	-11.2062
▁wooden	-11.2064
▁guard	-11.2067
▁Parliament	-11.207
▁rinse	-11.207
▁Around	-11.2071
▁warts	-11.2071
▁60%	-11.2073
▁hypothyroidism	-11.2074
▁eruptions	-11.2074
▁1940	-11.2075
row	-11.2075
▁analyze	-11.2077
ulate	-11.2078
▁creatures	-11.208
▁Night	-11.2081
▁prefix	-11.2085
▁Sound	-11.2085
▁mention	-11.2088
▁parietal	-11.2088
▁squamous	-11.2088
▁Guinea	-11.2088
▁filaments	-11.2089
each	-11.209
▁Five	-11.2091
home	-11.2091
▁Legal	-11.2093
▁flowing	-11.2095
▁Cape	-11.2096
▁2009,	-11.2097
▁democracy	-11.2098
key	-11.2102
▁strict	-11.2103
▁spelled	-11.2106
▁representing	-11.2109
▁precise	-11.2109
▁Bre	-11.2113
▁climb	-11.2116
▁equally	-11.2116
▁puberty	-11.2117
▁UV	-11.2117
rant	-11.2118
▁clip	-11.212
serv	-11.2122
▁guitar	-11.2123
▁Harvard	-11.2126
▁Which	-11.2126
▁Complete	-11.2126
▁gentle	-11.2126
▁Occupational	-11.2127
▁marginal	-11.2127
1)	-11.2127
▁Eating	-11.2127
▁Anglo	-11.2129
▁Gra	-11.2131
lite	-11.2132
▁ER	-11.2132
▁den	-11.2132
▁roofing	-11.2133
RP	-11.2139
▁seats	-11.2139
NC	-11.2142
▁impossible	-11.2145
▁intelligence	-11.2145
▁Navy	-11.2145
▁sunshine	-11.2154
▁MS	-11.2157
”)	-11.2157
▁elastic	-11.216
rm	-11.2161
tone	-11.2163
▁cereal	-11.2164
▁protons	-11.2165
▁Function	-11.2168
nos	-11.217
▁Com	-11.2174
cher	-11.2177
▁prove	-11.2179
▁airlines	-11.218
▁slices	-11.2181
▁managed	-11.2182
lith	-11.2183
▁substantial	-11.2185
▁MI	-11.2192
cess	-11.2192
▁audience	-11.2192
▁veterinarian	-11.2193
▁wavelength	-11.2193
century	-11.2194
▁Representatives	-11.2195
▁undergo	-11.2195
▁Create	-11.2195
▁leukemia	-11.2201
▁susceptible	-11.2201
Di	-11.2203
▁Sir	-11.2204
▁portions	-11.2204
▁Arch	-11.2205
▁jar	-11.2206
▁Airlines	-11.221
ern	-11.2212
▁(20	-11.2213
▁programming	-11.2213
▁vegetarian	-11.2217
▁pilot	-11.2219
▁withdraw	-11.222
▁Fair	-11.222
▁rectum	-11.222
▁Denmark	-11.222
▁naming	-11.2221
than	-11.2222
▁spider	-11.2222
▁physically	-11.2222
▁Pra	-11.2222
▁cancel	-11.2223
▁counties	-11.2224
▁Six	-11.2229
▁mercury	-11.223
▁mice	-11.2233
▁cerebrum	-11.2239
▁rely	-11.224
▁army	-11.2243
▁Mal	-11.2244
▁cooker	-11.2247
▁divides	-11.2249
▁pill	-11.2249
cis	-11.2251
▁tubule	-11.2251
▁baseball	-11.2251
ivity	-11.2251
▁Used	-11.2252
▁syllables	-11.2252
▁performs	-11.2256
▁envelope	-11.2256
▁historic	-11.2258
▁macro	-11.2259
▁managing	-11.2259
teen	-11.226
▁Ku	-11.2265
▁footage	-11.2265
gle	-11.2267
▁Belgium	-11.2268
▁suffix	-11.2268
▁merge	-11.2271
▁TX	-11.2271
exe	-11.2273
▁neurological	-11.2273
▁harvest	-11.2273
▁Allow	-11.2274
lation	-11.2274
Cl	-11.2275
MD	-11.2277
▁marinade	-11.2278
▁Den	-11.2278
8°	-11.2279
▁Adult	-11.228
▁Market	-11.2285
▁maple	-11.2287
▁orders	-11.2287
▁3-	-11.2296
▁hidden	-11.2296
▁Android	-11.2297
▁shrubs	-11.2299
▁exceptions	-11.2302
anti	-11.2303
▁eczema	-11.2306
▁actress	-11.2306
▁separation	-11.2306
▁Fast	-11.2308
▁centimeters	-11.231
▁wondering	-11.2311
VA	-11.2311
arian	-11.2312
▁scratch	-11.2312
heat	-11.2321
counter	-11.2322
▁OR	-11.2322
▁relations	-11.2325
▁olfactory	-11.2325
▁Wilson	-11.2325
▁resemble	-11.2329
▁threat	-11.2331
minute	-11.2332
Mo	-11.2333
▁spreading	-11.2334
▁Schedule	-11.2335
▁Engineering	-11.2336
▁Ground	-11.2337
▁Customer	-11.2337
▁cows	-11.2338
▁Access	-11.2339
▁Ve	-11.234
▁mammal	-11.234
▁Ham	-11.2341
▁Cre	-11.2344
▁bodily	-11.2344
▁legislature	-11.2344
▁Records	-11.2344
▁butterfly	-11.2345
▁Korea	-11.2345
▁Requirements	-11.2346
▁convenient	-11.2347
▁addresses	-11.2348
cup	-11.2349
▁charging	-11.2354
NS	-11.2356
▁hunting	-11.2356
9,000	-11.2358
▁vocal	-11.2359
▁Wal	-11.236
▁averaging	-11.2363
▁desktop	-11.2363
▁washing	-11.2364
▁wildlife	-11.2365
ature	-11.2365
▁mask	-11.2365
rib	-11.2366
▁66	-11.2366
▁coral	-11.2366
▁Diet	-11.2367
SO	-11.237
▁$48	-11.2372
▁antagonist	-11.2373
▁steep	-11.2373
▁boot	-11.2379
Con	-11.238
▁Pluto	-11.2383
▁Flu	-11.2383
▁toxin	-11.2385
▁Current	-11.2385
hard	-11.2387
▁beam	-11.2388
▁restricted	-11.2392
▁Portugal	-11.2392
nate	-11.2394
▁slaves	-11.2394
mid	-11.24
▁agriculture	-11.2402
▁aneurysm	-11.2402
mos	-11.2405
▁gout	-11.2406
200	-11.2407
▁slope	-11.2408
pm	-11.2408
play	-11.2409
quality	-11.2411
000	-11.2411
▁choosing	-11.2412
▁cinnamon	-11.2412
▁measles	-11.2412
▁decorative	-11.2412
press	-11.2412
▁ran	-11.2412
▁bloom	-11.2415
▁Carbohydrates	-11.2416
▁warmer	-11.2417
▁alive	-11.2418
ila	-11.2418
▁Uranus	-11.2421
▁Polish	-11.2421
▁efforts	-11.2429
ites	-11.2429
▁Professor	-11.2431
▁tears	-11.2434
ston	-11.2436
▁grasses	-11.2439
▁Argentina	-11.2441
▁Dark	-11.2441
▁thinner	-11.2444
▁DVD	-11.2445
▁mmol	-11.2455
step	-11.2456
▁stops	-11.2459
▁cornea	-11.2459
▁coarse	-11.246
▁DE	-11.2461
▁governments	-11.2461
▁statements	-11.2462
▁pads	-11.2462
▁faith	-11.2463
▁Brain	-11.2464
▁transformation	-11.2465
▁sensitivity	-11.2469
▁plumbing	-11.247
▁Queensland	-11.247
▁consent	-11.247
▁plot	-11.2472
▁Roll	-11.2474
bro	-11.2474
ado	-11.2478
▁sells	-11.2478
▁festival	-11.2479
▁rye	-11.248
▁flavors	-11.2483
▁Ac	-11.2484
▁stains	-11.2485
▁Fee	-11.2487
▁Ecuador	-11.2489
▁sheath	-11.2489
MT	-11.249
▁inexpensive	-11.2492
▁fail	-11.2495
▁$66	-11.2497
▁rigid	-11.2498
▁Commercial	-11.2499
▁Primary	-11.2499
▁Way	-11.2505
▁Philadelphia	-11.2509
▁herbal	-11.2511
▁gums	-11.2513
ert	-11.2516
▁preserve	-11.2517
▁bpm	-11.2518
▁alveoli	-11.2518
carotene	-11.2518
▁anchor	-11.252
▁chips	-11.252
▁Tar	-11.2521
▁Parkinson	-11.2521
▁carcinoma	-11.2528
▁$56	-11.2528
din	-11.2529
oz	-11.253
▁trick	-11.2534
eh	-11.2534
PT	-11.2536
▁breasts	-11.2536
polar	-11.2537
▁fermented	-11.2537
▁debate	-11.2537
▁Abraham	-11.2538
▁adverse	-11.2538
▁plague	-11.2538
▁tire	-11.2539
▁printed	-11.254
▁pediatric	-11.2544
▁professor	-11.2546
▁Indeed	-11.2548
▁radon	-11.2548
▁Oct	-11.2549
▁1800	-11.2549
▁Fungi	-11.2549
mann	-11.255
▁entrance	-11.2557
▁schizophrenia	-11.2557
▁pronoun	-11.2558
▁feathers	-11.2558
▁protists	-11.2561
▁GA	-11.2562
▁definitions	-11.2563
▁viewed	-11.2563
▁limbs	-11.2567
▁Independence	-11.2567
▁scientist	-11.257
get	-11.2572
path	-11.2572
sil	-11.2574
▁Ser	-11.2575
▁sleeping	-11.2577
▁unicellular	-11.2577
▁Approximately	-11.2578
▁lesson	-11.2579
▁pathogen	-11.258
▁Mag	-11.2581
▁cytosine	-11.2582
▁supposed	-11.2583
▁indigenous	-11.2587
▁dropped	-11.2588
▁spiral	-11.2588
▁Angel	-11.2589
▁75%	-11.259
▁$46	-11.2593
eno	-11.2594
▁Muslim	-11.2595
▁Son	-11.2596
▁Candida	-11.2596
GA	-11.2598
▁partners	-11.2598
▁Upper	-11.2599
▁1964	-11.2599
▁mistake	-11.26
▁containers	-11.2605
▁looked	-11.261
ically	-11.2612
▁wider	-11.2615
▁vena	-11.2615
▁Magnesium	-11.2616
▁Fiber	-11.2619
ote	-11.2622
▁intra	-11.2625
▁Climate	-11.2626
▁labeled	-11.2626
Ch	-11.2628
Al	-11.2629
ule	-11.2629
▁operated	-11.2635
▁maturity	-11.2636
▁united	-11.2637
▁cuff	-11.2639
forming	-11.2641
TI	-11.2643
▁User	-11.2644
▁Sanskrit	-11.2651
front	-11.2653
vert	-11.2655
▁Spring	-11.2655
▁gu	-11.2655
▁Bu	-11.2658
▁000	-11.2662
▁ranged	-11.2663
▁friendly	-11.2663
▁malignant	-11.2664
▁genetics	-11.2665
▁banana	-11.2666
▁refined	-11.2669
▁phenotype	-11.267
▁sends	-11.2671
ult	-11.2672
▁sealed	-11.2672
▁gem	-11.2675
▁Committee	-11.2676
▁Kidney	-11.2676
▁countertops	-11.2676
▁theories	-11.2678
▁favor	-11.2678
▁packed	-11.2679
▁Reading	-11.2682
▁ru	-11.2683
▁tunnel	-11.2686
▁Safety	-11.2686
▁Following	-11.2688
▁dia	-11.2688
▁athletic	-11.2696
▁1961	-11.2697
▁noble	-11.2698
▁wealth	-11.2698
ologists	-11.2699
▁castle	-11.27
▁sour	-11.2701
LO	-11.2703
▁pea	-11.2705
▁interfere	-11.2705
book	-11.2705
containing	-11.2705
▁wisdom	-11.2705
▁Infection	-11.2706
▁Pin	-11.2706
▁Chart	-11.2708
▁1945	-11.2708
▁timing	-11.271
link	-11.2716
eus	-11.2717
▁harmless	-11.2717
▁producers	-11.272
▁guanine	-11.2725
kan	-11.2727
▁frontal	-11.2731
oph	-11.2736
▁coughing	-11.2737
pur	-11.274
▁SA	-11.2741
▁stamp	-11.2743
▁pocket	-11.2744
▁licensing	-11.2745
▁reputation	-11.2745
▁translated	-11.275
▁firms	-11.275
▁Hy	-11.275
▁magnet	-11.275
▁thighs	-11.2751
▁Fill	-11.2751
met	-11.2752
▁steroid	-11.2753
▁influences	-11.2753
▁Mercury	-11.2755
▁ni	-11.2756
▁Cro	-11.2756
▁turtle	-11.2757
▁whale	-11.2757
▁feels	-11.2757
ique	-11.2759
▁oats	-11.2761
▁dermatitis	-11.2765
▁privacy	-11.2765
▁Zo	-11.2767
▁opt	-11.2768
zu	-11.277
▁drum	-11.2772
▁ink	-11.2774
ATION	-11.2775
▁lentils	-11.2775
▁suspension	-11.2775
▁sucrose	-11.278
▁chili	-11.2781
▁Systems	-11.2784
▁challenge	-11.2786
cip	-11.2787
▁effectiveness	-11.2794
▁Male	-11.2794
▁wrapped	-11.2795
▁reader	-11.2796
iff	-11.2796
▁Tips	-11.2796
▁saucepan	-11.2797
▁constitute	-11.2797
lli	-11.2798
▁separately	-11.2799
▁Stir	-11.2799
ulated	-11.2803
RS	-11.2805
LL	-11.2805
▁automobile	-11.2806
▁12-	-11.2806
▁displays	-11.2806
▁hydrocarbon	-11.2808
▁interactions	-11.2808
▁suddenly	-11.2809
stick	-11.2811
rio	-11.2811
virus	-11.2813
▁commercially	-11.2815
▁Agriculture	-11.2816
▁Diabetes	-11.2816
▁recipient	-11.2816
▁Utah	-11.2816
▁Copper	-11.2816
▁$120	-11.2817
▁sh	-11.2819
▁posts	-11.282
▁celebrated	-11.2824
▁Connect	-11.2825
▁Roosevelt	-11.2826
▁availability	-11.2826
▁eyelid	-11.2829
ators	-11.2829
rat	-11.2831
▁saving	-11.2831
▁none	-11.2833
▁Gen	-11.2834
▁cysts	-11.2834
▁immigration	-11.2836
▁Eggs	-11.2837
PE	-11.2837
lig	-11.2838
120	-11.284
▁postage	-11.2843
▁2%	-11.2845
▁3/4	-11.2845
▁fr	-11.2846
pic	-11.2853
▁invasive	-11.2854
▁aureus	-11.2856
▁acceptance	-11.2857
▁buds	-11.2861
Noun	-11.2862
▁shoulders	-11.2864
▁delicate	-11.2866
0.00	-11.2869
▁tu	-11.2873
▁fertility	-11.2876
▁connections	-11.2877
MC	-11.288
▁originate	-11.2882
mbo	-11.2882
▁gall	-11.2882
▁Officer	-11.2883
taining	-11.2886
▁Museum	-11.2886
▁argument	-11.2886
▁strategic	-11.2886
▁Title	-11.2886
▁Arab	-11.2888
▁va	-11.2892
▁$450	-11.2893
▁spoon	-11.2897
▁settle	-11.2897
case	-11.2897
▁shops	-11.2899
▁realize	-11.29
▁chip	-11.2903
▁UN	-11.2907
▁fell	-11.2907
▁responses	-11.2908
▁Bri	-11.2908
▁passenger	-11.291
8,	-11.2913
▁diffusion	-11.2917
▁placing	-11.2917
▁Division	-11.2917
▁gametes	-11.2917
▁eagle	-11.2921
mile	-11.2922
LY	-11.2924
▁warning	-11.2926
▁Reduce	-11.2928
▁digested	-11.2928
▁Mat	-11.2929
TS	-11.293
▁Options	-11.2931
▁$51	-11.2931
▁american	-11.2933
▁pharynx	-11.2936
▁dealing	-11.2938
▁professors	-11.2938
▁Calories	-11.2939
▁surgeons	-11.294
▁pond	-11.294
▁potent	-11.2941
▁poles	-11.2946
▁reward	-11.2947
▁Continue	-11.2947
▁neural	-11.2947
▁inheritance	-11.2947
▁100,000	-11.2949
Le	-11.2949
real	-11.295
See	-11.2954
▁relax	-11.2957
▁4-	-11.2958
list	-11.2959
▁solve	-11.2965
▁Hemisphere	-11.2967
▁vanilla	-11.2968
take	-11.2968
▁clinic	-11.2971
▁bony	-11.2972
▁sc	-11.2973
▁tenant	-11.2974
▁Germanic	-11.2974
▁cava	-11.2976
▁fare	-11.2977
▁magnitude	-11.2978
▁Lewis	-11.2978
ale	-11.2981
▁soak	-11.2981
resistant	-11.2985
aki	-11.2985
tta	-11.2985
▁throw	-11.2985
▁Dollar	-11.2988
gger	-11.299
CM	-11.2991
▁Similar	-11.2991
▁ce	-11.2993
stat	-11.2994
▁Des	-11.2997
▁Republican	-11.2998
▁Think	-11.2999
▁shaft	-11.2999
▁amongst	-11.3002
ela	-11.3007
west	-11.3007
▁thymus	-11.3008
▁transverse	-11.3009
▁watts	-11.301
rist	-11.301
br	-11.3011
▁Very	-11.3011
▁”	-11.3013
▁pig	-11.3013
▁collecting	-11.3014
1.5	-11.3019
▁doubt	-11.3019
▁Love	-11.3019
▁Summer	-11.3019
put	-11.3023
▁resist	-11.3024
▁narcotic	-11.3025
▁handling	-11.3029
▁smart	-11.303
▁improved	-11.3032
▁liquids	-11.3032
▁elsewhere	-11.304
opathy	-11.3042
▁$3,500	-11.3042
▁Value	-11.3044
▁lying	-11.3045
▁bundle	-11.3045
▁PayScale	-11.3049
▁Physician	-11.3049
▁kick	-11.3053
▁bl	-11.3055
▁lice	-11.3057
▁Method	-11.3057
▁malt	-11.3057
▁attraction	-11.3058
▁rep	-11.3058
▁Cambridge	-11.306
▁(200	-11.3069
▁batteries	-11.3071
▁pat	-11.3072
cious	-11.3073
▁lamp	-11.3073
FO	-11.3074
▁Bacterial	-11.3074
▁jack	-11.3077
▁$43	-11.3078
▁Potassium	-11.308
▁fertilization	-11.308
oids	-11.3082
TR	-11.3087
gh	-11.3089
▁Epi	-11.309
▁thoughts	-11.309
▁bananas	-11.3091
▁instruction	-11.3091
▁cured	-11.3096
etic	-11.3096
▁studio	-11.3096
hal	-11.3097
▁hernia	-11.3098
▁Studies	-11.3101
▁Alexander	-11.3101
▁Agency	-11.3101
▁Starting	-11.3102
▁offense	-11.3104
▁coastline	-11.3109
▁lights	-11.311
▁Revolution	-11.3111
site	-11.3111
▁graft	-11.3112
PD	-11.3112
▁exempt	-11.3112
▁1992	-11.3114
▁elderly	-11.3114
ail	-11.3114
▁therapeutic	-11.3116
▁cystic	-11.3117
▁Supplement	-11.3117
▁Mel	-11.3117
sch	-11.3117
▁Currently	-11.3119
mia	-11.3119
▁Colombia	-11.3122
400	-11.3127
bury	-11.3129
cast	-11.313
▁polyps	-11.313
▁tower	-11.3132
▁Money	-11.3134
▁Explorer	-11.3134
▁shake	-11.3135
▁logo	-11.3135
inter	-11.3137
ved	-11.3137
▁pharmaceutical	-11.3137
▁doneness	-11.3137
RC	-11.3137
▁fillets	-11.3139
view	-11.314
lies	-11.314
▁drying	-11.3142
▁jail	-11.3143
▁assisted	-11.3153
▁Fresh	-11.3153
▁completing	-11.3153
var	-11.3155
shire	-11.3155
▁Grass	-11.3157
▁runny	-11.3158
▁Limited	-11.316
▁library	-11.3163
▁directors	-11.3164
▁fertilized	-11.3167
▁Hold	-11.3168
▁Ag	-11.3169
▁overview	-11.3171
eye	-11.3171
▁remained	-11.3173
▁pursue	-11.3174
ome	-11.3178
5,	-11.3179
▁Han	-11.3189
rose	-11.3189
word	-11.319
▁ongoing	-11.319
▁soils	-11.3192
▁pace	-11.3195
▁releasing	-11.3195
rah	-11.3197
lla	-11.32
ua	-11.32
▁resembles	-11.3201
▁kilograms	-11.3203
▁encourage	-11.3203
▁molten	-11.3205
▁deposited	-11.3206
▁rows	-11.3207
▁sequences	-11.3208
▁crest	-11.3209
▁Index	-11.321
gan	-11.3211
▁converter	-11.3212
itz	-11.3214
VI	-11.3214
▁Sydney	-11.3216
▁preparing	-11.3216
▁LPN	-11.3216
▁cruise	-11.3217
▁1994	-11.3217
▁adoption	-11.3219
DS	-11.3219
▁absorbs	-11.322
▁Article	-11.3225
▁Neptune	-11.3226
▁panic	-11.3226
▁Regular	-11.3226
▁reserved	-11.3226
▁obstruction	-11.3227
nna	-11.3228
▁knowing	-11.3229
▁proton	-11.3229
▁debut	-11.3232
ometer	-11.3235
Ex	-11.3236
▁bilayer	-11.3237
▁expanded	-11.324
▁convention	-11.3242
ode	-11.3243
▁spa	-11.3243
▁cosmetic	-11.3244
▁2008,	-11.3245
ər	-11.3247
▁prevalent	-11.3248
▁Deep	-11.3249
▁moss	-11.3252
▁seeing	-11.3252
▁publication	-11.3252
SC	-11.3254
▁mill	-11.3257
▁aggressive	-11.3258
▁biochemical	-11.3258
▁Protection	-11.3258
▁notable	-11.3261
,000,000	-11.3263
▁optical	-11.3267
▁indoors	-11.3267
bur	-11.3267
▁Jones	-11.3272
▁parks	-11.3273
▁soul	-11.3278
▁behalf	-11.3278
▁proximal	-11.3279
▁Dubai	-11.3279
-$3	-11.328
▁legend	-11.328
ym	-11.3284
▁Neuro	-11.3287
▁Philippines	-11.3289
▁medieval	-11.3289
▁flame	-11.3289
▁countertop	-11.329
▁prolonged	-11.3292
▁technically	-11.3293
unt	-11.3294
▁inspired	-11.3295
▁occurrences	-11.3296
▁movies	-11.3297
▁counseling	-11.3297
zy	-11.3303
▁thicker	-11.3304
▁Med	-11.3306
▁silica	-11.3306
▁comments	-11.3307
▁$47	-11.3308
2.5	-11.3315
▁Bone	-11.3315
▁Bond	-11.3319
hl	-11.332
▁lighting	-11.3321
▁departments	-11.3321
▁broadcast	-11.3321
hol	-11.3321
▁blade	-11.3322
▁Overall	-11.3322
▁ke	-11.3323
ged	-11.3324
ato	-11.3328
▁congenital	-11.3329
▁minus	-11.3329
▁precursor	-11.3331
▁persistent	-11.3332
▁Diseases	-11.3332
▁1993	-11.3333
▁1500	-11.3334
hin	-11.3335
▁AU	-11.3336
▁mosquito	-11.3338
direct	-11.3339
wide	-11.3343
▁Harry	-11.3344
person	-11.3345
▁missed	-11.3345
▁Jobs	-11.3346
▁defend	-11.3347
▁seasonal	-11.3351
▁originating	-11.336
▁cons	-11.336
▁Ch	-11.3361
▁somatic	-11.3363
▁errors	-11.3367
iest	-11.3367
▁facing	-11.3369
its	-11.3371
▁reveal	-11.3373
▁beverage	-11.3375
▁TSH	-11.3378
▁technologies	-11.3384
▁Multi	-11.3386
ude	-11.339
▁english	-11.3392
▁hetero	-11.3392
▁Swedish	-11.3395
▁Czech	-11.3395
▁deciliter	-11.3395
▁adverb	-11.3395
▁radiologist	-11.3396
▁reserve	-11.3396
genic	-11.3398
▁seeking	-11.34
rium	-11.3401
▁Hope	-11.3405
mple	-11.3407
nnie	-11.3411
▁hydrocarbons	-11.3414
▁SC	-11.3417
▁regulatory	-11.3417
#	-11.3418
▁starter	-11.3419
▁Animals	-11.3421
▁Sar	-11.3421
▁storm	-11.3425
▁streams	-11.3427
▁organisation	-11.3428
▁shark	-11.343
▁68	-11.3432
▁tallest	-11.3433
EA	-11.3434
▁900	-11.3434
eu	-11.3435
▁cabinets	-11.3436
CS	-11.3436
▁(17	-11.3437
▁resolution	-11.3438
▁$69	-11.3439
flu	-11.3439
stein	-11.344
▁kilogram	-11.344
mol	-11.3443
▁lasting	-11.3445
▁execution	-11.3448
▁Antarctica	-11.3452
▁crew	-11.3453
.95	-11.3454
▁asbestos	-11.3459
▁Vegas	-11.3459
▁1991	-11.3461
gel	-11.3463
ectomy	-11.3467
▁objective	-11.3469
cor	-11.3469
0.0	-11.347
▁kid	-11.3471
▁farmers	-11.3471
ban	-11.3475
▁contacts	-11.3475
▁visits	-11.3476
ces	-11.3477
▁58	-11.3479
▁humid	-11.348
▁psoriasis	-11.3481
▁Dragon	-11.3482
idine	-11.3483
▁adapt	-11.3483
▁geo	-11.3483
▁beds	-11.3483
IV	-11.3484
▁upset	-11.3485
▁Sol	-11.3485
▁driven	-11.3486
▁63	-11.3486
▁afford	-11.3489
Ar	-11.349
rim	-11.3498
▁autosomal	-11.3502
▁rec	-11.3503
story	-11.3511
nn	-11.3512
rey	-11.3513
▁max	-11.3513
▁Country	-11.3514
▁groin	-11.3516
▁adopt	-11.3517
▁continuously	-11.3519
▁converting	-11.352
▁independently	-11.352
bul	-11.3522
▁ST	-11.3522
▁promise	-11.3524
▁comparable	-11.3524
▁anus	-11.3525
▁gym	-11.3525
TER	-11.3525
proof	-11.3527
phi	-11.3531
sol	-11.3534
▁settled	-11.3536
▁ga	-11.3539
▁BMI	-11.3541
▁Along	-11.3541
▁awareness	-11.3543
▁Instructions	-11.3543
▁seasoning	-11.3546
▁intolerance	-11.3546
▁classroom	-11.3547
▁till	-11.3551
▁Beta	-11.3552
▁coated	-11.3552
▁Cooked	-11.3553
▁arrived	-11.3554
▁Eli	-11.3556
▁pathogenic	-11.3556
▁threshold	-11.3556
▁DIY	-11.3556
▁es	-11.3557
▁consistency	-11.3557
▁Grill	-11.3561
▁diffuse	-11.3561
▁appointed	-11.3561
▁selective	-11.3562
▁reviews	-11.3563
metal	-11.3563
▁symbolic	-11.3565
uria	-11.3565
-15	-11.3567
▁YouTube	-11.3567
CD	-11.3569
▁sympathetic	-11.3571
▁euro	-11.3572
▁primer	-11.3576
▁(+	-11.3577
meaning	-11.3577
▁ruled	-11.3578
▁Ken	-11.3578
▁opens	-11.3578
▁debit	-11.3581
▁Agent	-11.3582
▁sin	-11.3583
▁Mill	-11.3585
dependent	-11.3586
▁bulbs	-11.3588
▁introduce	-11.3588
▁Syndrome	-11.3589
▁feces	-11.3589
▁Background	-11.3589
hold	-11.3592
tress	-11.3594
00,000	-11.3595
▁fractures	-11.3596
▁heavier	-11.36
▁Pokemon	-11.36
▁Saturday	-11.36
▁sixth	-11.36
▁Scientists	-11.36
▁entertainment	-11.36
▁axons	-11.3601
450	-11.3607
▁identifying	-11.3609
▁lac	-11.361
▁steady	-11.3611
▁addiction	-11.3611
▁pathways	-11.3613
▁ser	-11.3613
▁holder	-11.3615
▁3)	-11.3615
▁Kan	-11.362
▁Province	-11.3621
▁empire	-11.3621
▁feedback	-11.3623
▁Has	-11.3632
▁basket	-11.3632
kh	-11.3634
▁litter	-11.3634
▁deoxyribose	-11.3635
▁emerge	-11.3636
▁antigens	-11.3639
▁Almost	-11.3644
▁Op	-11.3645
▁1981	-11.3645
▁1984	-11.3645
▁$59	-11.3645
▁designer	-11.3648
biotic	-11.3648
▁luck	-11.3649
▁quotes	-11.365
onia	-11.3652
▁dramatic	-11.3655
▁films	-11.3655
▁ruler	-11.3656
BI	-11.3657
▁ME	-11.3657
▁virtual	-11.3658
▁165	-11.3659
borne	-11.3664
▁bankruptcy	-11.3665
▁aches	-11.3667
▁rot	-11.3668
▁minority	-11.3671
▁territories	-11.3676
▁Diego	-11.3676
▁tenderness	-11.3681
say	-11.3682
▁intervention	-11.3686
▁del	-11.3688
▁$61	-11.369
▁Signs	-11.3691
▁Close	-11.3691
▁builds	-11.3692
▁jurisdiction	-11.3694
▁clotting	-11.3695
▁sciences	-11.3695
▁haven	-11.3698
▁recognition	-11.3698
▁conference	-11.3698
▁reflects	-11.3701
▁comprise	-11.3705
food	-11.3708
▁Again	-11.3708
▁Cam	-11.3709
▁supervision	-11.3709
▁blockage	-11.3713
itt	-11.3714
▁behaviors	-11.372
▁sending	-11.372
▁$35,000	-11.3721
▁Foundation	-11.3721
brown	-11.3722
▁tour	-11.3723
yan	-11.3723
NG	-11.3725
▁chambers	-11.3726
▁royal	-11.373
▁Through	-11.3731
pronounced	-11.3732
▁interests	-11.3732
vid	-11.3735
nch	-11.3736
▁thereby	-11.3736
▁PO	-11.3737
▁liters	-11.3737
MB	-11.3737
▁$900	-11.3738
▁tie	-11.3738
▁fu	-11.3741
▁demonstrate	-11.3741
▁fissure	-11.3742
▁intellectual	-11.3742
▁integral	-11.3742
▁generator	-11.3742
ied	-11.3743
sus	-11.3743
▁NA	-11.3744
▁acceptable	-11.3745
▁temple	-11.3746
▁Bob	-11.3746
▁sacs	-11.3747
▁attending	-11.3752
▁fortified	-11.3752
▁Ur	-11.3753
▁bush	-11.3753
▁Secretary	-11.3753
▁loin	-11.3754
group	-11.3754
pri	-11.3755
▁Scandinavian	-11.3758
▁darker	-11.3758
▁specify	-11.376
▁Scott	-11.376
▁controller	-11.3761
MI	-11.3761
▁celery	-11.3764
▁reflux	-11.3764
▁urination	-11.3764
▁committed	-11.3765
▁designation	-11.3767
▁5,000	-11.3769
▁Dar	-11.3773
▁SAT	-11.3773
▁strips	-11.3776
EM	-11.3776
▁tendency	-11.3776
iti	-11.3779
▁Ven	-11.3783
▁wouldn	-11.3783
▁Score	-11.3783
▁killing	-11.3783
▁constituent	-11.3784
▁bred	-11.3785
▁paralysis	-11.3786
ception	-11.3787
▁weighing	-11.3788
Latin	-11.3788
▁burned	-11.3788
cept	-11.3789
▁lion	-11.3791
Be	-11.3791
▁communications	-11.3795
▁Media	-11.3796
DE	-11.3797
▁interpretation	-11.38
▁deaths	-11.3802
uh	-11.3806
▁confirmed	-11.3808
core	-11.3808
▁pipes	-11.3808
▁Fr	-11.3809
eat	-11.3811
sky	-11.3812
If	-11.3816
▁30-	-11.3817
pod	-11.3819
▁Iraq	-11.382
▁feldspar	-11.382
▁consult	-11.382
▁activation	-11.382
▁roads	-11.3824
▁manifest	-11.3825
▁val	-11.3825
itch	-11.3826
▁guaranteed	-11.3828
▁Tuesday	-11.3831
▁felony	-11.3831
mers	-11.3831
▁Split	-11.3831
▁subtract	-11.3831
▁pla	-11.3833
▁revealed	-11.3834
▁tech	-11.3835
▁$8,000	-11.3837
Po	-11.3838
▁ribosome	-11.3839
▁ranch	-11.3839
▁buried	-11.3842
▁Career	-11.3843
▁canned	-11.3843
▁fusion	-11.3843
▁coach	-11.3844
▁specialists	-11.3847
▁puts	-11.3849
▁Dia	-11.3849
▁Nutrition	-11.3852
▁placenta	-11.3853
lant	-11.3855
▁53	-11.3857
▁authorized	-11.3857
▁worst	-11.3864
▁Swiss	-11.3865
▁homeowner	-11.3868
▁Pen	-11.3869
▁arises	-11.3874
▁Mono	-11.3874
▁chapter	-11.3875
▁victory	-11.3875
▁transparent	-11.3875
CE	-11.3876
▁topical	-11.3876
▁prescribe	-11.3876
used	-11.3877
▁fibro	-11.3878
vol	-11.3878
▁fi	-11.3885
mu	-11.3886
▁killer	-11.3886
lob	-11.3886
▁chopped	-11.3887
bri	-11.3888
under	-11.3889
▁protecting	-11.389
▁nut	-11.3895
▁backup	-11.3897
file	-11.3897
▁answered	-11.3899
▁tribe	-11.39
sie	-11.3902
▁Adam	-11.3906
▁ventricles	-11.3906
▁trap	-11.3907
▁yolk	-11.3908
▁abilities	-11.3909
▁watt	-11.391
▁edition	-11.3913
▁subunits	-11.3913
UN	-11.3914
tom	-11.3915
oF	-11.3918
▁Indians	-11.3919
▁pools	-11.3919
▁behaviour	-11.392
▁financing	-11.392
▁Diamond	-11.392
▁odd	-11.3921
▁sl	-11.3923
ination	-11.3925
▁Hydro	-11.3927
▁clutch	-11.3931
hy	-11.3931
▁twin	-11.3932
service	-11.3933
▁Tip	-11.3934
▁roasted	-11.3934
▁presentation	-11.3937
▁bordered	-11.3937
phone	-11.3938
▁bugs	-11.3941
▁significance	-11.3943
▁acquisition	-11.3943
▁Gate	-11.3943
▁untreated	-11.3943
▁swallowing	-11.3943
▁scheduled	-11.3952
▁Fer	-11.3952
▁78	-11.3953
▁Pur	-11.3954
▁wasn	-11.3954
▁Obama	-11.3954
▁Trade	-11.3954
vascular	-11.3956
▁dual	-11.3958
▁Finally	-11.3958
▁Im	-11.3963
▁Vancouver	-11.3965
▁Versailles	-11.3965
imp	-11.3974
-30	-11.3974
▁Taking	-11.3977
▁Granite	-11.3978
▁Cast	-11.3978
Li	-11.3979
▁Costa	-11.3981
▁crushed	-11.3984
pers	-11.3984
▁happened	-11.3989
▁alphabet	-11.399
▁suspended	-11.3991
▁invertebrates	-11.3992
▁Joint	-11.3992
▁float	-11.3992
je	-11.3992
▁Mad	-11.3998
▁Twitter	-11.3999
▁angina	-11.4
▁tribes	-11.4
▁pupil	-11.4003
▁representatives	-11.4006
just	-11.4007
▁sprinkle	-11.4013
▁Ban	-11.4013
iasis	-11.4013
dimensional	-11.4015
▁grades	-11.4015
▁athlete	-11.4017
▁stiff	-11.4021
▁frequencies	-11.4022
▁stimuli	-11.4022
▁lawyers	-11.4024
▁Path	-11.4026
▁failed	-11.4027
▁gains	-11.4028
▁10-	-11.4029
▁ribose	-11.4031
▁Immigration	-11.4033
▁embedded	-11.4033
▁improving	-11.4033
▁Iowa	-11.4033
▁Who	-11.4034
▁Ray	-11.4034
▁Bal	-11.4035
▁47	-11.4035
pocket	-11.4035
▁rated	-11.4035
▁cave	-11.4041
▁mom	-11.4042
▁stove	-11.4044
▁cortisol	-11.4044
▁invasion	-11.4044
You	-11.4045
▁Single	-11.4045
▁fuse	-11.4046
▁cabinet	-11.4047
▁exercises	-11.4048
▁amp	-11.4048
▁goats	-11.405
▁investors	-11.405
▁appraisal	-11.4056
VE	-11.4056
▁albumin	-11.4057
last	-11.4062
▁digit	-11.4063
▁masses	-11.4063
▁hop	-11.4063
▁fibres	-11.4064
▁warming	-11.4065
leg	-11.4065
ache	-11.4065
▁totally	-11.4066
▁migraine	-11.4067
EX	-11.4069
▁slang	-11.4069
▁nitrogenous	-11.407
▁Pure	-11.4071
▁fossils	-11.4073
▁fascia	-11.4075
ect	-11.4076
▁accommodation	-11.4079
▁cushion	-11.408
▁rat	-11.4081
▁everywhere	-11.4082
-11	-11.4084
▁passengers	-11.4086
▁sandwich	-11.4086
▁beets	-11.4086
▁Bas	-11.4087
▁activated	-11.4087
▁updates	-11.4088
▁slip	-11.4089
Do	-11.4089
▁shut	-11.4093
▁Hair	-11.4094
ssa	-11.4096
▁Raw	-11.4097
▁angles	-11.4097
▁150436	-11.4101
▁Sweet	-11.4101
▁experiencing	-11.4101
▁sclerosis	-11.4101
▁unwanted	-11.4101
▁considerable	-11.4102
▁Movement	-11.4103
▁distal	-11.4104
▁Temperatures	-11.4104
▁LA	-11.4105
▁menopause	-11.4106
▁Carl	-11.4107
num	-11.4107
cephal	-11.4109
▁export	-11.411
▁comprising	-11.4113
▁drift	-11.4113
▁hunt	-11.4115
▁quiet	-11.4117
▁Vol	-11.412
▁Pu	-11.412
▁Streptococcus	-11.4125
▁spark	-11.4125
▁pigments	-11.4127
▁1/3	-11.4128
pal	-11.4128
▁apparent	-11.4129
bert	-11.4135
▁hurricane	-11.4136
▁Insulin	-11.4136
▁appliances	-11.414
ook	-11.414
Bo	-11.4141
gus	-11.4145
▁complement	-11.4146
▁sessions	-11.4148
▁Bengal	-11.4148
▁syn	-11.4148
▁sha	-11.4148
▁Tim	-11.4149
str	-11.4153
▁conductor	-11.4153
vers	-11.4154
▁Quick	-11.4157
▁possibility	-11.4159
▁indeed	-11.4161
▁spreads	-11.4164
▁0.1	-11.4165
▁gate	-11.4166
▁Thursday	-11.417
▁investigation	-11.417
▁remedy	-11.417
ei	-11.4171
▁Made	-11.4171
▁enrollment	-11.4171
▁EU	-11.4172
DA	-11.4174
ogenesis	-11.4175
bell	-11.4181
▁Jay	-11.4181
▁renewable	-11.4182
▁concentrate	-11.4182
▁acquire	-11.4182
▁Giant	-11.4183
ille	-11.4189
▁aspirin	-11.419
▁coined	-11.4194
▁forth	-11.4199
▁Seven	-11.42
▁marketed	-11.4201
▁Electrical	-11.4205
▁gauge	-11.4205
▁aids	-11.4205
▁$200,000	-11.4207
▁compiled	-11.4207
▁adhesive	-11.4209
▁bow	-11.4211
▁hook	-11.4211
bling	-11.4215
-$50	-11.4216
▁miss	-11.4216
bre	-11.4217
▁instructor	-11.4218
cca	-11.4218
▁hu	-11.4219
▁traditions	-11.4219
PR	-11.4221
▁filtration	-11.4221
▁harvested	-11.4222
▁kittens	-11.4224
▁painted	-11.4227
▁tingling	-11.4228
▁surprise	-11.4229
hood	-11.4229
▁developmental	-11.423
▁outlet	-11.4231
ister	-11.4232
▁hy	-11.4234
▁intervals	-11.4235
▁surround	-11.4235
▁$57	-11.4235
▁wastes	-11.4237
living	-11.4237
▁Alzheimer	-11.424
UD	-11.424
▁reactive	-11.4241
▁slower	-11.4242
220	-11.4245
▁possession	-11.4247
▁2007,	-11.425
tine	-11.4251
nc	-11.4251
▁Aboriginal	-11.4251
▁glycolysis	-11.4251
▁kernel	-11.4251
▁nickel	-11.4251
▁inhabitants	-11.4251
▁degenerative	-11.4252
burg	-11.4253
Figure	-11.4255
▁pseudo	-11.4256
arch	-11.4263
▁matters	-11.4264
nium	-11.4265
▁lactic	-11.4266
▁Minimum	-11.4274
▁Speed	-11.4274
▁Tour	-11.428
▁strike	-11.428
osphere	-11.4281
▁Rain	-11.4285
▁Alpha	-11.4287
▁labels	-11.4288
▁subjects	-11.4291
▁Block	-11.4292
▁q	-11.4294
▁broiler	-11.4296
stock	-11.4296
▁agonist	-11.4297
▁Policy	-11.4298
▁lettuce	-11.4298
▁nautical	-11.4298
▁reservoir	-11.4298
▁admitted	-11.4298
▁Drain	-11.43
▁gran	-11.4302
▁parsley	-11.431
▁bend	-11.4316
▁sprain	-11.4318
ense	-11.4318
lio	-11.432
Lo	-11.4323
bid	-11.4323
▁(3)	-11.4323
▁bat	-11.4324
▁Trust	-11.4324
place	-11.4327
glu	-11.4328
▁lenses	-11.4328
▁couples	-11.4329
▁Custom	-11.433
▁violent	-11.433
mod	-11.4331
▁bran	-11.4331
▁Stra	-11.4332
▁entities	-11.4333
trans	-11.4335
▁folk	-11.4336
▁VI	-11.4336
▁operator	-11.434
▁clouds	-11.4343
▁versatile	-11.4345
▁Doctors	-11.4345
▁germination	-11.4345
▁locate	-11.4345
▁1983	-11.4347
▁ban	-11.4347
▁1919	-11.4348
nee	-11.4351
Br	-11.4353
▁Late	-11.4353
hydr	-11.4354
▁stretches	-11.4355
Ro	-11.4355
▁tied	-11.4355
▁Effects	-11.4355
▁Reference	-11.4357
ame	-11.4357
CI	-11.4358
▁rolling	-11.4358
▁Win	-11.436
▁charts	-11.436
▁erupt	-11.4364
▁conception	-11.4364
ifer	-11.4365
▁crowd	-11.4365
cas	-11.4365
▁Gran	-11.4365
NP	-11.4366
Ca	-11.4366
▁bump	-11.4367
▁misdemeanor	-11.4368
▁extracellular	-11.4369
▁Basically	-11.4369
▁char	-11.4369
▁colonial	-11.4369
▁tetra	-11.4371
▁flags	-11.4372
▁67	-11.4374
▁Gri	-11.4375
▁Members	-11.4385
sub	-11.4386
self	-11.4391
▁osteoporosis	-11.4391
▁unpleasant	-11.4391
▁forecast	-11.4392
▁restrictions	-11.4392
▁smoked	-11.4393
▁thanks	-11.4397
La	-11.4399
▁shouldn	-11.4399
▁habits	-11.44
▁Popular	-11.4402
▁Century	-11.4403
▁miscarriage	-11.4403
,750	-11.4404
▁fulfill	-11.4404
▁citizenship	-11.4404
▁candy	-11.4404
▁variants	-11.4411
ough	-11.4411
▁$67	-11.4413
▁sweating	-11.4418
▁SO	-11.442
toxic	-11.442
▁Bon	-11.4422
▁worsen	-11.4426
▁mal	-11.4429
▁Parts	-11.4436
▁Revenue	-11.4439
ison	-11.4439
II	-11.444
▁1974	-11.4441
▁weekend	-11.4442
sc	-11.4443
▁sticky	-11.4446
dent	-11.4447
▁Organic	-11.4448
▁wiki	-11.4448
▁Golgi	-11.445
▁talent	-11.4451
▁landlord	-11.4451
▁Talk	-11.4451
▁pur	-11.4452
▁Eat	-11.4453
▁forget	-11.4454
▁qualifications	-11.4455
▁shots	-11.4457
▁Rocky	-11.4457
▁AA	-11.4459
▁diabetic	-11.446
worth	-11.4461
▁jelly	-11.4462
▁methyl	-11.4466
piece	-11.4467
▁Known	-11.4468
▁singular	-11.4469
nan	-11.447
▁Fever	-11.4471
▁Orlando	-11.4474
▁bamboo	-11.4474
▁strategies	-11.4474
▁struggle	-11.4474
▁Ash	-11.4475
▁evolutionary	-11.4475
wer	-11.4475
▁Years	-11.4476
wall	-11.4478
gent	-11.4481
▁Que	-11.4482
▁lined	-11.4485
lift	-11.4486
▁foliage	-11.4486
▁uranium	-11.4486
▁essay	-11.4486
▁Walt	-11.4487
▁sickness	-11.4489
tting	-11.4491
▁Dogs	-11.4494
Mi	-11.4496
▁Inflammation	-11.4498
▁merchant	-11.4498
▁Jefferson	-11.4498
▁hens	-11.4499
▁1986	-11.45
▁wounds	-11.4505
uma	-11.4506
▁Advanced	-11.4506
▁esp	-11.4507
▁yarn	-11.451
holder	-11.451
▁dispute	-11.4511
ree	-11.4511
rag	-11.4511
▁resolve	-11.4512
▁discipline	-11.4512
▁studying	-11.4515
▁220	-11.4515
▁heritage	-11.4522
▁friction	-11.4522
thal	-11.4525
▁PT	-11.4529
▁attaches	-11.4529
▁Ky	-11.4535
▁2009.	-11.4538
▁weathering	-11.4539
▁clusters	-11.4543
▁savanna	-11.4544
▁pest	-11.4544
▁Leg	-11.4545
blast	-11.4545
▁Acute	-11.4546
▁southeastern	-11.4546
nation	-11.4547
▁Beef	-11.4548
▁increasingly	-11.4549
▁Aid	-11.455
▁Iran	-11.4552
▁phones	-11.4552
▁cilia	-11.4557
▁guidance	-11.4558
▁legislative	-11.4558
▁Canyon	-11.4558
▁delta	-11.4559
▁AS	-11.4559
▁visceral	-11.456
▁Sw	-11.456
▁Milk	-11.4561
▁approaches	-11.4562
-7	-11.4563
▁Environmental	-11.4566
▁$54	-11.4567
cular	-11.4569
▁Capital	-11.457
▁equi	-11.457
▁1900	-11.4571
▁CF	-11.4574
▁Ste	-11.4575
▁disrupt	-11.4576
▁Palm	-11.4578
▁enroll	-11.4579
▁Anne	-11.4581
pon	-11.4581
▁Toronto	-11.4582
▁strengthen	-11.4582
▁payroll	-11.4584
▁penis	-11.4586
▁pertussis	-11.4586
▁Height	-11.4587
cil	-11.4588
▁prone	-11.4588
▁Date	-11.4589
▁AT	-11.459
nk	-11.4592
chu	-11.4593
▁Document	-11.4594
▁ovary	-11.4594
▁bri	-11.4595
▁retention	-11.4595
▁Pork	-11.4596
▁featured	-11.4597
▁inhibitors	-11.4599
▁blocking	-11.4599
▁Ber	-11.4599
▁Understanding	-11.46
UP	-11.4604
▁impulse	-11.4605
▁globe	-11.4606
▁diets	-11.4606
▁dramatically	-11.4606
▁visiting	-11.4608
▁uric	-11.4608
▁prompt	-11.4608
▁NP	-11.461
aro	-11.4612
▁plum	-11.4612
▁Record	-11.4612
▁ter	-11.4614
▁Northwest	-11.4615
▁Panel	-11.4615
▁edit	-11.4617
▁Lin	-11.4617
▁Birth	-11.4617
▁Famous	-11.4618
▁resume	-11.4618
▁capsules	-11.4622
plural	-11.4624
lf	-11.4625
▁Ages	-11.4625
ben	-11.4628
▁Skeletal	-11.463
▁swell	-11.4631
yne	-11.4631
▁stopped	-11.4632
▁1971	-11.4632
▁tolerance	-11.4635
second	-11.4635
▁Thanks	-11.4635
average	-11.4636
effective	-11.4636
▁Adding	-11.4636
EP	-11.4636
ND	-11.4637
ime	-11.4641
▁planned	-11.4645
ENT	-11.4647
▁generations	-11.4648
▁Urine	-11.4649
duc	-11.4649
▁sprouts	-11.4649
▁Others	-11.465
▁suck	-11.465
▁dr	-11.4651
▁identifies	-11.4654
▁consistently	-11.4654
▁troops	-11.4654
▁fought	-11.4654
izer	-11.4655
only	-11.4661
▁striated	-11.4662
▁Tor	-11.4663
▁ticks	-11.4663
▁inhibit	-11.4665
▁Daily	-11.4666
▁germs	-11.4666
▁losing	-11.4667
night	-11.4667
chemical	-11.4667
sel	-11.4667
weed	-11.467
normal	-11.4672
▁Band	-11.4675
TT	-11.4675
▁Camp	-11.4676
▁consequences	-11.4678
▁Therapist	-11.4678
▁Police	-11.4678
▁$12,000	-11.4678
▁loved	-11.4681
▁hub	-11.4681
▁deductions	-11.4681
position	-11.4681
▁Maria	-11.4682
tia	-11.4682
▁clearance	-11.4682
▁modest	-11.4684
▁drill	-11.4685
▁spasm	-11.4688
▁Jr	-11.4689
▁eBay	-11.469
▁rabies	-11.469
▁brisket	-11.469
nel	-11.4693
burn	-11.4697
▁bracket	-11.4702
▁detection	-11.4708
▁Contract	-11.471
▁hills	-11.471
▁Channel	-11.471
CR	-11.4711
gri	-11.4712
▁apparatus	-11.4714
▁sunflower	-11.4715
▁dressing	-11.472
▁skip	-11.472
▁alloys	-11.4722
rare	-11.4725
▁$750	-11.4726
▁Mass	-11.4727
▁descent	-11.4727
▁reside	-11.4729
two	-11.4731
oke	-11.4731
elo	-11.4738
▁homeostasis	-11.4739
▁describing	-11.4739
band	-11.4744
▁recommendations	-11.4744
▁reacts	-11.4744
▁instances	-11.4747
▁Boil	-11.4747
media	-11.4747
rot	-11.4748
▁daycare	-11.4749
▁beneficiary	-11.4751
▁carotid	-11.4751
▁convenience	-11.4751
▁dermis	-11.4751
▁caught	-11.4751
▁des	-11.4753
▁upward	-11.4754
▁Dead	-11.4756
▁loosely	-11.4757
stead	-11.476
▁secretes	-11.476
▁cla	-11.476
300	-11.4761
▁crawl	-11.4763
▁alligator	-11.4763
▁turmeric	-11.4763
▁storing	-11.4763
▁promotion	-11.4763
▁flies	-11.4769
▁Driver	-11.4774
▁cousin	-11.4776
▁soybeans	-11.4778
▁ducks	-11.4781
▁engines	-11.4781
▁setup	-11.4782
▁collectively	-11.4782
▁brine	-11.4784
▁taught	-11.4788
▁Cup	-11.4789
▁mileage	-11.4791
▁dialog	-11.4793
▁Sim	-11.4794
MO	-11.4798
▁banking	-11.4798
third	-11.4799
tum	-11.4799
▁Product	-11.4799
▁Fox	-11.4799
▁bicarbonate	-11.48
▁biceps	-11.48
He	-11.4801
▁wines	-11.4802
▁$110	-11.4804
▁Provide	-11.4804
▁95%	-11.4806
anna	-11.4807
▁thickest	-11.4808
▁suspect	-11.481
tim	-11.4811
▁Compensation	-11.4812
▁$95	-11.4816
▁discrimination	-11.4816
▁reset	-11.4819
▁Jane	-11.482
▁Oak	-11.4821
▁Val	-11.4822
▁Ethiopia	-11.4824
▁fin	-11.4826
▁pus	-11.4827
▁peanut	-11.4828
new	-11.4828
We	-11.4828
▁melted	-11.4831
▁watery	-11.4834
▁Ann	-11.4834
▁Convention	-11.4836
oni	-11.4837
▁airways	-11.4837
▁saved	-11.484
▁personnel	-11.4841
oil	-11.4843
▁elect	-11.4844
▁Indo	-11.4847
▁overweight	-11.4849
▁chemotherapy	-11.4849
▁paired	-11.4851
▁170	-11.4854
▁flip	-11.4855
▁spec	-11.4855
throp	-11.4856
▁bomb	-11.4861
▁compliance	-11.4861
▁diminutive	-11.4861
▁submitted	-11.4863
BO	-11.4864
▁Know	-11.4865
dol	-11.4868
▁Floor	-11.4871
▁accuracy	-11.4874
▁detergent	-11.4874
▁glaze	-11.4874
▁Franklin	-11.4874
▁Southwest	-11.4876
▁fry	-11.4879
▁Prior	-11.4879
▁Alberta	-11.4883
▁regard	-11.4884
▁buyers	-11.4884
▁encounter	-11.4885
▁acetylcholine	-11.4886
▁burial	-11.4886
▁browned	-11.4891
▁zoo	-11.4891
▁posted	-11.4896
▁trailer	-11.4897
▁Yet	-11.4897
▁solids	-11.4898
▁alkali	-11.4898
▁emphasis	-11.4898
▁Maine	-11.4899
▁voting	-11.4899
▁fireplace	-11.4899
▁fetal	-11.49
trophic	-11.4901
▁Stock	-11.4911
▁Arkansas	-11.4911
▁cervix	-11.4911
▁Square	-11.4911
▁combining	-11.4911
▁monoxide	-11.4911
methyl	-11.4914
▁Metal	-11.4915
▁cataract	-11.4923
▁timber	-11.4923
800	-11.4925
▁presidential	-11.4925
▁biopsy	-11.4926
▁Orange	-11.4927
▁Winter	-11.4927
/)	-11.493
▁Kar	-11.4933
▁colder	-11.4934
▁SP	-11.4934
▁actin	-11.4935
▁constellation	-11.4936
▁Times	-11.4937
▁deadly	-11.4939
▁brass	-11.4941
grain	-11.4944
▁jam	-11.4944
▁pros	-11.4945
▁MO	-11.4945
▁Team	-11.4948
ali	-11.4949
▁1965	-11.4952
▁layout	-11.4954
▁buffer	-11.4957
Ba	-11.4959
▁Nuclear	-11.4961
▁arterial	-11.4961
▁carb	-11.4964
▁Phone	-11.4965
une	-11.4967
▁5'	-11.4972
▁brittle	-11.4973
▁equilibrium	-11.4978
▁Production	-11.4978
▁shoot	-11.4978
hoe	-11.4979
ré	-11.498
dale	-11.4981
version	-11.4982
pr	-11.4984
▁UTI	-11.4985
▁maps	-11.4985
▁tundra	-11.4986
▁ultraviolet	-11.4986
▁Cool	-11.4987
▁CPA	-11.4989
▁Private	-11.4989
▁workplace	-11.4991
edge	-11.4991
▁partly	-11.4992
▁Amsterdam	-11.4998
▁Employment	-11.4998
▁abnormally	-11.5
▁1982	-11.5
▁accessible	-11.5
▁larvae	-11.5001
▁Kay	-11.5004
uro	-11.5009
▁mast	-11.5009
half	-11.5009
▁Marketing	-11.501
inated	-11.501
dam	-11.501
▁Fall	-11.501
▁luxury	-11.5011
▁Rhode	-11.5011
▁compost	-11.5011
▁EX	-11.5013
▁3%	-11.5014
▁stimulant	-11.5015
▁Ring	-11.5015
6°	-11.5016
▁tigers	-11.5019
ement	-11.502
▁neuropathy	-11.5023
▁Conference	-11.5023
▁populated	-11.5023
lav	-11.5027
▁exemption	-11.5029
.00.	-11.5033
▁Vice	-11.5035
▁ratified	-11.5036
▁Submit	-11.5038
▁drip	-11.504
▁queen	-11.504
▁gardens	-11.5042
▁farming	-11.5043
▁slave	-11.5044
▁whenever	-11.5045
▁extinct	-11.5045
▁soups	-11.5046
▁spiders	-11.5046
▁freely	-11.5048
▁lipoprotein	-11.5048
▁spicy	-11.5048
▁burst	-11.505
▁Tower	-11.5053
ML	-11.5054
ind	-11.5057
▁additive	-11.5057
▁HD	-11.5058
▁crossing	-11.5059
cet	-11.5065
▁1.2	-11.5065
▁Construction	-11.5068
▁IS	-11.5072
rit	-11.5073
ines	-11.5074
▁Centre	-11.5078
▁ultimate	-11.5079
▁maintains	-11.5081
▁comp	-11.5082
▁platelet	-11.5083
▁dna	-11.5084
0.5	-11.5086
▁Entry	-11.5086
▁evil	-11.5088
▁hives	-11.5092
600	-11.5094
▁assumed	-11.5095
▁induce	-11.5098
shi	-11.5098
▁Declaration	-11.5099
far	-11.5099
▁Tell	-11.5104
▁mutual	-11.5104
▁weed	-11.5105
▁Ice	-11.5106
▁officials	-11.5107
▁monkeys	-11.5111
▁Venezuela	-11.5111
▁ram	-11.5112
oxy	-11.5112
▁Justice	-11.5112
▁ZIP	-11.5113
▁dining	-11.5114
▁gar	-11.512
▁Sports	-11.512
▁stools	-11.5121
tens	-11.5122
▁Commonwealth	-11.5124
▁bleach	-11.5124
SH	-11.5127
degree	-11.5128
▁credited	-11.5129
SL	-11.5129
worms	-11.5129
tip	-11.5131
rom	-11.5132
▁magic	-11.5132
▁Fu	-11.5134
▁ants	-11.5134
▁catalyst	-11.5137
▁doctorate	-11.5138
▁connector	-11.514
▁limitations	-11.5145
▁powered	-11.5146
FC	-11.5146
▁tune	-11.5147
▁hardy	-11.5148
▁CostHelper	-11.5149
▁resonance	-11.5149
▁uterine	-11.5149
▁gradient	-11.5149
pot	-11.515
▁Wash	-11.5152
▁alarm	-11.5152
▁3-5	-11.5152
ibility	-11.5153
▁Person	-11.5154
ured	-11.5155
▁occupied	-11.5158
▁$68	-11.5158
▁calm	-11.5161
▁finishing	-11.5162
▁Death	-11.5162
▁(30	-11.5164
▁specialize	-11.5165
▁chiefly	-11.5169
▁135	-11.5172
▁bottles	-11.5174
▁phrases	-11.5174
▁summit	-11.5175
bal	-11.5176
▁operational	-11.5178
rew	-11.5181
▁deed	-11.5181
sey	-11.5181
lk	-11.5183
▁wipe	-11.5184
▁Qua	-11.5186
▁coins	-11.5187
▁Creek	-11.5188
▁triphosphate	-11.5188
vil	-11.519
▁Highway	-11.5192
▁elementary	-11.5194
code	-11.5198
▁abundance	-11.52
▁creative	-11.52
color	-11.5201
rh	-11.5203
▁Term	-11.5206
▁packaged	-11.5207
▁alongside	-11.5208
▁inherit	-11.5211
▁Wednesday	-11.5213
▁corrosion	-11.5213
▁eligibility	-11.5213
▁Starch	-11.5216
▁orbital	-11.5218
▁Fund	-11.5219
▁collective	-11.5221
▁pyramid	-11.5223
▁mole	-11.5223
▁haploid	-11.5226
▁verify	-11.5226
▁differentiate	-11.5228
▁solely	-11.5229
▁True	-11.523
eon	-11.5233
▁Radio	-11.5236
aging	-11.5236
▁adenosine	-11.5239
▁statistical	-11.524
▁deposition	-11.5242
▁sliced	-11.5243
▁alert	-11.5243
▁tetanus	-11.5244
▁Ze	-11.5245
▁thaw	-11.5246
▁(13	-11.5246
▁microbes	-11.5247
col	-11.5248
▁winning	-11.525
▁Biblical	-11.5251
▁Together	-11.5251
▁Hemoglobin	-11.5252
▁Room	-11.5253
cen	-11.5255
▁Million	-11.5259
▁Egg	-11.5259
▁provinces	-11.526
▁blind	-11.5262
tha	-11.5263
▁Drive	-11.5263
wn	-11.5263
▁Max	-11.5265
▁1963	-11.5266
▁prop	-11.5268
▁tastes	-11.5275
▁Tile	-11.5277
▁welcome	-11.5277
▁74	-11.5281
product	-11.5283
Sa	-11.5286
▁Sep	-11.5286
EST	-11.5286
▁sponge	-11.5289
▁defining	-11.529
ike	-11.5293
▁gods	-11.5294
▁knees	-11.5295
▁ridge	-11.5297
Na	-11.5298
▁stump	-11.5303
▁afternoon	-11.5303
dex	-11.5303
▁sphere	-11.5305
lau	-11.5307
▁efficiently	-11.5308
ject	-11.5312
▁Eu	-11.5313
▁Student	-11.5315
▁chimney	-11.5316
▁pose	-11.5317
▁Liver	-11.5318
▁Tan	-11.5321
▁Similarly	-11.5325
▁drag	-11.5327
▁invest	-11.5328
▁contemporary	-11.5329
▁minimize	-11.5329
▁anatomical	-11.5329
although	-11.5329
▁rupture	-11.5331
▁categorized	-11.5332
utter	-11.5332
meth	-11.5333
▁gather	-11.5336
inus	-11.534
▁creature	-11.5341
▁Heritage	-11.5342
▁Pharmacy	-11.5342
▁morphine	-11.5342
▁Series	-11.5344
▁implement	-11.5345
▁earthquakes	-11.5347
▁dryer	-11.5348
aba	-11.5349
▁pear	-11.535
▁1.0	-11.5351
▁Cuba	-11.5353
▁contributed	-11.5354
▁Kennedy	-11.5355
▁mitral	-11.5355
▁incorporate	-11.5355
▁rocky	-11.5355
▁enforcement	-11.5355
lit	-11.5356
▁longitude	-11.5357
%)	-11.5357
▁listen	-11.5358
▁oversee	-11.5358
face	-11.5359
▁Rs	-11.5359
▁Bru	-11.5362
ski	-11.5362
▁noticed	-11.5365
▁appearing	-11.5366
▁injected	-11.5366
▁Kit	-11.5368
▁ventral	-11.5368
▁distant	-11.5368
▁gemstone	-11.5368
▁Nepal	-11.5368
▁unemployment	-11.5368
▁wake	-11.5369
owned	-11.537
pir	-11.5371
▁$64	-11.5372
fr	-11.5372
mission	-11.5372
▁Wolf	-11.5372
▁BCE	-11.5375
stranded	-11.5378
dal	-11.5379
▁Humans	-11.538
▁laxative	-11.538
▁Guatemala	-11.538
▁supplier	-11.5381
▁incurred	-11.5381
▁interpret	-11.5383
▁Sahara	-11.5383
▁theatre	-11.5384
LD	-11.5384
▁unlikely	-11.5384
▁Kids	-11.5384
▁Kenya	-11.5385
gie	-11.539
claim	-11.5393
▁Medicaid	-11.5393
▁accessories	-11.5393
▁defrost	-11.5393
▁dialysis	-11.5394
▁Passport	-11.5394
▁Female	-11.5394
▁Hal	-11.5396
▁Pop	-11.5397
▁permanently	-11.5397
ender	-11.5398
▁Email	-11.54
▁22,	-11.5401
pine	-11.5402
▁bees	-11.5403
lateral	-11.5403
▁rotate	-11.5405
therapy	-11.5406
▁Characteristics	-11.5407
▁accent	-11.5407
▁plains	-11.5408
▁knows	-11.5409
▁shore	-11.5411
▁flush	-11.5412
▁creamy	-11.5414
seed	-11.5416
7.5	-11.5418
▁optimum	-11.542
▁dietitian	-11.542
▁expiration	-11.542
▁1969	-11.5422
▁shoe	-11.5423
▁$63	-11.5426
▁pile	-11.5432
▁eu	-11.5433
▁Until	-11.5433
▁Bad	-11.5434
▁barrel	-11.5435
▁Log	-11.5436
▁knot	-11.5436
▁Rad	-11.5437
ound	-11.5438
▁boards	-11.5446
▁genotype	-11.5446
▁iPod	-11.5446
▁rhyme	-11.5446
▁Off	-11.5447
▁impression	-11.5448
▁sync	-11.5451
▁20,000	-11.5453
mis	-11.5453
after	-11.5453
ATE	-11.5456
system	-11.5456
▁pyr	-11.5456
▁Norse	-11.5461
▁donation	-11.5461
yer	-11.5463
▁Estate	-11.5464
CK	-11.5471
▁aquarium	-11.5472
▁Economic	-11.5472
▁systematic	-11.5473
▁commitment	-11.5473
gene	-11.5474
▁jury	-11.5474
▁gutters	-11.5474
ensis	-11.5475
▁Joe	-11.548
DD	-11.548
▁31,	-11.5481
aya	-11.5485
▁cur	-11.5486
▁pointed	-11.549
▁toxicity	-11.5491
▁Still	-11.5492
▁Need	-11.5494
▁che	-11.5496
lly	-11.5498
▁ventilation	-11.5498
▁freight	-11.5498
▁Surname	-11.5498
▁Feed	-11.5499
▁labour	-11.5499
ifying	-11.5499
▁lap	-11.55
mil	-11.55
▁Soul	-11.5506
being	-11.5506
▁Er	-11.5508
▁formally	-11.5509
▁Sri	-11.5511
▁museum	-11.5511
▁Quebec	-11.5511
▁ethics	-11.5511
▁localized	-11.5512
ander	-11.5514
▁Clinic	-11.5514
▁sunny	-11.5515
▁aroma	-11.5515
▁programme	-11.5515
▁facilitate	-11.5516
▁outstanding	-11.5517
ən	-11.5518
▁pores	-11.5519
ati	-11.5524
▁Pregnancy	-11.5524
▁companion	-11.5524
wikipedia	-11.5527
▁hardness	-11.5529
tile	-11.5529
▁qualifying	-11.553
New	-11.5532
rust	-11.5532
cel	-11.5532
▁Song	-11.5532
▁Products	-11.5535
▁Hence	-11.5536
-16	-11.5536
▁matches	-11.5537
▁regulating	-11.5538
▁wiring	-11.5538
▁Question	-11.5541
▁ranking	-11.5541
▁construct	-11.5542
▁PhD	-11.5543
▁mitochondrial	-11.5545
▁advise	-11.5547
▁simpler	-11.5547
got	-11.5548
▁iris	-11.555
cate	-11.555
largest	-11.555
NET	-11.5551
▁dementia	-11.5551
▁zebra	-11.5551
▁pineapple	-11.5551
▁polypeptide	-11.5551
▁highway	-11.5552
▁Meat	-11.5552
mount	-11.5553
▁Buy	-11.5554
▁Tropical	-11.5554
▁bug	-11.5555
▁mosquitoes	-11.5556
▁findings	-11.556
▁damages	-11.5562
▁emissions	-11.5563
ption	-11.5564
BT	-11.5565
▁Spread	-11.5565
▁Sur	-11.557
▁wires	-11.5573
▁noodles	-11.5575
▁continuing	-11.5577
▁glomerulus	-11.5577
▁vertigo	-11.5577
corn	-11.5578
▁fold	-11.5584
MENT	-11.5584
▁NC	-11.559
▁imagine	-11.5591
lex	-11.5591
count	-11.5593
cid	-11.5593
gua	-11.5597
▁Nov	-11.5602
▁disappear	-11.5603
▁Cardiac	-11.5604
▁decimal	-11.5604
▁Daniel	-11.5604
NF	-11.5605
▁stirring	-11.5605
▁slate	-11.5609
▁br	-11.5611
▁Ram	-11.5611
sec	-11.5611
▁alteration	-11.5613
ogram	-11.5614
▁Ana	-11.5614
▁Boy	-11.5615
HR	-11.5615
▁professionally	-11.5616
▁Madagascar	-11.5617
▁gamma	-11.5618
IG	-11.5619
▁synthesize	-11.5619
▁statute	-11.5622
▁occurrence	-11.5622
nor	-11.5623
▁hind	-11.5624
▁dig	-11.5627
rock	-11.5629
cooked	-11.563
▁arrest	-11.563
2-	-11.5631
▁chord	-11.5631
▁plaster	-11.5631
▁signing	-11.5632
▁boneless	-11.5633
cies	-11.5634
▁240	-11.5634
HC	-11.5638
▁Visa	-11.5639
ocytosis	-11.564
stro	-11.5641
▁taller	-11.5642
▁Practice	-11.5644
▁Protocol	-11.5644
▁26,	-11.5645
▁$58	-11.5646
▁neutrons	-11.5649
▁peer	-11.5651
▁peanuts	-11.5654
▁rats	-11.5657
▁credential	-11.5657
▁autism	-11.5657
▁capita	-11.5658
UM	-11.5659
▁permission	-11.566
▁pic	-11.5661
▁clan	-11.5661
▁journal	-11.5662
▁sing	-11.5662
▁4.5	-11.5662
ington	-11.5664
order	-11.5664
lick	-11.5667
▁Bel	-11.5667
boiled	-11.567
mouth	-11.567
▁cones	-11.567
▁Spirit	-11.5671
▁glaucoma	-11.5671
▁manganese	-11.5671
▁Panama	-11.5671
olin	-11.5672
▁celebrate	-11.5673
▁Jose	-11.5675
▁coin	-11.5676
▁Given	-11.5676
▁counted	-11.5676
craft	-11.5681
▁digits	-11.5682
▁Active	-11.5683
RM	-11.5684
▁unsaturated	-11.5684
▁stabilize	-11.5687
▁4-6	-11.569
dro	-11.5693
aq	-11.5694
▁$62	-11.5694
uda	-11.5695
▁electrician	-11.5695
▁exceeds	-11.5695
paying	-11.5697
▁Certificate	-11.5697
▁symmetry	-11.5697
▁folate	-11.5698
▁Geography	-11.5698
▁chop	-11.5699
▁vine	-11.5699
▁combat	-11.57
▁daytime	-11.5702
OD	-11.5702
▁attractions	-11.5703
▁Author	-11.5704
▁impaired	-11.5705
▁bypass	-11.5705
▁directory	-11.5706
▁Pole	-11.5707
▁architect	-11.5707
other	-11.5709
▁Mini	-11.571
▁primitive	-11.5711
▁Besides	-11.5711
▁Photosynthesis	-11.5711
▁websites	-11.5712
when	-11.5713
▁cosmetics	-11.5715
▁analyst	-11.5717
▁outdoors	-11.5724
▁Difference	-11.5724
zz	-11.5725
gio	-11.5725
▁reflected	-11.5727
LI	-11.573
▁compress	-11.573
▁boxes	-11.5735
▁attempts	-11.5735
0%	-11.5735
▁calculating	-11.5738
▁phenomena	-11.5738
▁Senior	-11.5738
cycle	-11.5738
▁Pad	-11.5739
▁Sil	-11.5739
▁angel	-11.5739
▁Popularity	-11.5739
▁losses	-11.574
▁Nearly	-11.5745
▁clinics	-11.5745
▁Calculate	-11.5749
AY	-11.575
▁97	-11.575
▁Jordan	-11.5751
▁congestion	-11.5751
▁headquarters	-11.5751
▁Divide	-11.5751
▁borrower	-11.5751
▁hydrolysis	-11.5751
▁Lean	-11.5751
▁assignment	-11.5756
▁mushroom	-11.5758
FT	-11.5759
▁gastro	-11.5764
▁abstract	-11.5765
een	-11.5765
▁sal	-11.5767
▁guy	-11.5768
150	-11.5769
▁antenna	-11.5769
▁radial	-11.577
▁SIM	-11.577
▁teens	-11.577
▁insomnia	-11.5772
▁upright	-11.5774
▁clicking	-11.5776
▁Too	-11.5777
duction	-11.5778
▁Toyota	-11.5778
▁murder	-11.5778
▁infrared	-11.5778
▁Resort	-11.5779
▁$99	-11.5779
CL	-11.5779
▁chewing	-11.578
▁ester	-11.5781
stra	-11.5782
▁Dun	-11.5782
▁accomplish	-11.5784
▁keys	-11.5785
▁insured	-11.5786
metry	-11.5787
ito	-11.5791
▁subsidiary	-11.5792
▁Denver	-11.5792
▁Variant	-11.5799
human	-11.5799
▁Thank	-11.58
▁guest	-11.58
▁Tools	-11.58
sse	-11.5802
▁receiver	-11.5804
graphic	-11.5804
▁topics	-11.5804
▁divisions	-11.5805
▁salads	-11.5805
▁piercing	-11.5805
▁lichen	-11.5805
▁deoxygenated	-11.5806
▁pumpkin	-11.5806
▁absolutely	-11.5807
uli	-11.5807
LP	-11.5811
▁flakes	-11.5812
UL	-11.5812
▁Pyramid	-11.5819
▁remedies	-11.5819
▁kangaroo	-11.5819
▁aqueous	-11.5819
▁dump	-11.5819
▁contributes	-11.582
▁Staff	-11.582
▁RO	-11.5821
▁14,	-11.5822
ech	-11.5822
mont	-11.5825
▁prohibit	-11.5828
▁shirt	-11.5829
▁4,000	-11.5832
▁Tokyo	-11.5832
▁absent	-11.5832
▁Hindi	-11.5833
▁rotator	-11.5833
▁pm	-11.5834
▁collapse	-11.5835
OW	-11.5837
ules	-11.5838
▁willing	-11.5839
▁machinery	-11.584
▁filtered	-11.5841
▁Ob	-11.5843
▁hero	-11.5844
▁OS	-11.5845
▁filters	-11.5847
▁glasses	-11.5851
▁merely	-11.5851
rri	-11.5854
▁follicle	-11.5854
▁Lar	-11.5855
▁Horse	-11.5857
▁expertise	-11.586
▁searching	-11.5861
▁injections	-11.5862
▁Root	-11.5862
▁enrolled	-11.5862
▁snap	-11.5864
omb	-11.5865
▁heartburn	-11.5865
FI	-11.5865
▁dialect	-11.5868
▁Measure	-11.5869
▁Serve	-11.5869
lium	-11.5869
▁Ball	-11.587
▁sharks	-11.587
▁sticks	-11.5871
▁emerged	-11.5873
ifier	-11.5875
▁1988	-11.5876
▁narrowing	-11.5877
▁1985	-11.5877
▁Pap	-11.588
udi	-11.588
▁basil	-11.5881
▁360	-11.5882
▁subunit	-11.5883
▁soldiers	-11.5885
ering	-11.5885
▁Agreement	-11.5887
▁bloating	-11.5887
▁securities	-11.5887
▁Loan	-11.5888
wash	-11.5888
ui	-11.5888
▁Dietary	-11.5888
▁69	-11.589
▁Schools	-11.5893
▁lymphoma	-11.5893
ened	-11.5895
▁cools	-11.5897
▁ve	-11.5897
▁shades	-11.59
▁juvenile	-11.5901
▁nicotine	-11.5901
▁Finland	-11.5901
▁paragraph	-11.5901
▁wheels	-11.5902
▁Actually	-11.5903
▁consultation	-11.5904
▁counting	-11.5906
▁combinations	-11.5909
▁eyelids	-11.5911
▁smoker	-11.5911
▁classify	-11.5912
▁hemispheres	-11.5913
▁Rheumatoid	-11.5914
▁Software	-11.5914
▁Minister	-11.5916
▁$76	-11.5916
▁Nick	-11.5916
▁approx	-11.5917
▁Never	-11.592
▁historically	-11.5924
▁marker	-11.5925
▁joining	-11.5925
xa	-11.5926
▁invade	-11.5927
▁Fla	-11.5928
▁rev	-11.5928
▁mandatory	-11.5928
▁poverty	-11.5928
▁clerk	-11.5928
▁semiconductor	-11.5928
▁mitosis	-11.5928
▁diesel	-11.5929
▁Del	-11.593
▁tsp	-11.5931
▁helium	-11.5932
▁posture	-11.5932
ution	-11.594
▁sustain	-11.594
▁cerebellum	-11.5942
▁elaborate	-11.5942
▁violation	-11.5942
▁ladder	-11.5942
vit	-11.5942
▁dew	-11.5944
▁ri	-11.5947
lle	-11.5949
dar	-11.595
▁documentation	-11.5952
▁shrink	-11.5956
▁organize	-11.5956
▁stuck	-11.5956
▁Honey	-11.5956
▁1975	-11.596
▁bass	-11.5961
▁attributed	-11.5961
▁pr	-11.5962
ean	-11.5963
▁distances	-11.5966
▁IRAs	-11.597
▁meiosis	-11.597
▁engage	-11.597
▁1968	-11.5972
▁Paint	-11.5973
▁relatives	-11.5974
▁follicles	-11.5975
▁quoted	-11.5975
▁physiology	-11.5976
▁Essential	-11.5976
action	-11.5976
▁norm	-11.5979
▁polio	-11.5982
▁imbalance	-11.5985
▁dys	-11.5992
▁NE	-11.5992
▁flora	-11.5995
▁fits	-11.5995
▁charcoal	-11.5997
▁liquor	-11.5997
▁shellfish	-11.5999
▁hosts	-11.6005
▁lucky	-11.6006
chan	-11.6007
ril	-11.6009
gni	-11.601
▁Study	-11.6011
▁Database	-11.6011
▁watching	-11.6012
eria	-11.6016
▁rush	-11.6021
vic	-11.6023
▁PSA	-11.6024
▁Arthritis	-11.6025
▁mathematics	-11.6025
▁violence	-11.6025
▁theoretical	-11.6025
▁hydrochloride	-11.6025
▁petition	-11.6026
▁impairment	-11.6026
ups	-11.6027
▁households	-11.6027
▁livestock	-11.6027
▁shortening	-11.6028
▁rug	-11.603
▁resulted	-11.6031
▁Gall	-11.6033
▁Arm	-11.6034
odo	-11.6037
▁stalk	-11.6037
▁cactus	-11.6038
▁Collagen	-11.6039
phon	-11.6039
▁tubular	-11.6039
calorie	-11.604
▁Mt	-11.604
▁insertion	-11.6041
▁(11	-11.6043
▁informal	-11.6044
▁57	-11.6046
▁wi	-11.6046
▁exp	-11.6046
away	-11.6046
▁Electric	-11.6047
▁existed	-11.6048
kill	-11.605
▁coordinates	-11.6052
▁conclusion	-11.6052
▁protozoa	-11.6052
density	-11.6054
▁Williams	-11.6056
▁varicella	-11.6059
▁cod	-11.6061
▁scent	-11.6062
▁taxed	-11.6064
▁Quartz	-11.6066
▁Oxford	-11.6066
▁motorcycle	-11.6067
▁sacred	-11.6067
▁pyramids	-11.6069
▁reign	-11.6071
▁$7,000	-11.6072
▁notably	-11.6073
▁san	-11.6076
▁stimulating	-11.6077
ido	-11.6078
rod	-11.6079
dine	-11.608
▁Journal	-11.608
▁Library	-11.6081
▁saint	-11.6081
html	-11.6081
fen	-11.6083
▁1987	-11.6083
▁skilled	-11.6084
▁Near	-11.6085
▁Oral	-11.6086
▁wolves	-11.6086
▁secretions	-11.6087
▁Steel	-11.6089
aj	-11.6089
▁Reg	-11.609
▁grid	-11.6092
▁liner	-11.6092
dle	-11.6092
▁enormous	-11.6094
▁resembling	-11.6094
▁corpuscle	-11.6094
▁dec	-11.6096
▁Branch	-11.6099
▁tails	-11.6101
▁wise	-11.6105
producing	-11.6107
▁Kra	-11.6107
▁casual	-11.6108
▁deficit	-11.6108
enter	-11.6109
kWh	-11.611
pu	-11.6113
▁Electronic	-11.6113
▁bumps	-11.6117
▁silicate	-11.6117
▁preserved	-11.6117
▁attributes	-11.6117
▁grease	-11.6117
▁Working	-11.6121
rse	-11.6122
▁Confederate	-11.6122
▁Double	-11.6122
▁opaque	-11.6122
▁socket	-11.6122
▁slender	-11.6122
▁mumps	-11.6122
720	-11.6124
ras	-11.6125
▁customs	-11.6126
▁promotes	-11.6127
AA	-11.6128
▁funding	-11.6128
▁obtaining	-11.6129
▁electronics	-11.613
▁Screen	-11.6136
wiki	-11.6139
▁Organ	-11.614
▁weighted	-11.6141
!!	-11.6144
▁Dan	-11.6147
▁ste	-11.6147
▁Had	-11.6147
▁challenges	-11.6148
▁Flat	-11.6148
▁Calculator	-11.615
▁copied	-11.615
▁touching	-11.6151
▁cracks	-11.6152
▁retainer	-11.6154
▁Case	-11.6154
-13	-11.616
▁columns	-11.6161
▁platinum	-11.6164
around	-11.6166
▁Rico	-11.6169
▁Vitamins	-11.6173
▁persist	-11.6174
▁vulnerable	-11.6178
▁Marie	-11.618
▁Luc	-11.6188
▁med	-11.619
olo	-11.6192
▁HVAC	-11.6192
▁Risk	-11.6194
▁dome	-11.6195
▁encompasses	-11.6195
▁incomplete	-11.62
market	-11.6203
max	-11.6204
▁relay	-11.6205
▁Lan	-11.6205
▁Present	-11.6207
▁Hydrogen	-11.6207
eck	-11.6211
▁offset	-11.6211
5)	-11.6216
rink	-11.6218
▁sustained	-11.6221
▁outcome	-11.6222
turn	-11.6222
organ	-11.6223
▁reef	-11.6224
▁1972	-11.6224
▁reception	-11.6224
eva	-11.6225
sugar	-11.6225
GE	-11.6226
▁canine	-11.6233
▁costing	-11.6235
▁Abstract	-11.6235
▁culinary	-11.6235
▁kinetic	-11.6235
▁ultra	-11.6235
▁trapped	-11.6235
▁exams	-11.6235
thirds	-11.6236
▁$72	-11.6236
▁myelin	-11.6237
blue	-11.6237
▁mailing	-11.6237
▁12'	-11.6238
▁Kong	-11.6239
▁peaks	-11.624
▁rodents	-11.6244
:1	-11.6246
▁differential	-11.6247
▁Andes	-11.6247
▁Link	-11.6248
▁Columbus	-11.6249
▁influential	-11.6249
▁oblique	-11.6249
▁sar	-11.6249
▁tennis	-11.625
▁implementation	-11.6252
▁1973	-11.6252
▁101	-11.6252
▁Gre	-11.6253
▁Rates	-11.6254
def	-11.6254
▁correction	-11.6255
▁dull	-11.6255
▁careers	-11.6257
▁£3	-11.626
▁Arteries	-11.6263
▁Sto	-11.6263
▁static	-11.6264
▁embryonic	-11.6264
▁loud	-11.6264
sur	-11.6265
▁Sen	-11.6265
▁ent	-11.6267
▁Inside	-11.6267
ept	-11.6268
▁Ger	-11.6269
▁diuretic	-11.6271
▁permits	-11.6271
▁88	-11.6272
flex	-11.6274
▁strongest	-11.6275
▁(50	-11.6277
▁compete	-11.6277
phil	-11.6278
lings	-11.6278
cop	-11.628
season	-11.628
▁geological	-11.6281
ere	-11.6281
▁proportional	-11.6281
trop	-11.6282
▁formulation	-11.6282
ket	-11.6282
▁grouped	-11.6282
▁Symbol	-11.6283
▁CAD	-11.6283
▁phases	-11.6284
▁sinuses	-11.6285
▁forever	-11.6287
mini	-11.6288
ending	-11.6291
▁fluctuate	-11.6291
▁railroad	-11.6292
▁colorful	-11.6292
▁copyright	-11.6293
▁Half	-11.6293
▁districts	-11.6294
▁dial	-11.6297
▁kale	-11.6297
▁reads	-11.6297
pit	-11.6304
▁Programs	-11.6305
▁conversation	-11.6306
▁disaster	-11.6306
▁attendance	-11.6307
▁Lady	-11.631
▁mega	-11.631
▁participants	-11.631
eta	-11.6311
▁Jim	-11.6312
▁references	-11.6313
▁Arabian	-11.6313
typically	-11.6314
HS	-11.6315
▁provisions	-11.6316
OM	-11.632
▁Delaware	-11.632
▁desirable	-11.632
▁Stephen	-11.632
▁$71	-11.6321
▁1.1	-11.6321
▁mimic	-11.6321
▁vesicles	-11.6323
▁drains	-11.6325
hill	-11.6325
▁Charge	-11.6328
▁tre	-11.633
▁82	-11.633
▁84	-11.633
▁monomers	-11.6336
phase	-11.6337
▁Later	-11.6339
▁recreational	-11.6339
▁shiny	-11.6339
▁pod	-11.634
▁sought	-11.6341
▁transfers	-11.6341
▁Adams	-11.6341
▁sneezing	-11.6349
▁indicating	-11.6349
▁2-4	-11.6349
▁contest	-11.6349
stan	-11.6351
▁ornamental	-11.6351
SM	-11.6352
▁Sin	-11.6356
▁Send	-11.6356
▁electrolyte	-11.6358
▁$80,000	-11.6361
▁Certification	-11.6363
▁crisis	-11.6363
▁premature	-11.6363
▁Everest	-11.6364
▁salty	-11.6366
▁observation	-11.6366
PL	-11.6366
▁conduction	-11.6368
win	-11.6372
▁Idaho	-11.6377
▁triggers	-11.6379
7°	-11.638
▁Lab	-11.638
▁activate	-11.6384
good	-11.6385
▁purchases	-11.6388
▁drives	-11.6389
bearing	-11.639
▁inactive	-11.6391
▁Bangladesh	-11.6392
▁pioneer	-11.6392
▁bureau	-11.6392
▁Tesla	-11.6392
▁Text	-11.6392
SU	-11.6396
▁valued	-11.6397
▁perceived	-11.6397
▁elephants	-11.6398
▁Rice	-11.64
▁dissolves	-11.6401
oscopy	-11.6403
▁ureters	-11.6403
▁appendix	-11.6406
▁infrastructure	-11.6406
▁cocoa	-11.6406
▁synonymous	-11.6407
▁settlers	-11.6407
▁outermost	-11.6408
▁initiate	-11.6409
▁distribute	-11.641
▁destinations	-11.6411
▁trail	-11.6413
▁Lion	-11.6414
▁delivers	-11.6417
▁ruin	-11.6419
▁creatine	-11.642
▁licence	-11.6421
▁southwestern	-11.6421
▁moderately	-11.6422
▁artistic	-11.6423
▁disabled	-11.6427
▁similarities	-11.6428
▁goose	-11.6429
▁coloring	-11.643
rage	-11.6433
▁breaths	-11.6433
root	-11.6434
▁Vehicle	-11.6435
▁groove	-11.6435
▁sliding	-11.6435
▁fraud	-11.6435
yle	-11.6436
▁flagella	-11.6437
▁Resources	-11.6437
▁minister	-11.6438
Saxon	-11.6438
▁corporations	-11.6438
▁mor	-11.6441
mur	-11.6442
▁thickening	-11.6449
▁picked	-11.6449
▁reservation	-11.6449
▁monument	-11.6449
▁Hollywood	-11.6449
▁thawed	-11.6451
▁Alternatively	-11.6454
alis	-11.6454
gress	-11.6458
▁suited	-11.6458
▁flex	-11.6459
tech	-11.6462
▁climbing	-11.6463
▁electro	-11.6463
▁Territory	-11.6464
▁liberal	-11.6464
▁Hay	-11.6465
▁6-8	-11.6465
▁GI	-11.6465
▁railway	-11.6465
▁Medium	-11.6466
Greek	-11.6467
▁projection	-11.6467
speaking	-11.6467
illo	-11.6468
▁kits	-11.6468
▁extensively	-11.6468
▁kitten	-11.6469
▁suppress	-11.6475
LC	-11.6475
▁tonsils	-11.6475
▁Perhaps	-11.6478
▁Antonio	-11.6478
▁Holy	-11.648
▁taxi	-11.6481
▁$10,000.	-11.6483
▁Mobile	-11.6484
▁Soil	-11.6486
▁hips	-11.6489
▁incidence	-11.6493
▁whey	-11.6493
kel	-11.6493
-$100	-11.6494
▁compatible	-11.6494
▁taxpayers	-11.6495
▁productivity	-11.6495
energy	-11.6496
IF	-11.6499
space	-11.6503
▁accurately	-11.6507
▁CON	-11.6507
▁niacin	-11.6507
▁xylem	-11.6507
▁bronchitis	-11.6508
▁1957	-11.651
▁conscious	-11.6511
▁(14	-11.6513
▁ecosystems	-11.6516
▁flavoring	-11.6517
▁extensions	-11.652
▁neuromuscular	-11.6522
▁Football	-11.6522
▁degeneration	-11.6523
▁sear	-11.6524
hem	-11.6526
▁google	-11.6528
▁Zoo	-11.6529
–19	-11.6532
igan	-11.6533
section	-11.6533
▁Semi	-11.6536
▁exciting	-11.6536
▁Psychology	-11.6537
RT	-11.6538
▁foster	-11.6538
▁remodeling	-11.6541
▁coding	-11.6543
mber	-11.6544
▁fillet	-11.6547
▁Higher	-11.6547
▁6-	-11.6548
▁lizards	-11.6548
▁Third	-11.6551
between	-11.6555
▁regulator	-11.6558
▁payable	-11.6561
▁Grade	-11.6564
▁assuming	-11.6565
▁ceremony	-11.6566
▁lithosphere	-11.6566
▁colitis	-11.6568
▁Terms	-11.657
▁grilling	-11.6571
▁premiums	-11.6571
▁MP	-11.6572
male	-11.6573
▁Mechanical	-11.6574
▁analysts	-11.6574
▁Mayo	-11.6575
▁10-15	-11.6576
▁relates	-11.6577
pher	-11.6578
▁volunteer	-11.658
▁afferent	-11.658
▁coordination	-11.6581
▁conservation	-11.6581
▁radiology	-11.6581
ival	-11.6581
▁Mis	-11.6583
▁Works	-11.6585
eration	-11.6586
▁chills	-11.6586
▁porcelain	-11.6587
▁blooms	-11.6587
nesthesiologist	-11.6587
▁lesion	-11.6588
▁floating	-11.6589
▁airports	-11.659
▁crimes	-11.6591
▁seaweed	-11.6597
▁cheapest	-11.6598
skin	-11.6599
▁trends	-11.6599
▁jaundice	-11.6599
▁sy	-11.66
▁seasoned	-11.6602
▁compartment	-11.6602
▁Hypo	-11.6603
▁chin	-11.6604
▁gi	-11.6606
▁21,	-11.6607
▁molds	-11.6607
▁chemist	-11.6608
▁Emperor	-11.661
▁Plastic	-11.661
▁collision	-11.661
▁equate	-11.661
▁prune	-11.6611
cker	-11.6612
▁optional	-11.6614
▁acetaminophen	-11.6617
▁bare	-11.6617
▁definite	-11.6617
▁placement	-11.6618
▁Duck	-11.6618
▁Pit	-11.662
▁gifts	-11.6622
glo	-11.6622
▁Sta	-11.6623
pain	-11.6624
▁bud	-11.6624
▁aluminium	-11.6624
worm	-11.6625
▁editor	-11.6632
ometric	-11.6634
▁tubules	-11.6636
▁cider	-11.6639
pping	-11.664
▁Gal	-11.6643
▁Snow	-11.6646
▁elephant	-11.6647
▁immuno	-11.6649
▁Clear	-11.665
uch	-11.6653
▁Proclamation	-11.6654
▁catheter	-11.6654
▁unstable	-11.6654
▁architectural	-11.6654
▁Saturn	-11.6654
▁conviction	-11.6656
▁standardized	-11.6656
0000	-11.666
▁inhibitor	-11.6662
▁Teacher	-11.6663
ego	-11.6668
▁writers	-11.6668
▁essence	-11.6669
▁scapula	-11.6669
▁concert	-11.6669
▁Display	-11.6669
▁Prevention	-11.6669
▁Pine	-11.6671
▁generates	-11.6671
oh	-11.6671
▁Viral	-11.6672
▁font	-11.6672
▁Payment	-11.6675
▁77	-11.6676
▁Eric	-11.6676
180	-11.6677
iana	-11.6679
▁snails	-11.6679
rach	-11.6683
▁hanging	-11.6683
▁needles	-11.6686
ello	-11.6689
▁Coat	-11.6691
▁fer	-11.6691
central	-11.6693
▁removes	-11.6694
▁Adults	-11.6694
GS	-11.6694
▁husk	-11.6696
▁psychiatrist	-11.6698
▁advisor	-11.6698
▁URL	-11.6698
tron	-11.6699
▁trout	-11.6699
present	-11.67
▁recommendation	-11.67
▁whereby	-11.6701
▁Update	-11.6703
▁11,	-11.6703
▁seventh	-11.6703
▁downtown	-11.6705
▁pearl	-11.6708
▁#2	-11.6709
▁linguistic	-11.671
▁twist	-11.671
▁AIDS	-11.6711
▁BSN	-11.6711
pid	-11.6711
gor	-11.6712
fil	-11.6713
▁Dakota	-11.6713
▁nutritious	-11.6713
▁Complex	-11.6713
▁ge	-11.6714
▁enlargement	-11.6714
acting	-11.6715
▁bail	-11.6715
▁byproduct	-11.6717
▁molar	-11.6717
▁sail	-11.6717
▁Bile	-11.6717
▁herd	-11.6722
▁Muscles	-11.6722
▁24-	-11.6723
▁Specialist	-11.6725
hydrate	-11.6725
▁4.0	-11.6726
▁compressed	-11.6729
▁winner	-11.6729
▁passages	-11.6729
▁Learning	-11.6731
▁paycheck	-11.6731
▁Albert	-11.6733
▁peri	-11.6733
▁soften	-11.6736
ttle	-11.6737
▁trials	-11.6738
▁halfway	-11.6738
▁Meats	-11.674
▁circulate	-11.674
▁capacitor	-11.6743
▁hormonal	-11.6743
▁portfolio	-11.6743
▁femur	-11.6743
▁Healthy	-11.6743
▁$1,0	-11.6744
▁3000	-11.6745
▁2,500	-11.6745
▁29,	-11.6751
▁actively	-11.6751
▁$45,000	-11.6755
▁Biology	-11.6756
▁gal	-11.6757
▁Arthur	-11.6758
▁tutorial	-11.6758
▁incision	-11.6758
▁saute	-11.6759
▁Vo	-11.6759
▁borne	-11.676
▁Senator	-11.6761
cellular	-11.6761
try	-11.6762
emp	-11.6765
▁ja	-11.6765
▁Bonus	-11.6765
what	-11.6772
!)	-11.6773
▁archipelago	-11.6773
▁longitudinal	-11.6773
▁mathematical	-11.6773
▁orientation	-11.6773
▁Fri	-11.6773
pass	-11.6775
sley	-11.6776
▁Pick	-11.6778
▁Kal	-11.6779
AV	-11.678
onym	-11.6782
oral	-11.6783
lac	-11.6784
▁Korean	-11.6786
▁restrict	-11.6787
▁Practitioner	-11.6788
▁palsy	-11.6788
▁pulling	-11.6789
▁assign	-11.6791
▁explosive	-11.6791
opia	-11.6791
▁hall	-11.6792
▁gra	-11.6792
▁Loss	-11.6796
▁verse	-11.6797
▁cooled	-11.6797
icus	-11.68
▁authentic	-11.6801
▁thyme	-11.6801
$4	-11.6802
▁Consumer	-11.6806
▁candle	-11.6807
▁excreted	-11.6808
ume	-11.681
dio	-11.6812
▁$13,000	-11.6813
lect	-11.6814
▁SAP	-11.6814
OC	-11.6815
▁Basin	-11.6815
▁$130	-11.6816
-60	-11.6817
▁Yo	-11.6817
▁Eagle	-11.6818
▁populous	-11.6818
▁tired	-11.6819
▁CPU	-11.6822
done	-11.6822
▁rolled	-11.6824
▁Industrial	-11.6826
▁mer	-11.6828
px	-11.6829
som	-11.6829
▁Dream	-11.6833
▁binary	-11.6833
▁symbolism	-11.6834
▁Expression	-11.6836
▁filmed	-11.6842
▁deepest	-11.6846
rill	-11.6847
▁accommodate	-11.6848
▁damaging	-11.6848
▁Furthermore	-11.6848
ONE	-11.685
▁ski	-11.6856
fit	-11.6856
▁turbine	-11.6857
▁$96	-11.6859
▁1040	-11.6862
▁shareholders	-11.6862
▁worship	-11.6862
▁challenging	-11.6863
▁capillary	-11.6863
▁Repair	-11.6864
▁Notice	-11.6865
▁hi	-11.6866
▁joy	-11.6868
▁blast	-11.6869
▁225	-11.6869
▁Arabia	-11.6874
▁strictly	-11.6874
mut	-11.6876
▁Testament	-11.6878
▁Analysis	-11.6878
▁curry	-11.6879
▁trustee	-11.688
▁incur	-11.6883
▁sauces	-11.6884
▁mall	-11.6885
Car	-11.6885
nz	-11.6887
▁endo	-11.6888
▁respective	-11.6889
▁yields	-11.689
▁bits	-11.689
▁hum	-11.6892
▁shortened	-11.6892
fold	-11.6893
▁temporarily	-11.6893
▁Sleep	-11.6893
▁variance	-11.6893
▁Vinyl	-11.6893
▁Rich	-11.6893
▁odorless	-11.6896
▁Rib	-11.6896
▁shortly	-11.6897
▁inmate	-11.6898
world	-11.6899
▁vertebrate	-11.6899
▁1933	-11.6903
fall	-11.6905
▁shi	-11.6906
▁Disorder	-11.6906
cad	-11.6906
▁scrap	-11.6907
▁Saudi	-11.6908
▁sec	-11.6908
OA	-11.6909
▁ferment	-11.691
▁Tro	-11.6911
▁induced	-11.6911
▁Nar	-11.6911
▁4%	-11.6912
▁Combine	-11.6912
▁pleural	-11.6913
▁achievement	-11.6914
hours	-11.6917
▁425	-11.692
omi	-11.6922
▁Spa	-11.6923
▁Quality	-11.6923
▁striking	-11.6923
▁Tur	-11.6925
acre	-11.6927
▁confidence	-11.6928
▁documented	-11.693
▁fiction	-11.693
▁Sy	-11.6932
▁initiated	-11.6935
▁constitutes	-11.6935
will	-11.6938
▁Tasmania	-11.6938
▁analgesic	-11.6938
▁exocrine	-11.6938
▁pleasure	-11.6938
▁Cow	-11.6941
▁broadly	-11.6947
lines	-11.6948
▁doctoral	-11.6949
▁cleaned	-11.6951
▁Minor	-11.6952
▁Proteins	-11.6952
lux	-11.6953
▁organizational	-11.6953
▁transfusion	-11.6954
▁clubs	-11.6955
▁AP	-11.6956
cri	-11.6959
▁ISO	-11.6962
aff	-11.6965
▁inability	-11.6965
▁precious	-11.6966
▁2006,	-11.6968
▁Silicon	-11.6969
▁Address	-11.6969
▁ribbon	-11.6969
▁mint	-11.6969
▁ti	-11.697
mph	-11.698
▁LI	-11.698
▁Dys	-11.6981
-$5	-11.6981
▁apps	-11.6981
unit	-11.6982
▁Original	-11.6982
▁Helen	-11.6982
kes	-11.6983
▁isotope	-11.6983
▁winters	-11.6983
▁Norwegian	-11.6984
▁pleasant	-11.6984
▁Clinton	-11.6984
▁Jews	-11.6984
▁listings	-11.6984
▁burrow	-11.6984
phyl	-11.6997
RNA	-11.6998
operative	-11.6999
▁adhere	-11.6999
▁ointment	-11.6999
▁ritual	-11.6999
▁rosemary	-11.6999
▁sculpture	-11.7
▁curd	-11.7
▁rap	-11.7001
▁1979	-11.7002
▁porch	-11.7011
▁waterproof	-11.7012
▁GM	-11.7014
▁thirty	-11.7014
▁greek	-11.7015
▁impressive	-11.7015
gest	-11.7016
▁outpatient	-11.7018
▁Islamic	-11.702
▁Kin	-11.702
▁distilled	-11.7021
▁$79	-11.7023
both	-11.7024
▁sprinkler	-11.7027
▁subsequently	-11.7027
▁distributions	-11.7029
▁Bermuda	-11.703
▁scrub	-11.703
▁Cellular	-11.703
▁crash	-11.7031
▁Jacob	-11.7031
ddle	-11.7033
3.5	-11.7034
▁thermostat	-11.7036
▁2008.	-11.7038
▁PRO	-11.704
▁cakes	-11.7044
▁penetrate	-11.7045
▁rope	-11.7046
▁vegan	-11.7048
▁extinction	-11.7048
▁Strait	-11.7049
eur	-11.7049
-$200	-11.7049
▁balls	-11.7049
▁revolution	-11.7049
▁counts	-11.7051
▁holidays	-11.7052
▁AN	-11.7052
▁Contributions	-11.7052
olar	-11.7053
▁permitted	-11.7054
▁Regional	-11.7057
ffer	-11.706
▁monkey	-11.7061
▁XML	-11.7062
▁adaptive	-11.7062
▁Peri	-11.7063
▁Portland	-11.7063
▁Give	-11.7066
▁almonds	-11.7067
▁Story	-11.7067
▁5-10	-11.7068
▁deadline	-11.7069
▁hatching	-11.7072
▁intend	-11.7074
▁disaccharide	-11.7076
▁Ltd	-11.7076
▁Aug	-11.7076
▁subtle	-11.7078
▁tibia	-11.7081
▁Fig	-11.7083
▁painter	-11.7085
▁innate	-11.7086
▁cheeses	-11.7087
▁modify	-11.7088
▁basalt	-11.7089
▁Temp	-11.7091
▁integration	-11.7091
▁Pressure	-11.7093
gna	-11.7094
▁commissions	-11.7095
▁pylori	-11.7096
fire	-11.7098
▁cancerous	-11.7098
2015	-11.7099
▁Ali	-11.7099
due	-11.7101
▁titles	-11.7103
▁dated	-11.7105
▁Isle	-11.7105
▁computing	-11.7107
▁faucet	-11.7107
▁geothermal	-11.7107
▁Mauna	-11.7108
▁1967	-11.7109
▁Gi	-11.7109
▁Chris	-11.7112
German	-11.7114
▁woven	-11.712
▁pastry	-11.712
▁stripes	-11.712
▁OH	-11.7122
▁autumn	-11.7122
▁licensure	-11.7122
▁politics	-11.7122
▁immunoglobulin	-11.7122
▁spawn	-11.7123
▁accomplished	-11.7123
▁isotopes	-11.7123
▁avocado	-11.7124
▁receipt	-11.7124
▁Tissue	-11.7124
▁DUI	-11.7124
glucose	-11.713
▁monarch	-11.713
▁torn	-11.7131
▁eliminated	-11.7132
cine	-11.7132
▁qua	-11.7134
sodium	-11.7136
▁Fossil	-11.7138
▁Results	-11.7138
▁Wiktionary	-11.7138
▁stenosis	-11.7138
▁adventure	-11.7138
▁SQL	-11.7139
▁tilt	-11.7141
▁dominated	-11.7144
▁($3	-11.7147
▁witness	-11.7149
▁raises	-11.7149
▁incident	-11.715
▁erect	-11.7151
▁intensive	-11.7152
▁Traditionally	-11.7152
INE	-11.7153
▁fifteen	-11.7153
▁integrity	-11.7153
▁junior	-11.7153
▁Course	-11.7153
▁Graduate	-11.7153
▁Zinc	-11.7153
▁Box	-11.7154
sea	-11.7157
▁demonstrated	-11.7158
▁plantar	-11.7158
-17	-11.7158
Man	-11.7159
▁chicks	-11.7164
Ad	-11.7166
▁fame	-11.7167
▁advocate	-11.7169
▁vaccinations	-11.7169
▁50,000	-11.7169
▁obviously	-11.7169
▁engineered	-11.717
▁00	-11.717
nin	-11.717
▁airway	-11.7172
▁atherosclerosis	-11.7174
▁triggered	-11.7174
▁busy	-11.7175
UC	-11.7179
child	-11.7179
▁abscess	-11.718
▁Hz	-11.7183
open	-11.7186
▁Foot	-11.7191
▁mites	-11.7191
ATP	-11.7192
▁hits	-11.7195
may	-11.7195
▁2007.	-11.7196
▁weakened	-11.7197
▁Emancipation	-11.72
▁statutory	-11.72
wise	-11.72
▁subtropical	-11.72
plant	-11.7203
▁71	-11.7205
power	-11.7209
▁retained	-11.721
▁PS	-11.7212
▁Simon	-11.7212
add	-11.7212
▁nano	-11.7213
▁warmth	-11.7215
▁Analyst	-11.7215
▁decreasing	-11.7215
▁illustration	-11.7217
St	-11.7217
▁Congo	-11.7221
▁summers	-11.7223
▁curl	-11.7224
▁Hor	-11.7225
▁polish	-11.723
▁warrior	-11.7231
▁lumen	-11.7232
▁Award	-11.7234
▁calculations	-11.7234
▁victim	-11.7234
▁monarchy	-11.7239
▁175	-11.7243
▁1.8	-11.7245
▁Bun	-11.7245
CF	-11.7246
▁adipose	-11.7247
▁soccer	-11.7247
▁Properties	-11.7247
▁remainder	-11.7249
aged	-11.7249
note	-11.7251
▁graphic	-11.7251
▁pressing	-11.7251
▁Tin	-11.7251
esis	-11.7252
▁iOS	-11.7252
▁yellowish	-11.7254
▁servers	-11.7255
▁Package	-11.7258
▁$500,000	-11.7259
▁acidity	-11.7261
▁cookies	-11.7261
▁comparing	-11.7262
▁fission	-11.7262
▁accessory	-11.7265
▁guardian	-11.7267
heart	-11.7267
▁cube	-11.727
▁Individual	-11.7271
▁Larger	-11.7271
pac	-11.7271
▁Culture	-11.7278
▁internship	-11.7278
▁fiberglass	-11.7279
▁76	-11.7281
fl	-11.7281
▁genera	-11.7282
ality	-11.7282
▁discs	-11.7283
▁pediatrician	-11.7283
▁faces	-11.7284
script	-11.7285
▁Geo	-11.7286
▁96	-11.7287
▁Carb	-11.7287
▁ingested	-11.7287
▁observe	-11.729
▁Montana	-11.7294
▁spirits	-11.7294
▁unlimited	-11.7294
▁Mas	-11.7295
-40	-11.7298
▁Ear	-11.7301
plan	-11.7306
,350	-11.7306
▁bearer	-11.7307
flower	-11.7308
▁ganglia	-11.731
▁governing	-11.7312
▁occipital	-11.7315
▁Treat	-11.7315
▁Arts	-11.7316
▁lifting	-11.7318
▁nouns	-11.732
▁$82	-11.732
▁specially	-11.7324
▁Smooth	-11.7325
▁bu	-11.7327
▁Brush	-11.7329
▁Safe	-11.7329
▁Bruce	-11.733
▁keratin	-11.7334
▁provision	-11.7334
outs	-11.7339
▁Butter	-11.734
▁determination	-11.7341
▁norepinephrine	-11.7341
▁terrain	-11.7344
▁Growth	-11.7345
▁contamination	-11.7347
pect	-11.7348
AB	-11.7349
release	-11.735
vir	-11.735
▁govern	-11.7352
▁Crown	-11.7354
tory	-11.7354
aire	-11.7356
▁flank	-11.7357
▁watermelon	-11.7357
▁Stamp	-11.7359
▁tolerate	-11.7362
▁opiate	-11.7362
▁tofu	-11.7363
▁fitting	-11.7364
▁chew	-11.7367
fiber	-11.7369
▁engaged	-11.737
bor	-11.7371
▁INSTANT	-11.7373
▁probability	-11.7373
▁umbrella	-11.7373
▁photographer	-11.7376
▁humor	-11.7378
▁sprout	-11.7378
▁welding	-11.7382
▁Move	-11.7383
▁rashes	-11.7384
▁conducting	-11.7385
lap	-11.7387
itive	-11.7387
cort	-11.7388
▁immigrate	-11.7389
▁Forensic	-11.7389
▁(25	-11.7389
▁braces	-11.7389
▁occupations	-11.739
▁mount	-11.739
▁stainless	-11.7391
▁tent	-11.7391
▁1977	-11.7392
▁inspector	-11.7392
▁1955	-11.7393
gro	-11.7394
▁inject	-11.7395
▁presents	-11.74
▁Islam	-11.7401
▁HP	-11.7402
▁pu	-11.7403
▁pericardium	-11.7405
▁proposal	-11.7405
▁sacrifice	-11.7405
▁Austin	-11.7405
▁Clark	-11.7405
▁LE	-11.7406
▁Canal	-11.7408
▁1976	-11.7408
▁1947	-11.7408
bon	-11.7411
▁hose	-11.7414
tailed	-11.7416
▁Individuals	-11.7417
2).	-11.7418
▁repetitive	-11.742
▁stratosphere	-11.742
▁arsenic	-11.742
▁Bacillus	-11.742
▁Easter	-11.7421
▁Self	-11.7421
▁suspected	-11.7423
iya	-11.7424
▁Trail	-11.7427
▁newspaper	-11.7427
▁treats	-11.7428
▁nodules	-11.7429
▁enjoyed	-11.7429
cover	-11.743
▁Mike	-11.7434
▁Hum	-11.7434
▁8-	-11.7434
▁que	-11.7436
▁ensuring	-11.7436
▁balloon	-11.7437
▁subscription	-11.7437
ographic	-11.7437
▁flare	-11.7438
▁FOR	-11.7438
▁Reef	-11.744
roid	-11.744
▁Ter	-11.7441
▁powdered	-11.7442
▁Bus	-11.7443
▁replicate	-11.7444
▁Village	-11.7445
▁rag	-11.7445
dog	-11.7446
▁locally	-11.7447
eng	-11.7449
▁landing	-11.7449
tag	-11.7452
▁perpendicular	-11.7452
▁Var	-11.7453
▁traded	-11.7453
▁Testing	-11.7457
▁mountainous	-11.7459
▁conjunctivitis	-11.746
▁61	-11.7463
▁electrolytes	-11.7465
brain	-11.7466
▁governed	-11.7467
▁Ethernet	-11.7468
▁saturation	-11.7468
los	-11.7469
▁signaling	-11.7469
▁Info	-11.747
▁fabrics	-11.7471
ulin	-11.7471
sville	-11.7472
▁Pack	-11.7472
▁chill	-11.7472
▁Blu	-11.7472
SB	-11.7473
▁argue	-11.7474
lysis	-11.7479
▁$250,000	-11.7479
▁Wine	-11.748
▁projected	-11.748
6.8	-11.748
▁Materials	-11.7481
▁assumes	-11.7481
omas	-11.7482
▁Gett	-11.7483
▁improves	-11.7484
▁Manhattan	-11.7484
▁captivity	-11.7484
▁Purple	-11.7485
▁lightweight	-11.7489
▁1.3	-11.7491
▁captured	-11.7492
▁Era	-11.7492
▁module	-11.7492
/1	-11.7492
▁biomes	-11.7493
▁attracted	-11.7495
▁Anatomy	-11.7495
▁indirectly	-11.7497
CU	-11.7498
▁Cons	-11.75
▁ensures	-11.75
▁consecutive	-11.75
▁hygiene	-11.75
▁nectar	-11.75
▁diploid	-11.7501
▁$86	-11.7502
dder	-11.7502
▁beak	-11.7503
6)	-11.7505
thro	-11.7506
▁obligation	-11.7508
▁pap	-11.751
▁spends	-11.751
▁Chan	-11.7511
▁myth	-11.7515
▁Cholesterol	-11.7517
▁Purchase	-11.7517
▁democratic	-11.7517
▁pancreatitis	-11.7517
dan	-11.7517
▁punishment	-11.7518
▁Rec	-11.7519
▁implantation	-11.752
▁fails	-11.7521
▁evolve	-11.7522
▁frying	-11.7524
▁radical	-11.7526
▁colours	-11.7529
▁Hungary	-11.7532
▁inhalation	-11.7533
▁CE	-11.7536
▁roasts	-11.7539
Ha	-11.7539
▁fri	-11.7541
▁SD	-11.7542
igh	-11.7543
▁inhabited	-11.7543
▁substantially	-11.7545
phen	-11.7545
▁cub	-11.7547
▁Week	-11.7548
lag	-11.7548
▁Phoenix	-11.7549
▁Various	-11.7549
▁FICO	-11.7549
FE	-11.755
▁flexion	-11.755
▁Scan	-11.7553
▁ethical	-11.7554
soft	-11.7554
oxide	-11.7555
-$6	-11.7556
▁86	-11.7561
▁farms	-11.7561
▁chose	-11.7561
▁accumulate	-11.7563
▁Knowledge	-11.7565
▁McDonald	-11.7565
▁scholarship	-11.7565
▁mortality	-11.7565
▁bore	-11.7566
▁disposal	-11.7567
▁dont	-11.7567
BC	-11.7567
▁Chrome	-11.7568
▁1959	-11.7568
▁Neurons	-11.7568
▁poorly	-11.7569
▁columnar	-11.757
tiv	-11.757
▁INR	-11.7576
lə	-11.7577
▁dent	-11.7577
▁occasional	-11.7578
▁tracks	-11.7578
▁gr	-11.7579
▁kilo	-11.7579
▁actors	-11.7579
----------------	-11.758
▁council	-11.7581
▁dystrophy	-11.7581
▁enacted	-11.7581
▁phloem	-11.7581
▁sterile	-11.7581
▁Recipe	-11.7581
iva	-11.7581
▁Specifically	-11.7582
▁vaccinated	-11.7583
▁23,	-11.7583
typical	-11.7585
▁Synonyms	-11.7585
growing	-11.7586
▁Member	-11.7591
▁almond	-11.7591
culture	-11.7591
▁milli	-11.7592
ION	-11.7593
value	-11.7594
▁ancestry	-11.7597
▁barbecue	-11.7597
card	-11.7598
▁Sear	-11.7598
▁subduction	-11.7598
▁threatened	-11.7603
ridge	-11.7607
▁filtering	-11.7609
▁pleura	-11.7609
▁adaptation	-11.7609
ulo	-11.761
▁Standards	-11.7611
▁Pal	-11.7612
▁chlamydia	-11.7614
▁circulating	-11.7614
▁renovation	-11.7614
▁sphincter	-11.7614
▁troposphere	-11.7614
▁Sudan	-11.7614
▁Cheese	-11.7614
post	-11.7615
▁happening	-11.762
▁photography	-11.762
mix	-11.7621
▁ripe	-11.7623
▁adolescents	-11.7625
raw	-11.7626
wind	-11.7627
▁($2	-11.7629
&#39;	-11.763
▁uncomfortable	-11.763
▁bronze	-11.763
▁fragrant	-11.763
▁Terrier	-11.763
▁accordance	-11.763
▁fecal	-11.763
nis	-11.7631
▁oily	-11.7631
▁Mission	-11.7632
cr	-11.7632
▁cry	-11.7635
▁sat	-11.7636
▁starches	-11.7637
▁hyperthyroidism	-11.7637
▁exc	-11.7638
▁speaker	-11.7638
fully	-11.7639
▁appliance	-11.764
▁specimen	-11.764
▁Gro	-11.7641
▁youngest	-11.7643
▁LO	-11.7643
lem	-11.7645
▁spoil	-11.7646
Ta	-11.7646
▁cirrhosis	-11.7646
▁penalties	-11.7646
▁Kreati	-11.7646
▁plastics	-11.7649
rain	-11.765
▁strange	-11.7651
▁prize	-11.7652
▁telling	-11.7654
▁tracking	-11.7654
▁lenders	-11.7655
▁bunch	-11.7656
▁TH	-11.7657
▁triglyceride	-11.7657
scribe	-11.7657
▁cracked	-11.7657
▁7.5	-11.7658
▁syllable	-11.7661
ota	-11.7661
7.2	-11.7661
▁namely	-11.7662
▁dormant	-11.7662
▁melanin	-11.7663
▁Burn	-11.7663
▁pathology	-11.7665
▁flap	-11.7665
▁Father	-11.7665
▁0.6	-11.7668
atomic	-11.7671
▁crabs	-11.7675
▁folds	-11.7675
▁veterinarians	-11.7676
80,000	-11.7677
▁retinal	-11.7677
▁Multiply	-11.7679
▁literal	-11.768
▁Fan	-11.7685
lined	-11.7685
▁Kai	-11.7686
▁specification	-11.7689
-1/2	-11.7693
▁routes	-11.7693
▁chat	-11.7694
▁Clostridium	-11.7695
▁penicillin	-11.7695
▁clo	-11.7695
▁authorities	-11.7696
▁inspiration	-11.7697
▁1948	-11.7699
▁groom	-11.77
▁charter	-11.7701
▁finishes	-11.7702
▁PE	-11.7705
▁5.5	-11.7708
▁Alex	-11.7708
▁cargo	-11.7711
▁Universal	-11.7712
▁explosion	-11.7712
▁fragrance	-11.7712
▁Taylor	-11.7712
▁ridges	-11.7714
▁Hourly	-11.7715
▁tr	-11.7719
▁examined	-11.7721
yellow	-11.7723
▁gang	-11.7724
guard	-11.7724
pay	-11.7724
▁peroxide	-11.7727
▁Habitat	-11.7728
▁sesame	-11.7728
▁Wedding	-11.7728
▁Fitness	-11.7728
▁separating	-11.773
▁[1]	-11.7731
angle	-11.7733
tical	-11.7733
▁$180	-11.7737
▁transports	-11.7738
text	-11.774
▁blister	-11.774
▁riding	-11.774
lix	-11.7742
▁corresponds	-11.7742
oderm	-11.7744
▁weapons	-11.7744
▁Hawk	-11.7745
▁tremor	-11.7745
▁spinning	-11.7745
▁Style	-11.7745
nip	-11.7746
▁sustainable	-11.7747
there	-11.7749
▁Homo	-11.7751
▁peat	-11.7751
▁loaded	-11.7754
yu	-11.7755
ngo	-11.7757
________________	-11.7758
member	-11.7758
tie	-11.7759
▁dishwasher	-11.7761
▁featuring	-11.7761
▁Prepare	-11.7762
▁beet	-11.7762
▁intact	-11.7762
▁(0.00	-11.7762
▁arrange	-11.7765
▁heaters	-11.7767
HO	-11.7768
ograph	-11.7769
▁guys	-11.7769
tec	-11.7773
▁plateau	-11.7773
lim	-11.7773
▁pouch	-11.7774
▁Damage	-11.7775
▁packet	-11.7776
BLS	-11.7777
▁Behavior	-11.7777
▁efferent	-11.7777
▁emperor	-11.7777
chain	-11.7781
▁ALT	-11.7781
-50	-11.7782
▁involvement	-11.7782
gli	-11.7789
quo	-11.779
▁visited	-11.7791
verse	-11.7792
▁opera	-11.7792
▁coats	-11.7794
▁intrinsic	-11.7794
▁shampoo	-11.7794
▁Digital	-11.7794
▁Cloud	-11.7794
▁Premium	-11.7794
▁Danish	-11.7795
thos	-11.7796
▁Seal	-11.7796
agh	-11.7797
▁cloudy	-11.7798
NI	-11.7798
hai	-11.7798
rog	-11.7798
▁Hello	-11.78
▁theater	-11.78
▁patented	-11.78
▁amylase	-11.7801
UT	-11.7801
pho	-11.7802
▁Stop	-11.7802
▁$75,000	-11.7803
oC	-11.7803
▁Earn	-11.7805
sar	-11.7805
▁synapse	-11.7807
▁downward	-11.781
▁philosopher	-11.781
▁Upon	-11.781
▁Respiratory	-11.7811
▁mixes	-11.7811
▁Cho	-11.7812
▁Wave	-11.7816
▁CDC	-11.7818
▁promoting	-11.7818
bia	-11.7818
▁jacket	-11.7819
▁Francis	-11.782
▁Jean	-11.782
▁stew	-11.7821
▁towels	-11.7822
block	-11.7822
▁Ji	-11.7823
▁Bla	-11.7823
▁Phil	-11.7823
▁begun	-11.7824
▁Currency	-11.7827
▁Exercise	-11.7827
▁heaven	-11.7827
▁gro	-11.7829
▁outward	-11.783
▁currents	-11.7831
▁bal	-11.7832
mond	-11.7833
▁0.3	-11.7833
▁bundles	-11.7834
▁dimension	-11.7835
page	-11.7835
force	-11.7835
▁ABC	-11.7836
▁Syria	-11.7837
▁Brook	-11.7843
▁Cyprus	-11.7844
▁trillion	-11.7844
▁rectal	-11.7845
▁stack	-11.7847
▁Girl	-11.7848
▁1939	-11.7848
▁transit	-11.7848
▁scattered	-11.7849
,280	-11.785
▁4-5	-11.7851
tance	-11.7852
▁Found	-11.7852
horn	-11.7854
yam	-11.7854
▁portable	-11.7856
▁Escherichia	-11.786
▁reabsorption	-11.7861
▁analyzed	-11.7863
▁mechanic	-11.7864
store	-11.7866
emi	-11.7866
▁cl	-11.787
▁edema	-11.7871
▁Meta	-11.7876
▁amphibians	-11.7877
▁Profile	-11.7878
▁Electro	-11.7878
▁Nature	-11.7881
▁outbreak	-11.7881
▁Accounting	-11.7882
▁purine	-11.7883
FL	-11.7883
How	-11.7884
9°	-11.7885
then	-11.7888
▁Plains	-11.789
▁nap	-11.789
▁Include	-11.7892
▁lobster	-11.7892
▁Gothic	-11.7894
▁honest	-11.7894
▁squirrels	-11.7895
▁Transcription	-11.7895
maker	-11.7895
▁airplane	-11.7895
▁immigrants	-11.7896
▁Steam	-11.7896
▁op	-11.7905
small	-11.7906
▁administrator	-11.7909
▁modification	-11.7909
▁evaporate	-11.791
▁faculty	-11.791
▁Crohn	-11.791
▁Crystal	-11.791
▁Enterprise	-11.7911
ould	-11.7911
▁Cycle	-11.7911
▁notary	-11.7912
▁scanner	-11.7913
▁donkey	-11.7914
▁Extra	-11.7916
▁fictional	-11.7916
▁fig	-11.7916
phan	-11.7917
defined	-11.7923
▁Brian	-11.7924
▁investments	-11.7924
anne	-11.7925
▁spore	-11.7926
▁grave	-11.7927
▁Christopher	-11.7927
▁capabilities	-11.7927
▁GDP	-11.7927
▁Advantage	-11.7927
▁confusing	-11.7927
glia	-11.7928
▁Property	-11.7928
▁Smart	-11.793
▁condo	-11.793
▁Rob	-11.7931
▁clearing	-11.7932
dr	-11.7936
▁$74	-11.7936
▁lowering	-11.7936
▁pigs	-11.7939
grad	-11.7939
▁logical	-11.794
▁wavelengths	-11.7941
▁Military	-11.7944
▁reimbursement	-11.7944
▁Theatre	-11.7945
▁lipase	-11.7945
▁dropping	-11.7947
▁myself	-11.7948
▁Pool	-11.7949
▁Soy	-11.7949
▁shooting	-11.7952
lytic	-11.7953
▁filler	-11.7953
▁plank	-11.7955
MG	-11.7956
▁stretched	-11.7958
▁Infections	-11.796
▁feather	-11.796
▁Depression	-11.7961
▁probation	-11.7961
▁acetate	-11.7961
▁bald	-11.7961
bridge	-11.7963
vari	-11.7964
trip	-11.7966
▁Virgin	-11.7967
▁overlap	-11.7969
▁ports	-11.7969
6.5	-11.7969
▁surroundings	-11.797
pol	-11.7971
▁batter	-11.7971
▁planner	-11.7971
▁counselors	-11.7973
▁healthier	-11.7976
▁$1.50	-11.7977
▁blades	-11.7977
▁venue	-11.7978
▁exotic	-11.7979
▁rival	-11.7979
▁Rather	-11.798
depending	-11.798
has	-11.7981
▁Tech	-11.7981
▁1949	-11.7981
▁Anna	-11.7981
▁Content	-11.7982
morph	-11.7983
▁tele	-11.7983
▁(“	-11.7985
vor	-11.7987
▁synonyms	-11.7991
▁Geographic	-11.7995
▁Enzymes	-11.7995
▁hazardous	-11.7995
▁poems	-11.7997
▁Moreover	-11.7999
▁0.4	-11.7999
▁$70,000	-11.7999
▁anise	-11.7999
▁lacks	-11.8001
drop	-11.8002
valent	-11.8003
para	-11.8004
mun	-11.8006
cite	-11.8006
▁cop	-11.8007
▁Evan	-11.8007
▁imported	-11.8009
eme	-11.801
▁celebration	-11.8011
▁celiac	-11.8011
▁privilege	-11.8011
▁statue	-11.8011
▁Fiji	-11.8012
▁1978	-11.8015
▁stopping	-11.8015
▁$5,500	-11.8016
▁incoming	-11.8017
▁coordinate	-11.8018
▁elections	-11.8018
▁registers	-11.8019
▁Corps	-11.8019
shore	-11.8019
French	-11.8024
dict	-11.8026
▁wedge	-11.8029
▁simultaneously	-11.8031
▁spell	-11.8031
▁cardio	-11.8031
▁Herb	-11.8033
pas	-11.8035
▁1865	-11.8035
▁lasted	-11.8036
Mar	-11.8036
iki	-11.8037
▁spur	-11.8038
▁behave	-11.8039
▁dies	-11.8041
atch	-11.8042
▁traced	-11.8042
NSAID	-11.8042
▁hemp	-11.8043
▁stuffed	-11.8045
▁Front	-11.8045
▁Globe	-11.8046
▁consciousness	-11.8047
▁blindness	-11.8047
-$10	-11.8048
▁Mean	-11.8052
▁prim	-11.8053
ois	-11.8053
ific	-11.8056
vitamin	-11.8059
dose	-11.8059
▁curved	-11.806
▁Bat	-11.8061
▁stra	-11.8062
▁2005,	-11.8062
▁equipped	-11.8062
emic	-11.8063
▁knew	-11.8063
risk	-11.8063
▁complication	-11.8063
▁vertebra	-11.8064
▁Mariana	-11.8065
mbi	-11.8066
▁collects	-11.8067
▁broke	-11.8068
zar	-11.8068
▁Hormones	-11.8069
▁365	-11.8074
ao	-11.8074
▁reactor	-11.8076
▁Spin	-11.8077
blo	-11.8077
▁Shan	-11.8077
▁internationally	-11.8078
▁contributing	-11.8079
▁controversial	-11.8079
▁hydrophobic	-11.8079
▁laboratories	-11.8079
▁gametophyte	-11.8079
▁ceilings	-11.808
dium	-11.808
▁suggestions	-11.8081
who	-11.8082
▁Bush	-11.8084
▁0.2	-11.8084
▁73	-11.8084
▁Temple	-11.8084
ulus	-11.8088
LU	-11.8089
olite	-11.8093
fur	-11.8093
▁returning	-11.8094
▁spans	-11.8094
▁Neo	-11.8094
zer	-11.8095
▁delegates	-11.8095
▁Greeks	-11.8095
stop	-11.8095
▁Morocco	-11.8096
▁locus	-11.8097
▁Lip	-11.8097
erry	-11.8101
▁economics	-11.8102
▁agar	-11.8102
nat	-11.8103
ova	-11.8104
▁grilled	-11.8104
gers	-11.8106
▁79	-11.8109
icular	-11.8109
▁ferns	-11.8112
▁disabilities	-11.8113
▁leopard	-11.8113
▁navigation	-11.8113
▁weaken	-11.8114
▁Pepper	-11.8115
▁serous	-11.8115
▁viewing	-11.8116
▁Pot	-11.8118
▁Lock	-11.8118
▁fleet	-11.8122
▁Mitochondria	-11.8128
▁Watson	-11.813
▁utilities	-11.813
▁Terminal	-11.813
▁acrylic	-11.813
▁calves	-11.813
▁folic	-11.8131
▁swallow	-11.8132
▁1966	-11.8134
▁specializes	-11.8135
▁withstand	-11.8136
▁whisk	-11.814
electric	-11.8144
peri	-11.8145
1.1	-11.8145
▁Soft	-11.8145
lower	-11.8147
▁doctrine	-11.8147
▁endurance	-11.8147
▁Melbourne	-11.8148
▁foramen	-11.8148
EY	-11.815
▁attended	-11.8151
CNS	-11.8153
bab	-11.8154
▁1863	-11.8154
▁Compared	-11.8158
▁strings	-11.8159
▁Cad	-11.816
standing	-11.8162
▁Theory	-11.8163
▁Nazi	-11.8164
▁fascinating	-11.8165
▁clump	-11.8165
/8	-11.8168
▁$175	-11.817
▁PV	-11.8171
RB	-11.8172
posed	-11.8173
▁manic	-11.8176
▁$1500	-11.8176
▁anal	-11.8179
pla	-11.8179
adi	-11.818
▁Rosa	-11.818
disambiguation	-11.8182
▁oxalate	-11.8182
▁Surface	-11.8182
nose	-11.8182
▁Cruise	-11.8182
▁Peace	-11.8182
▁opium	-11.8182
▁Count	-11.8185
▁lizard	-11.8185
▁ureter	-11.8185
▁emit	-11.8185
ffi	-11.8185
▁Everyone	-11.8186
[...]
